<unk>	0
<s>	0
</s>	0
▁.	-2.26337
▁,	-3.35967
▁?	-3.62012
▁	-4.29981
▁거	-4.31388
▁그	-4.35759
도	-4.46986
▁예	-4.49586
는	-4.905
이	-4.96118
▁아	-4.97461
▁안	-5.03145
은	-5.03812
예	-5.11604
가	-5.12365
게	-5.17385
에	-5.20394
을	-5.27417
▁저	-5.30487
▁응	-5.3411
▁뭐	-5.38103
▁영	-5.38364
▁다	-5.43236
▁이제	-5.49853
▁으	-5.50325
▁이	-5.54228
▁건	-5.57863
▁그거	-5.58664
▁막	-5.59666
▁ᄒᆞᆫ	-5.67945
▁때	-5.71257
▁경	-5.75956
고	-5.83577
▁또	-5.85575
▁아니	-5.94501
▁우리	-5.95409
▁어	-5.96905
▁허는	-5.99933
를	-6.00737
만	-6.02569
마씨	-6.07943
▁그런	-6.08516
▁게난	-6.08779
로	-6.09525
▁게	-6.10151
▁헤	-6.12643
▁헹	-6.16344
▁음	-6.17344
▁그냥	-6.21302
서	-6.21567
▁잘	-6.23167
▁허민	-6.24859
지	-6.25834
▁강	-6.29526
민	-6.31666
나	-6.36547
▁어떵	-6.37014
엔	-6.38448
▁헌	-6.38961
▁이젠	-6.41628
▁것도	-6.43002
▁두	-6.46084
▁물	-6.46646
▁못	-6.46925
▁놩	-6.48926
▁나	-6.52517
으로	-6.52648
주게	-6.54488
▁허고	-6.57699
곡	-6.66264
▁개	-6.67952
▁그럼	-6.69588
니까	-6.7486
▁엇어	-6.75182
▁무신	-6.7922
▁거라	-6.80186
▁게민	-6.80974
허고	-6.81607
▁디	-6.81646
▁이렇게	-6.82547
▁어디	-6.83014
▁그건	-6.83171
▁말	-6.84841
▁헐	-6.86354
난	-6.86936
▁그걸	-6.87607
헌	-6.88305
▁헤영	-6.89175
▁번	-6.90004
▁잇고	-6.91707
▁보리	-6.92003
▁헤근에	-6.93304
근에	-6.93658
▁사름	-6.93897
▁어떤	-6.94082
주	-6.94243
사	-6.9471
▁이거	-6.95269
▁거는	-6.95369
▁쉐	-6.95941
이나	-6.96157
▁한	-6.97831
▁옛날	-6.98158
▁때는	-6.99514
덜	-7.00588
젠	-7.0134
▁멧	-7.01961
양	-7.03101
▁가	-7.03345
▁아까	-7.04313
▁가지고	-7.04635
▁그자	-7.05695
▁난	-7.06104
▁허여	-7.06974
▁집	-7.07384
▁여기	-7.08105
▁일	-7.0903
다	-7.09182
▁이디	-7.09697
라	-7.10185
▁세	-7.10339
▁옛날은	-7.10423
▁허영	-7.10714
이엔	-7.11173
▁조	-7.12263
▁큰	-7.12641
▁하영	-7.1276
▁옛날에	-7.12976
▁걸	-7.1382
▁잇어	-7.13856
렌	-7.15561
야	-7.16227
▁불	-7.17395
디	-7.1852
기	-7.19319
진	-7.19678
▁이런	-7.21548
당	-7.21628
▁그게	-7.22389
멍	-7.24948
▁뒈	-7.25044
영	-7.25282
▁밧	-7.25451
▁그때	-7.25483
▁헤서	-7.26853
그네	-7.27711
면은	-7.28269
▁사름은	-7.28758
▁날	-7.29499
▁그디	-7.31532
▁것이	-7.32084
▁집이	-7.32815
▁무시거	-7.33436
여	-7.34782
▁밥	-7.34845
▁허곡	-7.35311
▁아이고	-7.35587
▁헙니까	-7.35622
라고	-7.35856
▁씨	-7.36518
▁먹어	-7.37366
▁간	-7.37686
▁먹고	-7.38248
▁ᄆᆞᆯ	-7.38913
▁많이	-7.39556
▁땐	-7.40462
▁ᄀᆞᆯ아	-7.40618
▁소	-7.41665
▁그렇게	-7.41918
▁주로	-7.42196
▁줄	-7.43369
가지고	-7.44787
질	-7.45464
▁감저	-7.46235
▁콩	-7.46918
▁갈	-7.48275
▁다른	-7.4853
▁놔	-7.48808
▁아아	-7.48832
헐	-7.48869
▁딱	-7.50488
▁옛날엔	-7.50542
▁좀	-7.51381
▁놓고	-7.51703
▁몰라	-7.51746
▁거난	-7.52142
▁사람	-7.52333
▁ᄒᆞ는	-7.53319
▁먹는	-7.53331
▁하나	-7.53882
▁가는	-7.54562
▁지금	-7.54831
▁저기	-7.54841
덴	-7.54887
▁더	-7.55175
▁살	-7.55378
▁같은	-7.55817
▁ᄋᆞ	-7.55956
▁네	-7.57154
▁하	-7.57209
▁우린	-7.57458
▁가민	-7.57908
에서	-7.5791
▁걸로	-7.57921
레	-7.58089
어	-7.58294
▁나가	-7.58394
▁ᄒᆞ민	-7.59998
▁ᄒᆞ영	-7.60465
▁사름이	-7.60515
▁다음에	-7.60839
▁요	-7.6184
▁ᄒᆞ나	-7.62778
▁무슨	-7.63089
▁놓곡	-7.63112
저	-7.6396
▁낭	-7.6427
▁헤도	-7.64853
▁삼춘	-7.65045
랑	-7.65475
▁돌	-7.66449
▁베	-7.66503
이라고	-7.67231
▁보통	-7.6858
▁떡	-7.6861
허는	-7.68705
▁헤여	-7.69584
▁옷	-7.69611
▁해	-7.6973
▁아니고	-7.69885
▁뒈여	-7.70676
▁헨	-7.70778
면	-7.71358
▁원	-7.71434
▁가지	-7.71916
허게	-7.72138
이라	-7.72167
▁에	-7.7231
▁엇고	-7.72796
▁종류	-7.7335
▁비	-7.73693
이렌	-7.74537
▁그걸로	-7.75009
▁허	-7.75564
▁옛날에는	-7.75682
▁게믄	-7.75731
인가	-7.75787
들	-7.76065
▁놔근에	-7.76074
▁겅	-7.76087
▁신	-7.76087
▁무신거	-7.76319
▁ᄒᆞ꼼	-7.76812
▁허난	-7.77465
▁년	-7.77742
▁ᄒᆞᄊᆞᆯ	-7.78009
잖아예	-7.79058
엉	-7.79363
▁어느	-7.79793
▁그것이	-7.79834
▁허면은	-7.79878
▁이건	-7.80732
▁걸름	-7.80913
▁장	-7.81012
▁상	-7.81085
▁검질	-7.81191
▁먹곡	-7.82146
▁삼	-7.82595
네	-7.8263
▁식으로	-7.82842
▁이녁	-7.8295
▁ᄒᆞ곡	-7.83071
▁지	-7.83444
긴	-7.83651
이고	-7.8384
▁농사	-7.83916
▁돈	-7.84073
▁수	-7.84262
▁갈아	-7.84448
▁사	-7.84479
▁그때는	-7.84658
▁애기	-7.84669
▁잇는	-7.84698
▁아이	-7.84902
▁기자	-7.85205
▁놓는	-7.86099
▁무사	-7.86182
▁죽	-7.87835
▁대	-7.87857
허민	-7.88306
인	-7.88514
옌	-7.88951
수과	-7.89302
▁허멍	-7.89365
아	-7.8981
▁먹을	-7.89974
▁이서	-7.90147
▁나는	-7.90171
▁열	-7.9022
하고	-7.91026
▁그것도	-7.912
믄	-7.91452
▁허젠	-7.91978
헹	-7.92102
▁그믄	-7.92508
헤	-7.92523
▁뭐렌	-7.92723
▁뒈는	-7.93114
▁정도	-7.93192
▁제	-7.93246
▁ᄎᆞᆷ	-7.93315
▁헤난	-7.93366
▁이제는	-7.93483
▁들어	-7.93998
▁새	-7.95589
▁아무	-7.96353
▁그거는	-7.9643
은에	-7.96778
▁거고	-7.96894
▁때도	-7.97524
히	-7.97876
▁말고	-7.98416
▁사람이	-7.98486
▁여기는	-7.9912
▁좋아	-8.00109
▁ᄊᆞᆯ	-8.00119
이옌	-8.00138
▁우에	-8.00533
▁언제	-8.00629
▁내	-8.00642
▁다시	-8.00731
▁ᄆᆞᆫ	-8.00982
린	-8.0099
▁ᄒᆞ여그네	-8.01045
다가	-8.01821
▁동네	-8.01883
▁그레	-8.0216
데	-8.02416
▁오	-8.02726
▁허면	-8.02784
는데	-8.03014
▁거주	-8.03345
▁거기	-8.03406
구나예	-8.04138
한	-8.04166
▁왕	-8.04171
▁거예	-8.04453
▁허주	-8.04553
더레	-8.05331
▁좋은	-8.05448
▁시	-8.05511
▁만들어	-8.05834
의	-8.06104
▁배	-8.06149
▁메	-8.0622
▁나무	-8.07069
져	-8.0707
▁따시	-8.0765
▁자	-8.0872
▁국	-8.09171
▁허주게	-8.09634
▁손으로	-8.09964
▁하하하	-8.09975
▁맛	-8.10738
▁촐	-8.10754
▁밧듸	-8.11007
▁서	-8.11045
▁허지	-8.11131
꽈	-8.11283
▁흑	-8.11487
▁만드는	-8.11755
▁우리가	-8.12549
▁기	-8.13224
▁헷수과	-8.13582
▁ᄀᆞ튼	-8.13603
▁헤가지고	-8.13929
▁그땐	-8.14464
낫수과	-8.14465
▁거주게	-8.1464
▁미녕	-8.14777
▁산	-8.1496
릴	-8.15886
▁ᄆᆞᆫ딱	-8.15904
시	-8.16142
ᄒᆞᆫ	-8.16197
▁실	-8.16412
▁와	-8.16521
▁혹시	-8.16809
▁우이	-8.17221
▁풀	-8.1742
▁건디	-8.18312
는디	-8.18454
▁뒌	-8.19013
▁잇수과	-8.20101
▁경헹	-8.20106
신디	-8.20151
▁제사	-8.20218
▁겐디	-8.20363
▁문	-8.20388
▁집이서	-8.2106
▁도새기	-8.21149
▁뒈고	-8.2176
▁ᄒᆞ여	-8.21806
허곡	-8.21807
거든	-8.21904
▁어떻게	-8.22117
▁나민	-8.22245
▁그다음에	-8.2257
일	-8.22597
▁머	-8.22633
▁여기서	-8.2267
▁만이	-8.23372
▁것	-8.23391
▁다섯	-8.23804
▁보	-8.24106
▁ᄑᆞᆺ	-8.2418
▁젤	-8.24507
앙	-8.24574
▁아녀	-8.24595
▁피	-8.24712
▁보민	-8.24783
던	-8.24919
만은	-8.25249
놩	-8.25632
리	-8.26693
▁전에	-8.26712
▁헷주	-8.26818
과	-8.26861
이여	-8.27119
▁가근에	-8.27173
오	-8.27456
▁담	-8.27911
▁술	-8.28265
▁사람은	-8.28427
▁거꽈	-8.2866
▁데	-8.29634
▁ᄉᆞᆯ	-8.29899
▁사름덜	-8.29922
▁ᄒᆞᆯ	-8.29958
▁모	-8.30202
▁헌다	-8.30288
▁물에	-8.31552
▁알	-8.31558
▁나도	-8.31641
자	-8.31844
▁살아	-8.32184
▁밧디	-8.33123
▁허는디	-8.33237
▁경허민	-8.33252
▁방	-8.33373
라도	-8.33501
▁잇잖아	-8.33603
인디	-8.34032
▁행	-8.3409
▁ᄀᆞ뜬	-8.34589
▁뒈민	-8.34615
▁파	-8.34768
▁멩질	-8.35128
▁담아	-8.35138
▁차	-8.35308
ᄒᆞ고	-8.35436
▁논	-8.3548
▁제일	-8.35626
▁허믄	-8.35877
▁발	-8.3613
든	-8.36151
▁올	-8.36215
▁ᄒᆞ고	-8.36491
▁때에	-8.36519
▁아니라	-8.36716
단	-8.37095
▁ᄉᆞᆱ앙	-8.37398
▁하고	-8.37677
▁온	-8.37744
씩	-8.38102
▁반	-8.38138
▁잔치	-8.38147
▁부	-8.3854
실	-8.38636
썩	-8.3873
이영	-8.39262
▁할머니	-8.39275
▁뒐	-8.39391
에는	-8.3946
▁겐	-8.39544
▁ᄃᆞᆯ	-8.39589
▁멜	-8.39959
▁ᄀᆞ루	-8.40014
▁지금은	-8.40022
음	-8.40428
▁자리	-8.40434
▁허니까	-8.40735
▁담앙	-8.40999
▁잡아	-8.41141
▁몇	-8.41252
부터	-8.41426
▁기냥	-8.41529
▁엿날	-8.41649
▁맞수다	-8.41787
▁ᄀᆞᆯ아줍서	-8.42087
▁이게	-8.42137
▁맞아	-8.42382
▁이레	-8.42499
▁써	-8.42989
▁ᄒᆞ	-8.43719
▁감	-8.44036
▁여러	-8.4407
▁가지고서	-8.44177
▁헤마씨	-8.44533
헤영	-8.44552
▁하는	-8.44868
▁일본	-8.44915
상	-8.44923
▁질	-8.44965
▁물이	-8.45126
▁헤야	-8.45255
▁사름도	-8.45506
▁그추룩	-8.45884
덜은	-8.46057
▁주	-8.46586
와	-8.46703
▁좁ᄊᆞᆯ	-8.46804
▁족은	-8.46901
▁가고	-8.47
▁쓰는	-8.47137
마씸	-8.47148
▁꼭	-8.47174
▁고기	-8.47323
▁고	-8.47326
▁결혼	-8.47537
▁닮은	-8.47867
왕	-8.47891
▁눌	-8.48
▁말이	-8.48114
▁오래	-8.48187
▁탁	-8.48275
▁소금	-8.48475
▁놔두민	-8.49084
▁다음	-8.49194
▁눈	-8.49211
▁잇지	-8.49305
낭	-8.49329
▁게메	-8.49492
▁아주	-8.4964
▁엿날에	-8.50021
▁땅	-8.50506
▁엇인	-8.50807
▁허게	-8.51213
▁뒌장	-8.51319
▁전이	-8.51374
▁잇곡	-8.51579
▁골	-8.51811
▁솟	-8.51983
▁그거를	-8.52079
장	-8.52191
▁손	-8.52322
헤근에	-8.52373
▁이름	-8.52477
▁식게	-8.52677
거	-8.52789
▁무	-8.52811
▁아래	-8.53697
▁ᄉᆞᆱ아	-8.54
▁밀	-8.54404
이라도	-8.54407
▁먹	-8.54491
▁거시기	-8.54583
▁영영	-8.54596
▁봐	-8.54655
▁오랑	-8.54764
▁거마씨	-8.54851
▁연	-8.55205
▁싸	-8.55258
▁헤당	-8.55414
▁진	-8.55416
▁할	-8.55585
▁ᄄᆞ로	-8.55887
▁바당에	-8.56109
▁만들	-8.56143
▁야	-8.56835
가민	-8.57148
근엥	-8.57175
▁거기서	-8.57179
ᄒᆞ곡	-8.57291
불민	-8.57376
▁엇이	-8.57395
▁말은	-8.57522
▁헤낫수과	-8.57627
해	-8.57783
▁ᄒᆞ난	-8.5811
▁들어가	-8.58309
▁여자	-8.58365
▁잇	-8.58491
▁디가	-8.58892
▁사는	-8.58963
▁타	-8.59051
▁하르방	-8.59135
▁놓민	-8.59276
▁예예	-8.5931
▁여름에	-8.5937
▁잇주게	-8.59388
다근에	-8.59556
▁ᄄᆞᆯ	-8.59559
까지	-8.59562
▁사당	-8.5957
▁들	-8.59574
▁커	-8.59741
이주	-8.59847
▁거라예	-8.59906
▁영장	-8.6027
▁따로	-8.60312
▁멘네	-8.60491
▁헷주게	-8.60538
▁매	-8.60614
▁없어	-8.60628
거나	-8.60954
▁요즘	-8.60969
▁짜	-8.61142
▁가서	-8.61172
▁나와	-8.61255
대로	-8.61263
▁ᄀᆞ찌	-8.61288
▁마을	-8.61323
▁놧당	-8.61355
▁설	-8.6136
▁궤	-8.61379
▁전부	-8.61394
▁ᄃᆞᆨ	-8.61433
▁줘	-8.61641
▁줍서	-8.61969
령	-8.61989
▁머리	-8.62132
ᄁᆞ지	-8.62207
들이	-8.62213
마는	-8.62953
▁고구마	-8.63354
▁겡	-8.63362
주만은	-8.63737
▁메주	-8.64132
▁정	-8.64207
▁셔	-8.6509
▁ᄂᆞᆷ삐	-8.65241
▁숫	-8.65559
신	-8.65811
ᄒᆞ게	-8.66055
▁꿩	-8.66416
▁굴묵	-8.66428
대	-8.66938
▁멘들앙	-8.67066
▁때문에	-8.67087
▁집에	-8.67102
▁ᄀᆞ치	-8.67298
허영	-8.6754
▁밑에	-8.67904
수	-8.6826
▁웨	-8.6832
▁달	-8.68573
▁맛이	-8.68588
▁체	-8.68781
▁뒈어	-8.68805
▁짓	-8.6889
▁남	-8.68955
▁첨	-8.68977
▁크게	-8.69005
▁ᄉᆞ	-8.69055
▁양	-8.69513
▁멘들아	-8.69514
▁올려	-8.69605
▁요디	-8.69881
▁이불	-8.70024
▁약	-8.70056
▁범벅	-8.70403
구	-8.70531
▁사름덜은	-8.70697
▁경헨	-8.70868
▁떼	-8.70888
니	-8.70974
▁뒈면은	-8.70991
▁경허난	-8.71232
날	-8.71332
▁그대로	-8.71381
▁엿날은	-8.71586
▁쉬	-8.71632
▁남자	-8.71968
▁자기	-8.72046
▁완전	-8.72219
▁딘	-8.72244
▁그러면	-8.72358
▁겨울에	-8.72547
부난	-8.72666
▁동	-8.72707
▁거세기	-8.72972
▁바로	-8.73206
이랑	-8.73513
▁죽어	-8.73518
▁메역	-8.73807
▁새각시	-8.73862
▁어멍	-8.73926
▁허는데	-8.74031
들은	-8.74166
▁놀	-8.74784
▁마찬가지	-8.7495
▁여	-8.75017
▁어머니	-8.75058
▁멩지	-8.75099
▁엇수과	-8.7573
선	-8.75863
▁집의	-8.76148
▁죽은	-8.76461
▁톡	-8.76631
물	-8.76696
▁아덜	-8.76772
▁검은	-8.76973
▁안허여	-8.77036
▁헷	-8.77222
▁잇어마씨	-8.77238
▁육지	-8.77249
▁천	-8.77304
▁대해서	-8.77323
▁전	-8.77332
▁똑	-8.77555
▁본	-8.7774
▁뒈지	-8.77931
▁것ᄀᆞ라	-8.78138
▁일로	-8.78185
▁오는	-8.78311
▁가졍	-8.78322
▁보리ᄊᆞᆯ	-8.78396
▁당	-8.78443
▁종류는	-8.78564
▁우리도	-8.78583
졍	-8.78623
▁가곡	-8.78632
▁짐	-8.78648
ᄀᆞ라	-8.78681
▁ᄄᆞ시	-8.78865
▁하하	-8.79285
▁안허고	-8.79343
▁준비	-8.7935
▁노	-8.79375
▁그다음엔	-8.79403
▁엿날엔	-8.79506
▁무싱거	-8.79643
▁어린	-8.79822
지민	-8.80077
▁만든	-8.80097
문	-8.802
건	-8.80379
▁보난	-8.80401
마다	-8.80522
▁여긴	-8.80528
수다	-8.80556
▁지금도	-8.80739
▁적	-8.81061
▁오민	-8.8122
▁것은	-8.81225
▁잇주	-8.81255
▁헷어	-8.81274
▁제주도	-8.8149
▁뭘로	-8.81514
▁치	-8.81553
▁항	-8.81659
▁요즘은	-8.81691
▁거름	-8.81804
▁마	-8.8201
▁누게	-8.82321
▁헹은에	-8.8239
▁꿰	-8.82676
▁ᄀᆞᆯ	-8.82709
루	-8.82722
▁부난	-8.82826
▁이신	-8.82874
지예	-8.82876
▁무꺼	-8.82926
▁마리	-8.8295
▁요렇게	-8.82979
동	-8.83132
▁분	-8.83181
▁그것	-8.83338
갈	-8.83414
주마는	-8.83916
▁입어	-8.84071
▁수가	-8.84211
▁ᄀᆞᆯ앙	-8.84236
▁놓	-8.84268
▁빠	-8.84357
세	-8.84389
▁아니면	-8.84629
운	-8.84713
▁나중에	-8.8472
▁이거는	-8.8491
이주게	-8.84911
▁소리	-8.84929
▁가면은	-8.85062
▁얘기	-8.85113
다고	-8.85187
광	-8.85237
▁기계	-8.85245
▁할망	-8.85252
▁이것	-8.85724
부	-8.85799
▁초신	-8.858
▁저고리	-8.85869
꽝	-8.85978
메	-8.86125
할	-8.86256
베끠	-8.86409
근엥에	-8.86416
고예	-8.86612
▁바지	-8.86673
▁주고	-8.86718
락	-8.86787
▁요만씩	-8.86857
▁그것에	-8.87012
▁졍	-8.87444
▁관	-8.87561
강	-8.87702
▁집을	-8.87743
보다	-8.87877
▁무수	-8.8792
▁짐치	-8.88013
▁곤밥	-8.8806
▁대로	-8.88424
▁때나	-8.8845
▁아기	-8.88498
▁비료	-8.88612
▁중간에	-8.88662
▁우의	-8.88706
▁이딘	-8.88755
러	-8.88937
치	-8.88971
▁이름이	-8.88972
▁귀	-8.8905
▁말로	-8.89126
▁	-8.89348
▁우	-8.89393
▁얼마	-8.89395
▁이제도	-8.89443
▁산듸	-8.89528
▁요거	-8.89581
▁갈앙	-8.89611
▁쉐로	-8.89682
▁누룩	-8.8989
허여	-8.90085
▁나고	-8.90131
▁입	-8.90266
덜이	-8.90499
▁것에	-8.90563
▁거를	-8.90639
▁ᄒᆞ멍	-8.90734
▁만	-8.91022
▁뭘	-8.91091
▁똥	-8.91196
뒁	-8.91225
▁썰어	-8.91299
국	-8.91456
▁뭇	-8.91468
▁이것도	-8.91594
▁갓	-8.91614
▁산디	-8.9162
른	-8.91878
니깐	-8.91905
▁단	-8.92371
▁먹젠	-8.92416
▁벳	-8.92455
▁겨난	-8.92768
낫어	-8.93036
▁이걸	-8.93136
두	-8.93241
▁헤연	-8.93295
▁새끼	-8.93332
▁밧을	-8.93579
▁속	-8.93628
▁먼저	-8.93656
▁물레	-8.93763
▁누에	-8.93904
▁씰	-8.94047
려	-8.94132
▁ᄂᆞ물	-8.94483
▁어르신	-8.94573
▁속에	-8.9479
불	-8.95098
▁ᄒᆞ게	-8.95112
▁처음	-8.9514
▁구	-8.9533
▁시방	-8.95549
▁아방	-8.95741
마	-8.95867
▁그다음	-8.96022
▁고망	-8.96121
▁비어	-8.96261
▁들어가는	-8.96378
▁정월	-8.96406
▁알아	-8.96502
▁아니꽈	-8.96617
헤서	-8.96784
▁주십시	-8.96982
▁쌀	-8.97119
▁아이덜	-8.97127
▁보고	-8.97153
▁시간	-8.97266
▁사람들	-8.97284
▁쪼금	-8.97452
▁젓	-8.97468
제	-8.97481
▁음식	-8.97672
구나	-8.97693
▁쳐	-8.97866
▁팔월	-8.97888
▁쭉	-8.9802
▁안네	-8.98033
▁새로	-8.98139
▁나온	-8.98166
▁방에	-8.98208
▁서껑	-8.98432
간	-8.98622
▁궤기	-8.98647
▁거의	-8.99344
▁바농	-8.99432
▁엇이난	-8.99566
연	-8.99656
▁굴	-8.99829
넨	-8.99873
▁산에	-8.99972
▁올레	-9.00038
▁널	-9.00137
▁장물	-9.00143
면서	-9.00268
▁하간	-9.00466
분	-9.0071
▁불어	-9.00751
▁ᄃᆞᆯ아	-9.00773
▁고사리	-9.00813
▁ᄀᆞᆮ는	-9.00846
▁쒀	-9.00902
▁접	-9.01062
▁어디서	-9.01182
▁호미로	-9.01675
▁말앙	-9.01702
▁이추룩	-9.01795
▁집은	-9.0189
▁공출	-9.02221
에도	-9.02271
지는	-9.02525
▁뿌려	-9.02596
▁저디	-9.02635
▁포	-9.0278
▁거튼	-9.02848
▁좋고	-9.02952
▁물질	-9.02979
허젠	-9.03231
우	-9.03268
▁거나	-9.0342
▁먹지	-9.03532
▁우리는	-9.03622
▁엿	-9.03814
▁ᄇᆞᆯ라	-9.03827
▁ᄎᆞᆯ레	-9.03843
▁입는	-9.03856
▁닮아	-9.03996
▁나오는	-9.04006
▁채	-9.04016
▁일곱	-9.04045
▁가난	-9.04122
차	-9.04137
▁받아	-9.04204
▁싹	-9.04251
▁솔벤	-9.04368
시민	-9.04406
▁침떡	-9.04558
▁아무것	-9.04687
▁성	-9.04798
▁헤여근에	-9.04805
정	-9.05029
▁게도	-9.05166
▁시에	-9.05323
하게	-9.05324
▁절	-9.05407
▁불고	-9.0559
▁찍	-9.05592
▁자꾸	-9.05628
▁적삼	-9.05793
▁같이	-9.05805
▁헌디	-9.05805
허	-9.0584
▁뭔가	-9.06086
▁곤ᄊᆞᆯ	-9.0616
▁허연	-9.06226
▁ᄒᆞ연	-9.06298
▁미	-9.06322
▁ᄆᆞᆯ은	-9.06363
보	-9.06401
▁처음에	-9.06596
▁돌레떡	-9.06619
▁오란	-9.06742
살	-9.06756
▁봄	-9.06791
▁먹엇주	-9.06828
▁오고	-9.06866
▁집에서	-9.06877
▁학교	-9.06941
▁호미	-9.06954
▁이디서	-9.06997
ᄒᆞ는	-9.07158
▁빌엉	-9.07214
▁헨마씨	-9.07272
▁해서	-9.07305
▁아버지	-9.07347
▁광목	-9.0736
▁벌	-9.07369
▁따	-9.07495
▁빌	-9.07528
▁요새	-9.07638
▁물을	-9.07667
▁그날	-9.0797
▁바	-9.081
▁보면은	-9.08387
▁ᄂᆞᆯ	-9.0861
▁시집	-9.08702
▁ᄀᆞᆯ앗수과	-9.08789
▁탕	-9.08861
▁끗	-9.09088
▁낭으로	-9.091
▁묵	-9.09274
추룩	-9.0951
론	-9.09558
▁헤낫어	-9.09737
▁이만이	-9.09841
▁오라	-9.10047
▁주는	-9.1007
▁바당	-9.10157
▁아이들	-9.10274
▁절벤	-9.10316
▁ᄑᆞᆺ죽	-9.1036
▁모자	-9.10567
▁터	-9.10677
▁요만이	-9.107
▁헷지	-9.10733
▁계	-9.11027
길	-9.11099
▁백	-9.1111
▁말렌	-9.11171
▁만들아	-9.11185
란	-9.11239
▁필요	-9.1128
▁ᄒᆞ면은	-9.11318
▁안에	-9.11367
▁보리밥	-9.11378
▁지어	-9.11396
▁먹엉	-9.11629
▁살고	-9.11635
▁간장	-9.11723
▁빙떡	-9.11886
▁하지	-9.12113
▁너무	-9.1213
▁모멀	-9.12212
▁것덜	-9.12498
이난	-9.12502
▁멍에	-9.12506
▁잡는	-9.12552
▁순	-9.12692
▁식	-9.12884
▁헨에	-9.12978
이민	-9.13003
▁거여	-9.13188
▁우선	-9.13254
인데	-9.1338
▁석	-9.13607
▁테	-9.13609
하	-9.13709
▁얼마나	-9.14023
▁지슬	-9.14333
▁호	-9.14385
▁썰엉	-9.14388
안티	-9.14399
▁잡	-9.14488
드레	-9.14891
안	-9.14967
▁서리	-9.15014
년	-9.15067
▁누	-9.15157
떡	-9.15182
시리	-9.15325
▁여름	-9.1534
▁져	-9.15357
▁십	-9.15442
▁배추	-9.15524
▁껍데기	-9.15714
산	-9.15855
난에	-9.15909
▁놈	-9.15993
▁전복	-9.16019
▁가면	-9.16023
까	-9.16057
▁무껑	-9.16124
▁두불	-9.16312
▁깍	-9.16345
▁수확	-9.16543
▁ᄑᆞᆯ	-9.16544
▁요건	-9.16781
낫저	-9.17154
▁유월	-9.17247
▁것과	-9.17368
▁올리는	-9.17373
▁헤신디	-9.17396
▁게니까	-9.17564
▁반찬	-9.17601
▁헤낫저	-9.17619
▁노래	-9.17907
▁딴	-9.17957
▁사진	-9.18192
▁양념	-9.1828
▁둘	-9.18347
▁기억	-9.18484
비	-9.18563
내	-9.18633
▁ᄀᆞ레	-9.18709
만이	-9.18979
봣수과	-9.19051
▁덜	-9.19055
▁개역	-9.19087
▁만약	-9.19102
▁소곰	-9.19356
▁심방	-9.19374
▁뎅겨	-9.19473
▁경헤도	-9.19604
▁밧이	-9.19661
▁김치	-9.19854
▁놔그네	-9.19984
▁거니까	-9.20037
▁보니까	-9.20147
▁지붕	-9.20155
▁자리젓	-9.20335
▁ᄂᆞᄆᆞᆯ	-9.20336
▁ᄒᆞ루	-9.2038
불어	-9.20384
▁감자	-9.20445
나민	-9.20484
불고	-9.20527
▁점	-9.20598
▁있고	-9.20614
▁못허게	-9.20631
집	-9.21145
▁벨	-9.2126
▁시리	-9.21435
▁가젠	-9.21443
▁생각	-9.21461
▁보말	-9.2158
▁쒕	-9.216
수가	-9.21689
울	-9.22082
▁콩은	-9.22171
다예	-9.22181
라는	-9.22223
▁먹으민	-9.22256
▁것만	-9.22496
▁우터레	-9.22795
▁불치	-9.22867
▁훼	-9.23
▁비와	-9.23073
으민	-9.23288
▁저거	-9.23292
▁거우과	-9.23332
▁돌로	-9.2337
냐	-9.2347
▁그러니까	-9.23482
▁선	-9.23516
▁여기선	-9.23556
기도	-9.23562
▁밥을	-9.23649
▁경ᄒᆞ민	-9.23694
▁ᄋᆢ라	-9.23734
▁복	-9.23807
▁아무나	-9.24036
▁별로	-9.24053
▁ᄂᆞᆷ의	-9.24075
▁허당	-9.24185
▁아니우꽈	-9.24282
▁뒈니까	-9.24359
기가	-9.24469
▁톱	-9.24548
▁있는	-9.24596
▁ᄒᆞ끔	-9.24674
▁그래서	-9.24781
▁불민	-9.24904
▁허고예	-9.24926
언	-9.24929
▁시민	-9.25002
▁엇이민	-9.25058
▁코	-9.25249
▁너	-9.25454
▁마당에	-9.25489
▁입곡	-9.25511
▁동지	-9.25595
▁마농	-9.25786
▁심	-9.25824
▁먹언	-9.25911
불곡	-9.26082
▁메누리	-9.2609
쯤	-9.26111
▁검질은	-9.26153
▁사름덜이	-9.26223
▁착	-9.26277
▁아녀고	-9.26293
▁ᄀᆞ	-9.26456
▁초	-9.26475
▁싯곡	-9.26735
▁거문	-9.26786
▁완	-9.26798
▁모시	-9.26962
▁앞에	-9.27071
헨	-9.27138
▁평	-9.27259
▁보면	-9.27281
▁끌령	-9.27291
▁비는	-9.27428
▁나무로	-9.27503
베	-9.27517
▁갈고	-9.27814
처럼	-9.27922
▁메는	-9.27976
▁벨로	-9.2818
▁꺼	-9.28224
▁고치	-9.28231
▁와서	-9.28559
게시리	-9.28627
▁그거주게	-9.28665
▁팔	-9.28699
▁오월	-9.28746
▁기구나	-9.28763
▁안헤	-9.28788
▁여기도	-9.29056
▁거려	-9.29152
▁조금	-9.29214
보단	-9.29329
▁바리	-9.29367
▁얼	-9.29375
▁질메	-9.29395
▁그디서	-9.29402
▁내가	-9.2944
▁톨	-9.29442
▁집의서	-9.29715
▁조는	-9.29745
▁허벅	-9.29883
▁년에	-9.29935
▁곱게	-9.30053
글	-9.30089
▁옛날도	-9.30137
▁뎅기는	-9.30226
▁갑	-9.30247
▁ᄑᆞᆯ아	-9.30312
▁명	-9.30375
▁통	-9.30505
▁계속	-9.30615
지고	-9.30615
▁수도	-9.30847
▁아이구	-9.30879
▁멕여	-9.31065
▁다리	-9.31125
▁잡앙	-9.31153
▁돌아	-9.31318
▁단추	-9.31397
▁발로	-9.315
ᄁᆞ장	-9.31657
▁헤낫주	-9.31713
▁사람도	-9.3202
▁만들엉	-9.32026
▁거지	-9.32066
▁치메	-9.32135
▁엇주게	-9.32172
션마씨	-9.32178
▁두부	-9.325
▁이상	-9.32644
▁열두	-9.32653
▁보선	-9.32672
▁헤근엥	-9.32881
씨	-9.33096
▁후에	-9.33144
▁쓰고	-9.33156
▁잇엇	-9.33245
▁심어	-9.33639
▁뒌다	-9.33776
올	-9.33937
니다	-9.34137
▁색깔	-9.34149
▁길	-9.3437
▁팡	-9.34385
▁알아마씨	-9.34397
▁칠	-9.3445
ᄀᆞ치	-9.34455
전	-9.34768
헤여	-9.34823
▁멘드는	-9.3483
▁만들고	-9.34944
낫주게	-9.34945
▁사람덜	-9.35185
▁나난	-9.35435
▁익어	-9.35475
▁솔입	-9.35476
▁담배	-9.35495
▁ᄇᆞᆯ려	-9.35497
▁앚앙	-9.35541
▁맨	-9.35614
▁독	-9.3565
▁주곡	-9.3567
놔근에	-9.35732
▁겨울	-9.35804
▁사발	-9.35839
▁뭐엔	-9.35936
▁집도	-9.36005
▁이시민	-9.36065
▁흰	-9.3616
▁허허	-9.36235
헙니까	-9.36382
▁허주만은	-9.36455
▁노랑	-9.36467
▁싯고	-9.36497
▁멘	-9.36533
▁상당	-9.36539
줄	-9.36572
▁잘도	-9.36638
▁경헤	-9.3671
▁옆에	-9.36888
우과	-9.36893
요	-9.3691
▁알앗수다	-9.36912
▁ᄂᆞ람지	-9.36928
▁입엉	-9.37039
하는	-9.37088
▁마을에	-9.37161
▁ᄇᆞᆯ르	-9.37277
▁ᄒᆞᆸ니까	-9.37304
▁앞이	-9.37425
▁ᄒᆞ젠	-9.37525
▁사냥	-9.37649
▁이름은	-9.37706
보고	-9.3788
▁뒤에	-9.37978
▁어머니가	-9.38026
ᄒᆞ민	-9.38083
▁이십	-9.38183
근	-9.38201
▁젊은	-9.38223
▁젓갈	-9.38384
▁대헤서	-9.38449
▁헷는데	-9.38605
▁디는	-9.38623
▁헤사	-9.38746
밥	-9.38878
▁조팝	-9.38944
▁ᄆᆞ멀	-9.39023
▁굿	-9.3904
▁있	-9.39155
▁거기에	-9.39163
▁살안	-9.39267
▁엇어마씨	-9.39369
▁ᄆᆞᆯ방에	-9.39553
▁지름	-9.39568
▁경허고	-9.39633
▁허리	-9.39656
▁오십	-9.39764
▁인절미	-9.39839
▁쉐가	-9.39844
나고	-9.39863
▁중	-9.39887
▁대문	-9.40001
▁건데	-9.40277
▁밤이	-9.40299
▁털	-9.40314
느냐	-9.4035
▁갓다	-9.4054
▁가운디	-9.40625
▁봄에	-9.40846
벳긔	-9.40862
▁낫	-9.41291
▁메칠	-9.41361
▁등	-9.4139
▁만들앙	-9.41399
▁월령	-9.41521
▁여기서는	-9.41528
▁들엉	-9.41593
경	-9.4164
▁멘들	-9.41868
▁듬북	-9.41904
▁싯	-9.41959
▁돗	-9.42084
▁근데	-9.42215
▁예전에	-9.42436
▁기억나는	-9.42474
▁하도	-9.42539
수광	-9.42571
▁지시	-9.42586
▁말도	-9.42593
▁정지	-9.42606
▁가시	-9.42608
▁가져	-9.4265
▁공기	-9.427
카부덴	-9.42834
▁친떡	-9.42865
▁ᄒᆞᆸ니다	-9.4301
▁혼자	-9.43094
방	-9.43136
▁빼	-9.43154
▁헙니다	-9.4317
▁뒈면	-9.43697
▁까	-9.43775
▁ᄑᆞ는	-9.44032
▁지내	-9.44242
▁보는	-9.44316
▁잘못	-9.44333
▁산뒤	-9.44377
▁우트레	-9.44407
▁따라	-9.44426
▁뎅기멍	-9.4448
▁죽을	-9.44534
▁걸어	-9.44561
▁하면	-9.4464
▁눌어	-9.44651
▁큰일	-9.4467
이라는	-9.44737
▁날이	-9.44738
▁나면은	-9.44865
▁신랑	-9.44959
▁ᄌᆞ	-9.44977
▁참	-9.45189
▁그민	-9.45212
▁이파리	-9.45254
▁ᄃᆞᆯ앙	-9.4526
으니까	-9.45391
ᄒᆞᆯ	-9.4542
▁뿔	-9.45496
▁소곱에	-9.45615
▁쓰	-9.45662
▁진짜	-9.45741
▁징	-9.45803
▁그렇지	-9.45971
▁이녁냥으로	-9.45985
▁나오	-9.46084
▁이만씩	-9.46129
▁칸	-9.46222
▁뽑아	-9.46278
▁시끄	-9.4628
▁놘	-9.46319
▁이수과	-9.46323
▁장만	-9.46331
▁놔도	-9.46333
▁햇주	-9.46508
▁초불	-9.46611
온	-9.4664
▁ᄀᆞ시락	-9.46753
▁감주	-9.46836
▁하나씩	-9.46924
적으로	-9.47007
▁가시리	-9.47011
▁좁썰	-9.47096
▁옷은	-9.47405
튼	-9.4745
▁클	-9.47452
▁집집마다	-9.47565
▁곤떡	-9.47571
▁모냥으로	-9.47605
지도	-9.47637
▁경헌디	-9.47724
▁보내	-9.4778
▁아들	-9.47878
▁시꺼	-9.4792
▁헤기네	-9.47952
▁함덕	-9.48069
▁남저	-9.48118
▁뿌리	-9.483
▁목장	-9.48302
ᄒᆞ영	-9.48314
르	-9.48375
▁오줌	-9.48376
허면은	-9.48431
▁송편	-9.48525
▁많	-9.48551
▁잇는데	-9.48621
그	-9.48644
▁상제	-9.48726
▁시작	-9.49008
▁땅이	-9.49016
▁떡은	-9.49069
▁짜는	-9.49097
▁놔야	-9.49169
▁ᄐᆞᆮ아	-9.4917
▁콩ᄂᆞ물	-9.49181
▁훍은	-9.49184
▁더껑	-9.49193
▁숨메	-9.49194
▁자치기	-9.49231
▁개가	-9.49238
▁ᄆᆞ물	-9.49312
▁삐	-9.49453
▁음력	-9.49955
▁놔서	-9.49979
▁물어보쿠다	-9.50005
▁요만썩	-9.50043
▁썽	-9.50043
▁딱딱	-9.50076
▁잇저	-9.50124
▁먹어난	-9.50243
▁쟁기	-9.50649
▁돌아가	-9.50665
▁유월절	-9.50732
▁ᄀᆞᆫ	-9.50734
▁나록	-9.50844
▁틀려	-9.50869
▁포제	-9.50875
▁빨리	-9.50876
▁일름	-9.50892
▁헌덴	-9.5094
▁퍼	-9.50986
▁놓면	-9.51244
▁메여	-9.51267
▁고팡	-9.51277
허멍	-9.51394
▁기계로	-9.51419
▁솜	-9.51495
허지	-9.51495
▁놉	-9.5152
▁웃드르	-9.51591
마씀	-9.51629
▁공	-9.51647
▁옛날에도	-9.51849
▁오늘	-9.51851
▁고지	-9.51887
▁소상	-9.51956
소	-9.52033
다는	-9.52162
름	-9.52342
▁가믄	-9.52442
▁총	-9.52472
▁남은	-9.52535
▁굽	-9.52647
▁뒈주게	-9.52647
▁구들	-9.52704
▁그릇	-9.52842
▁창	-9.53004
▁생	-9.53135
▁멍석	-9.53147
▁거우다	-9.53273
▁스무	-9.53353
주고	-9.5343
▁저레	-9.53436
베끼	-9.53475
▁뿌리는	-9.53554
▁오곡	-9.53747
▁재	-9.53784
▁하면은	-9.53927
▁말라	-9.54167
▁어른	-9.5421
▁더끄	-9.54352
▁힘들어	-9.54352
며는	-9.5439
적	-9.54418
▁검질메	-9.54441
▁작은	-9.545
▁뒤	-9.54647
미	-9.54782
덜토	-9.54826
▁날은	-9.54916
이면	-9.54945
▁다음에는	-9.55144
▁웃	-9.55188
▁심엉	-9.55191
▁ᄒᆞᆫ번	-9.55209
▁상웨떡	-9.55251
배	-9.55313
젼	-9.55404
▁비가	-9.55457
▁달라	-9.55458
▁군인	-9.55596
▁바농질	-9.55658
▁올리고	-9.55662
▁험	-9.55678
▁ᄒᆞ는디	-9.5573
▁ᄒᆞ주	-9.55765
으	-9.55824
▁ᄀᆞ레에	-9.55858
▁두드려	-9.55869
▁삼십	-9.56095
끌	-9.5612
▁주민	-9.56265
▁봥	-9.56275
▁카	-9.56277
▁헷저	-9.56317
▁초가집	-9.56334
▁죽으민	-9.56919
케	-9.56986
▁모르고	-9.5713
▁끈	-9.57483
▁톡톡	-9.577
▁대상	-9.57837
다그네	-9.57847
▁어른덜	-9.57992
닥	-9.58031
▁곱	-9.58096
▁쉐는	-9.58107
▁드	-9.58117
▁때난	-9.5817
부니까	-9.58224
켄	-9.58289
▁절간	-9.58433
▁묻어	-9.58463
부는	-9.5847
▁말씀헤	-9.58588
▁말씀해	-9.58593
▁ᄄᆞᆫ	-9.58594
▁쪼끔	-9.58602
▁삼일	-9.58609
▁잇어야	-9.5865
▁엇다	-9.58705
▁방법	-9.58792
▁상에	-9.58801
▁모여	-9.58839
▁수박	-9.58861
▁글로	-9.58869
ᄒᆞ	-9.5905
▁떡도	-9.59106
우다	-9.5919
▁엇언	-9.59281
산디	-9.59389
▁나이	-9.59439
신지	-9.59447
▁서너	-9.59481
▁직접	-9.59495
▁좁씨	-9.59503
▁시리떡	-9.5951
▁번째	-9.59539
▁먹주게	-9.59567
▁김	-9.5957
▁볼	-9.59582
▁하르방이	-9.59618
▁경헤근에	-9.59634
▁존	-9.59657
▁도께로	-9.59684
▁ᄂᆞᆷ	-9.59721
▁지름떡	-9.59744
듯	-9.59807
▁구뎅이	-9.59883
▁메영	-9.5992
ᄀᆞ찌	-9.60075
▁그리고	-9.60226
▁먹주	-9.60244
▁밥도	-9.60385
▁족제비	-9.60405
▁냉국	-9.60454
▁깅이	-9.60532
신고예	-9.60671
▁잇언	-9.60729
래	-9.60767
▁봔	-9.60775
▁가야	-9.60782
주기	-9.60797
▁쌍	-9.60861
▁들어오	-9.60908
▁무끄는	-9.60929
겨	-9.60956
낫주	-9.61258
▁못허여	-9.61286
▁호박	-9.61292
▁요만큼	-9.61313
▁사농	-9.61322
▁사삼	-9.6133
▁보리농사	-9.61351
▁담는	-9.61656
직	-9.61855
▁없고	-9.61869
▁쉐도	-9.61962
▁마늘	-9.61977
▁멕이	-9.61987
▁유	-9.6212
▁밥이	-9.62122
▁ᄆᆞᆷ	-9.62143
▁허단	-9.62164
짝	-9.62209
▁일주일	-9.62233
▁제완지	-9.62246
▁들렁	-9.62261
▁원래	-9.62292
▁경헌	-9.62339
▁엿날에는	-9.62763
성	-9.62862
▁올라가	-9.62865
▁말이여	-9.62869
▁미역	-9.62872
▁비여	-9.62908
▁노는	-9.62936
▁오면은	-9.62969
▁판	-9.63039
▁이사	-9.63139
▁뿌령	-9.63186
▁놀이	-9.63191
▁받앙	-9.63201
▁영등	-9.63292
이란	-9.63335
잖아	-9.63456
에다가	-9.63509
▁서꺼	-9.63598
▁조칩	-9.63641
친	-9.63711
▁지네	-9.63722
말	-9.63724
▁빌어	-9.63862
▁거야	-9.63869
▁가운데	-9.63945
▁깨	-9.63999
▁초집	-9.64003
▁전에는	-9.64125
▁원담	-9.64142
▁ᄀᆞᆯ아봅서	-9.64179
▁중의	-9.64252
▁보름	-9.64256
▁일이	-9.64274
▁성주	-9.64464
부떠	-9.64485
▁입고	-9.64499
▁못헤	-9.64531
▁뒛	-9.64646
▁콩도	-9.64693
밖에	-9.64709
▁더꺼	-9.64781
▁먼	-9.64789
허난	-9.64796
▁후	-9.64902
▁해방	-9.65145
▁고고리	-9.65183
▁이실	-9.65444
▁집인	-9.65557
▁쪽	-9.65602
▁얘기헤	-9.65627
▁도리	-9.65664
개	-9.65782
지게	-9.65866
▁쉐막	-9.65881
▁아졍	-9.65951
▁짠	-9.66043
▁종자	-9.66121
▁손지	-9.66216
▁곰	-9.6622
▁내불민	-9.6624
으론	-9.66245
▁삼촌	-9.66318
원	-9.66335
▁막아	-9.66405
▁동네에서	-9.66456
▁부분	-9.66527
▁오름	-9.66556
▁멕이고	-9.66557
▁어어	-9.66559
▁다음엔	-9.66589
▁물웨	-9.66589
▁글	-9.66635
▁속곳	-9.66759
작	-9.66768
▁ᄇᆞ름	-9.66804
▁겡이	-9.66805
▁께	-9.66873
▁박	-9.66954
▁고무줄	-9.67011
▁신부	-9.6708
▁치는	-9.67083
▁놔둬	-9.67085
▁엇	-9.67124
▁ᄀᆞ는	-9.67157
▁우미	-9.67268
▁누구	-9.67383
▁경허멍	-9.67406
▁요기	-9.67449
▁뻿데기	-9.67465
렁	-9.67474
습니까	-9.67513
▁때가	-9.67579
스	-9.67664
▁영헹	-9.67716
▁것들	-9.67829
토	-9.67847
▁보리는	-9.67917
나서	-9.67957
▁없는	-9.67987
▁ᄆᆞᆯ똥	-9.67992
▁멘든	-9.68022
▁반죽	-9.68023
▁헷잖아예	-9.68092
▁아버지가	-9.68104
▁후제	-9.68126
▁경허는	-9.68138
▁헷구나	-9.68206
▁잇수다	-9.68257
▁벌초	-9.68296
▁벵	-9.68539
▁제ᄉᆞ	-9.6864
▁허여근에	-9.68755
▁보리밧	-9.6882
▁밥헹	-9.68873
▁ᄆᆞᆯ이	-9.68948
▁돌리	-9.68992
▁가을	-9.69049
▁어렷	-9.69107
▁것을	-9.69195
▁불러	-9.69255
▁끌	-9.69286
▁씨가	-9.69416
▁넘어	-9.69507
▁놔가지고	-9.69512
▁부락	-9.69531
▁걸려	-9.69537
▁짓어	-9.69643
엇이	-9.69724
▁혼	-9.69783
▁떡을	-9.6982
▁올리	-9.6985
나신디	-9.69864
허니까	-9.69867
▁당시에	-9.69954
▁스물	-9.69961
▁맞게	-9.6998
▁우장	-9.70047
▁게고	-9.7007
▁추	-9.70139
▁썻	-9.70157
▁기지	-9.70215
▁둘이	-9.70294
▁들은	-9.70383
▁중에	-9.70472
▁종	-9.70472
던지	-9.70477
▁멩	-9.70529
▁뒈곡	-9.70557
▁보리가	-9.70598
▁어떵사	-9.70647
▁ᄒᆞ여근에	-9.7065
▁그물	-9.70713
놔	-9.70753
▁궂인	-9.70797
꺼지	-9.70814
▁ᄎᆞᆯ려	-9.7087
▁나면	-9.70937
▁허레	-9.7105
▁콩ᄀᆞ루	-9.71084
▁아녕	-9.71163
▁이제사	-9.71341
▁그니까	-9.71515
칠	-9.7163
께	-9.71729
▁베로	-9.71813
▁봣	-9.71814
▁칠월	-9.71849
조	-9.72079
▁구멍	-9.72089
▁셍각	-9.72193
▁ᄆᆞᆫ저	-9.72276
▁세와	-9.72895
▁종이	-9.72937
박	-9.73015
▁모커리	-9.73045
▁우럭	-9.73048
▁쉐똥	-9.73065
▁멜젓	-9.73115
▁집줄	-9.73163
놈의	-9.73208
▁약궤	-9.73327
▁거지예	-9.73378
▁누게가	-9.73498
▁해도	-9.73518
▁흑질	-9.73548
▁수망리	-9.73641
▁흐린조	-9.73749
▁직	-9.73932
▁당시	-9.74017
▁군대	-9.74038
▁시월	-9.74098
▁안허민	-9.74143
▁제주	-9.74166
▁ᄒᆞᆸ디다	-9.7421
▁따문에	-9.74341
▁위에	-9.74455
▁ᄎᆞᆯ	-9.7453
▁밀어	-9.74676
▁ᄆᆞᆯ로	-9.74822
▁ᄒᆞ지	-9.7487
벳기	-9.74871
▁박아	-9.74946
▁부엌	-9.74976
창	-9.75045
▁생선	-9.75141
▁ᄇᆞᆯ리는	-9.75259
낫수다	-9.75305
▁군데	-9.75326
▁집안	-9.7537
▁머리에	-9.75383
▁키우	-9.75398
▁저런	-9.75399
▁만들젠	-9.75434
봅서	-9.75488
쳐	-9.75558
▁구덕	-9.75663
▁나오고	-9.75682
▁여기에	-9.75695
▁마련	-9.7574
▁잇인	-9.75749
매	-9.75775
▁ᄆᆞ	-9.75961
▁합니까	-9.76098
▁달에	-9.76123
▁나가민	-9.76185
켜	-9.76191
▁동글락	-9.76301
▁정도로	-9.7631
수게	-9.76438
▁경헤영	-9.76472
▁끓여	-9.76514
▁청묵	-9.76616
이니까	-9.76649
▁남신	-9.76721
▁월	-9.76803
▁사이에	-9.76814
▁빗	-9.76871
이꽈	-9.76893
▁지둥	-9.76929
▁살단	-9.77097
헤연	-9.77172
▁다니	-9.77201
밧	-9.77206
▁육	-9.77239
▁막걸리	-9.77275
▁장옷	-9.77296
▁맛잇어	-9.77305
▁싱거	-9.77327
▁청수	-9.77344
▁아니가	-9.77461
▁다음은	-9.77472
▁아년	-9.77481
▁서로	-9.77493
▁끈어	-9.77516
▁보리씨	-9.77537
▁마루	-9.77546
▁탕건	-9.77717
천	-9.77737
▁헤나	-9.77769
▁땅에	-9.77788
▁중매	-9.77825
▁헤다근에	-9.78045
▁육십	-9.78075
▁ᄀᆞ르	-9.7826
남	-9.78274
▁걸엉	-9.78324
▁서른	-9.78434
▁벡	-9.78508
▁들러	-9.7851
카	-9.78518
▁강은에	-9.78536
▁들여	-9.78574
▁중간	-9.78634
▁엇언마씨	-9.78643
▁지엉	-9.78671
▁헷던	-9.78754
▁불르	-9.78835
▁뭐라	-9.79001
▁엇수다	-9.79003
읍니까	-9.79036
▁몰르	-9.79085
▁끌려	-9.79102
▁꼬	-9.79224
▁밥은	-9.79236
허게시리	-9.79302
▁들어보	-9.79451
▁패마농	-9.79458
▁사삼사건	-9.7946
어근에	-9.7947
▁견디	-9.79478
▁엇일	-9.79491
▁하하하하	-9.79509
▁이섯수과	-9.79513
▁나무가	-9.79615
▁사주	-9.79624
▁정성	-9.79649
▁보리낭	-9.79671
도록	-9.79697
▁트	-9.79724
▁긴	-9.79735
▁뒈주	-9.79768
▁지들커	-9.79785
▁옛날부터	-9.79832
▁곡식	-9.79834
▁허다가	-9.79862
청	-9.79888
무	-9.79894
▁썹	-9.80002
▁애	-9.80004
▁들이	-9.8003
▁ᄆᆞᆯ도	-9.80061
▁풀이	-9.80095
▁먹어도	-9.80223
▁쪽에	-9.80239
▁소가	-9.80403
▁헴주	-9.80418
▁짤라	-9.80471
▁절기	-9.80478
▁알아지쿠	-9.80485
▁조팟	-9.80517
우꽈	-9.80527
▁모ᄆᆞᆯ	-9.80528
▁조도	-9.80569
▁쉰다리	-9.80591
▁요런	-9.80599
▁털어	-9.80609
▁엇엉	-9.80619
▁먹은	-9.80635
뒈	-9.80676
▁바다에	-9.80725
▁갈곡	-9.80771
▁때부터	-9.80788
ᄀᆞ	-9.80858
신게	-9.80898
▁드르에	-9.80912
▁약이	-9.80977
▁들어간	-9.80987
▁멜첫	-9.81026
▁지내는	-9.81101
▁엇주	-9.81141
▁쳥	-9.81215
▁헛	-9.81358
▁ᄌᆞᆷ	-9.81596
▁구월	-9.81649
낫	-9.81688
▁하여튼	-9.81697
로도	-9.81816
▁검질이	-9.81818
▁크	-9.81877
▁떠	-9.81913
▁그때도	-9.81916
▁놩은에	-9.81928
▁잇당	-9.82365
▁ᄇᆞᆯ르는	-9.82557
▁위	-9.82581
낙	-9.82594
▁대나무	-9.82605
▁놔두	-9.8263
러레	-9.82723
▁허기	-9.82747
▁좋게	-9.82831
▁좋다	-9.82831
▁ᄉᆞ뭇	-9.82837
▁보깡	-9.82844
▁ᄎᆞᆯ령	-9.82851
▁시렁	-9.82864
뒌	-9.82867
완	-9.82964
▁신엉	-9.83161
▁딸	-9.83184
▁토신제	-9.83227
▁처	-9.83274
▁우찍	-9.83299
▁마농지	-9.83398
▁목	-9.83463
가난	-9.83469
지지	-9.83483
▁메밀	-9.83494
망	-9.83502
▁ᄆᆞ을	-9.83523
▁삼춘네	-9.83578
봅디가	-9.83744
▁ᄋᆢ	-9.83779
▁먹엇	-9.83827
▁ᄌᆞᆸ아	-9.83883
▁구젱기	-9.83981
▁그치룩	-9.83982
▁걷어	-9.84026
▁알아져	-9.84055
▁ᄋᆢ섯	-9.84068
▁헷는디	-9.84236
▁가을에	-9.84257
▁와근에	-9.84479
▁멩텡이	-9.84561
▁집안에	-9.84626
▁버	-9.84627
▁ᄆᆞᆯ려	-9.84661
▁낭이	-9.84769
줘	-9.84919
행	-9.84922
▁헤나고	-9.84926
▁워	-9.84954
▁물도	-9.85028
▁ᄇᆞᆯ	-9.85094
▁ᄌᆞᆫ	-9.85094
▁이신디	-9.85127
▁너미	-9.85156
▁없으니까	-9.85158
▁익으민	-9.85177
▁엇엇어	-9.85184
▁삼춘은	-9.85188
▁짓는	-9.8519
▁드는	-9.85246
▁셋	-9.85268
▁이만큼	-9.85288
▁메와	-9.85301
▁ᄆᆞᆯ령	-9.85356
▁ᄒᆞ나씩	-9.85357
▁헷당	-9.85389
▁거난에	-9.85445
▁삼월	-9.85552
▁물은	-9.85626
▁물훼	-9.85656
▁장에	-9.85688
로는	-9.85719
▁콩국	-9.85798
▁들민	-9.85804
멘	-9.85874
▁뭐냐	-9.85942
끈	-9.86006
▁당에	-9.86021
▁못허는	-9.86029
▁뽑	-9.86062
▁많은	-9.86091
▁밤에	-9.86243
▁둠비	-9.8632
▁선흘	-9.86322
한테	-9.86335
▁어려와	-9.86378
▁ᄌᆞᆷ진	-9.86398
▁성읍리	-9.86399
▁헤갖고	-9.86423
▁바위	-9.86547
▁뎅기고	-9.86656
▁갈치	-9.86668
	-9.86733
ᄒᆞ여	-9.8675
▁테왁	-9.86825
감	-9.86846
▁빈	-9.86876
▁가져가	-9.86892
▁옆이	-9.87058
▁씨는	-9.87113
▁ᄊᆞᆯ이	-9.87172
▁없	-9.87188
▁동안	-9.87422
▁힘	-9.87439
▁서귀포	-9.87511
▁미깡	-9.87552
▁ᄀᆞᆺ사	-9.87597
▁뭐라고	-9.876
▁공부	-9.87619
▁나곡	-9.87638
▁키와	-9.8768
▁쓰곡	-9.87705
▁일본말	-9.87793
▁소낭	-9.87807
헷	-9.87823
▁ᄒᆞᆫ듸	-9.87827
▁불언	-9.87896
▁줌	-9.87927
▁겨	-9.87931
허면	-9.87948
▁보리도	-9.87975
니께	-9.88079
▁테우	-9.88129
▁농사를	-9.88215
▁들어가민	-9.88314
▁무시거엔	-9.88475
▁받	-9.88542
▁양태	-9.88717
▁거잖아예	-9.88722
엇수과	-9.88738
▁올라오	-9.88741
▁돌아가멍	-9.88826
▁구루마	-9.8885
▁ᄐᆞ로	-9.88865
▁경험	-9.88918
▁경허믄	-9.8898
새	-9.89025
▁밖에	-9.89062
야지	-9.89123
▁ᄀᆞᆮ지	-9.89135
▁헤낫주게	-9.89244
▁갈라	-9.89269
▁칠성	-9.89281
▁쓸	-9.89336
▁곡석	-9.89354
▁ᄉᆞ삼사건	-9.89372
▁찍어	-9.89462
▁숨	-9.89556
▁침	-9.89629
▁인	-9.89636
▁찌	-9.89699
겐	-9.89714
딘	-9.89722
헤야	-9.8982
▁돗통	-9.89847
▁힘들	-9.89855
▁붉은	-9.89935
▁풍체	-9.89937
▁문전제	-9.89961
▁살에	-9.90003
▁댓	-9.9009
▁시대	-9.90101
▁할망덜	-9.90182
▁나올	-9.90197
▁에이	-9.90381
계	-9.90396
▁필	-9.905
▁널어	-9.90505
▁신어	-9.90521
▁소라	-9.90752
▁그러면은	-9.90899
꼬	-9.91
▁솟듸	-9.91043
▁주지	-9.91105
로만	-9.91129
▁페	-9.91142
엣	-9.91146
▁부는	-9.9116
▁ᄍᆞᆯ라	-9.91161
▁돗걸름	-9.91167
▁삼간집	-9.91172
▁제펜	-9.91221
죽	-9.9123
▁수제비	-9.91232
▁목장에	-9.91255
으면	-9.91278
▁낼	-9.91279
▁수건	-9.91289
▁밥에	-9.91293
▁꼬리	-9.91338
▁ᄌᆞᆯ아	-9.91356
▁새서방	-9.9138
▁뒈난	-9.91415
▁애기덜	-9.91415
듯이	-9.91525
▁햇수다	-9.91577
▁찍으로	-9.91661
▁잔	-9.91726
달	-9.91742
▁겅헹	-9.91762
복	-9.91896
▁결혼식	-9.91922
▁양쪽에	-9.91957
▁가멍	-9.92004
▁짝	-9.92012
▁콩을	-9.92114
▁쑤는	-9.92124
▁항아리	-9.92143
▁그래도	-9.92188
▁ᄇᆞᆯ리	-9.92226
▁맞추	-9.92283
▁그러	-9.92308
▁ᄆᆞᆯ라	-9.92413
▁콩죽	-9.92466
▁알로	-9.92481
왓	-9.92497
▁사위	-9.9252
▁헤부난	-9.92551
▁대패	-9.92599
▁헙디다	-9.92606
▁먹으레	-9.9266
▁아파	-9.92663
▁부뜨	-9.92697
▁ᄎᆞ	-9.92704
▁문전	-9.92778
허연	-9.92858
놓민	-9.92873
▁축	-9.92886
▁씨집	-9.92922
▁밧은	-9.9301
▁놔근엥	-9.93045
▁요것	-9.93092
▁빠지	-9.93117
▁감아	-9.93194
주기게	-9.93236
▁메곡	-9.93252
▁놓지	-9.93345
하면	-9.93517
▁수에	-9.93522
▁ᄀᆞᆯ읍	-9.93553
▁싱그	-9.93575
▁들어와	-9.93709
▁쪄	-9.93718
골	-9.93785
▁나룩	-9.93811
▁두드리	-9.93824
▁칼로	-9.9386
▁멕이는	-9.93863
▁친	-9.9399
▁사람들이	-9.94073
▁큰아덜	-9.9414
▁들영	-9.94142
록	-9.94188
▁것사	-9.94213
▁니	-9.94238
▁짓젠	-9.94275
▁가게	-9.94306
▁쒜	-9.94366
▁헷수다	-9.94513
▁때만	-9.9458
▁왓	-9.94648
으네	-9.94661
▁돈이	-9.94702
▁장마	-9.94726
▁만듭	-9.94736
▁적에	-9.94758
▁헤실	-9.94779
▁대해	-9.94814
▁미녕으로	-9.94863
▁신도	-9.94883
▁고내	-9.94884
▁우시	-9.94921
▁콩나물	-9.9496
▁페렝이	-9.9497
▁옷감	-9.95017
▁느	-9.95042
▁경ᄒᆞ난	-9.9513
바	-9.95203
체	-9.95251
▁빌어당	-9.95281
▁이쪽	-9.9533
▁폭	-9.95367
▁고생	-9.9538
▁펭	-9.95454
▁눌엉	-9.95454
▁허잖아예	-9.95471
▁들어가고	-9.95477
▁고산	-9.95497
▁으으	-9.9557
듸	-9.95911
▁도께	-9.95955
▁허난에	-9.9605
련	-9.96057
▁뒁	-9.96151
▁앚아	-9.962
▁오메기	-9.96266
쨌	-9.96266
▁망종	-9.96269
▁봉분	-9.96274
▁보섭	-9.96279
▁센치	-9.96279
▁특별히	-9.96296
▁엇엇수과	-9.96305
▁하션마씨	-9.965
▁무끄	-9.9659
▁좁쌀	-9.96648
▁늦	-9.9669
▁떼는	-9.96696
▁지달이	-9.96745
▁치마	-9.9678
▁울	-9.96831
▁할망이	-9.96896
허주게	-9.969
▁멕	-9.96915
채	-9.96943
▁모시는	-9.97009
▁아프	-9.97017
찌	-9.97051
▁햇	-9.97059
▁뎅기	-9.97078
돌	-9.97231
▁밤	-9.97239
엿	-9.97257
▁불이	-9.97267
▁잡고	-9.97317
▁젓어	-9.97325
▁멀리	-9.97404
▁할아버지	-9.9741
▁팔십	-9.97462
▁빙	-9.97478
▁틀	-9.97493
▁탁탁	-9.97521
▁일을	-9.97566
▁무싱	-9.97588
▁나쁜	-9.97595
▁ᄆᆞᆯ리왕	-9.97604
헷수과	-9.97608
▁위해서	-9.97614
▁잇수광	-9.97614
▁낭을	-9.97618
▁뒤치기	-9.97634
▁헷수가	-9.97653
▁가레기	-9.97674
▁메어	-9.97678
▁키로	-9.9778
▁ᄆᆞ믈	-9.97782
금	-9.97822
▁칠십	-9.97889
▁ᄀᆞᆺ	-9.97962
▁헷주만은	-9.97977
▁부주	-9.98033
▁아니우과	-9.98067
▁좋주게	-9.9809
▁힘이	-9.98102
식	-9.98153
▁어무니	-9.98258
놓고	-9.98364
▁콩이	-9.98485
위	-9.98506
게끔	-9.98562
▁시기	-9.98588
▁멀	-9.98777
▁이월	-9.98804
신가	-9.98808
▁밧벼	-9.98834
▁아부지	-9.98886
▁마누라	-9.98915
▁모르켜	-9.98919
▁열다섯	-9.98923
▁비싸	-9.98933
▁잠대	-9.98947
▁한번	-9.98975
▁정제	-9.98998
▁올령	-9.99008
▁감앙	-9.9904
리는	-9.99079
▁손가락	-9.99096
근엥이	-9.99113
▁시난	-9.99122
▁모양	-9.99216
코	-9.99233
발	-9.99234
▁내중에	-9.99242
▁몰르고	-9.99347
▁곤	-9.99606
▁흰죽	-9.99612
여근에	-9.99647
▁풍선	-9.99708
▁살멍	-9.99736
▁감는	-9.99743
▁뭣이	-9.99748
▁창문	-9.99757
헤도	-9.99768
▁고냥	-10.0011
▁아홉	-10.0018
▁못허고	-10.002
지만은	-10.0026
▁고무신	-10.0027
▁시껑	-10.0027
▁기둥	-10.003
▁근디	-10.0031
▁쑥	-10.0032
▁뿔리	-10.0033
▁가끔	-10.0034
▁농서	-10.004
▁만들엇	-10.0041
▁먹통	-10.0046
▁이틀	-10.0056
▁ᄃᆞ	-10.0064
▁ᄌᆞ베기	-10.0066
▁종류에	-10.0066
▁멩글	-10.007
▁입춘	-10.0083
▁개썩	-10.009
으멍	-10.0092
레기	-10.0097
▁보리ᄊᆞᆯ에	-10.0098
▁요즘에	-10.0104
▁개인	-10.012
와근에	-10.0125
▁고랑	-10.0133
▁돼	-10.0134
▁들어오는	-10.0137
▁올라	-10.0139
▁갈젠	-10.014
▁가니까	-10.0142
▁건가	-10.0146
초	-10.0148
▁죽도	-10.0148
▁목수	-10.0151
▁높은	-10.0164
▁좋곡	-10.0164
▁마흔	-10.0164
▁지게문	-10.0165
▁드러	-10.0165
▁가마니	-10.0168
▁대개	-10.0169
▁미리	-10.017
기는	-10.0173
▁방석	-10.0174
▁성게	-10.0175
▁파는	-10.0177
▁그쟈	-10.0183
▁멩주	-10.0184
▁아픈	-10.0185
데기	-10.0187
▁꿰영	-10.0187
▁ᄒᆞ나썩	-10.0189
▁하난	-10.0189
▁쉐촐	-10.0197
▁틀리	-10.0198
▁나오민	-10.0208
목	-10.0208
누가	-10.0211
▁토	-10.0214
▁꺼꺼	-10.0215
▁잇어낫수과	-10.0218
▁죽이	-10.0218
▁건져	-10.0228
▁대한	-10.0232
▁ᄎᆞᆯ리	-10.0234
지면은	-10.0237
▁담그는	-10.0239
▁검질도	-10.0242
▁늬	-10.0247
▁세우	-10.0252
▁눈이	-10.0254
▁관리	-10.0262
만썩	-10.0264
덜도	-10.0266
▁난드르	-10.0282
명	-10.0287
▁홍세미녕	-10.0303
▁욕	-10.0305
십주	-10.0306
▁일찍	-10.0307
▁소나무	-10.0307
불언	-10.0308
▁셍이라	-10.0324
▁이듸	-10.0325
▁줭	-10.0338
▁뻬	-10.0343
시난	-10.0351
▁부떠	-10.0359
▁지는	-10.0367
▁들어온	-10.0375
귀	-10.0376
▁걸궁	-10.038
▁밧거리	-10.0385
습니다	-10.0391
든지	-10.0392
▁찔러	-10.0396
▁엇은	-10.0397
▁오지	-10.04
지곡	-10.0417
▁여자가	-10.0419
절	-10.0423
▁힌	-10.0426
▁헤가민	-10.0428
▁건지	-10.044
▁몰	-10.0442
▁땔감	-10.0444
▁박박	-10.0444
▁돌멩이	-10.0445
▁어떵헹	-10.0445
형	-10.0446
▁지다리	-10.0446
▁순대	-10.0448
▁뜸	-10.0454
▁ᄆᆞ리	-10.0461
▁함	-10.0461
▁앚	-10.049
▁앗아	-10.0497
▁헤낫수다	-10.0501
▁마을에서	-10.0507
▁나지	-10.0508
▁살레	-10.0516
▁안헹	-10.0518
▁아침	-10.0526
▁줘야	-10.0527
거치	-10.0528
▁간다	-10.0529
▁갈아근에	-10.0536
▁갈민	-10.054
▁철	-10.054
룩	-10.0547
▁통시	-10.0561
▁목시	-10.0569
▁사고	-10.0571
▁하민	-10.0572
회	-10.0573
공	-10.0575
▁돈으로	-10.0578
▁송당	-10.058
▁질롸	-10.0582
▁ᄀᆞᆯ아근에	-10.0583
▁많아	-10.0585
▁똑똑	-10.0586
▁욜로	-10.0586
▁최고	-10.0586
▁사흘	-10.0587
▁개를	-10.0593
리가	-10.0594
▁담을	-10.0603
▁다간	-10.0613
▁담가	-10.0613
▁띠	-10.0632
▁지을	-10.0648
▁그래	-10.0649
▁메고	-10.0663
인지	-10.0668
▁감기	-10.0672
▁홍역	-10.0682
단에	-10.0683
▁그면	-10.0686
▁냥	-10.0688
▁기억이	-10.0691
▁바당에서	-10.0692
▁ᄉᆞᆷ	-10.0701
▁대신	-10.0701
막	-10.0707
▁섬	-10.0709
▁반치	-10.0725
딱	-10.0728
▁넘엉	-10.0731
▁않고	-10.0731
▁콩지름	-10.0732
▁떡이	-10.0739
▁잇엇어	-10.0743
▁줄이	-10.0747
▁엇곡	-10.0751
▁보믄	-10.0754
▁제관	-10.0755
추	-10.0757
▁ᄀᆞᆮ	-10.0759
▁할머니가	-10.0762
▁과정	-10.0765
▁허여근엥	-10.0765
▁살아난	-10.0766
▁칼국수	-10.0769
▁마차	-10.0769
▁여름에는	-10.0774
▁ᄌᆞᆯ	-10.0785
엇수광	-10.0788
▁담으	-10.0792
끼	-10.0798
▁쓴	-10.0801
▁곤죽	-10.0802
▁감태	-10.0802
▁옷도	-10.0804
부러	-10.0806
▁ᄉᆞᆷ아	-10.0809
▁우로	-10.0815
▁물어	-10.0817
▁신구간	-10.082
	-10.0821
▁디서	-10.0822
▁메다	-10.0827
▁헤영은에	-10.0851
▁남테	-10.0857
▁이기는	-10.0857
▁헛간	-10.0861
▁문제	-10.0861
▁지실	-10.0865
▁엇어져	-10.0865
엄	-10.0866
▁자랑	-10.0868
▁가마	-10.087
▁살암	-10.0872
▁든	-10.0874
▁ᄒᆞᆨ교	-10.0876
▁ᄀᆞ메기	-10.0878
▁좋지	-10.0878
▁세상	-10.088
▁듸	-10.0881
▁벡장	-10.0885
▁쫙	-10.0885
▁개판	-10.0887
▁ᄀᆞ뜨민	-10.0887
ᄀᆞ추룩	-10.0888
▁ᄀᆞᇀ은	-10.0901
▁노민	-10.0906
▁본향	-10.0913
▁그다음에는	-10.0923
▁광목으로	-10.0923
▁보멍	-10.0924
▁지서	-10.0926
▁오난	-10.0937
▁식구	-10.0937
▁안거리	-10.0946
▁개씩	-10.0948
▁각	-10.0959
▁곱을락	-10.0961
▁고동	-10.0965
▁ᄆᆞᆯ망	-10.0966
▁좋주	-10.0968
▁게영	-10.098
집이	-10.0982
▁살앗	-10.0986
▁청	-10.0987
헤난	-10.0988
▁이수다	-10.0996
▁추억	-10.0999
▁밀ᄏᆞ루	-10.0999
▁했	-10.1002
▁특별	-10.101
심	-10.1013
▁벗	-10.1016
▁뭐과	-10.1018
▁두건	-10.1018
▁마주	-10.1021
▁ᄆᆞᆯ르	-10.1024
▁나막신	-10.1027
▁냄새	-10.1027
▁옥돔	-10.1028
▁추석	-10.1028
ᄆᆞᆺ	-10.103
▁잡으레	-10.103
▁ᄇᆞᆯ랑	-10.1034
▁그것만	-10.1035
▁ᄀᆞᆯ아난	-10.1035
▁ᄀᆞ루로	-10.1041
▁대정	-10.1046
▁부르는	-10.105
▁절대	-10.1052
▁ᄒᆞᆫ디	-10.1059
▁삿갓	-10.1059
라든가	-10.1066
▁하니까	-10.1067
▁ᄊᆞᆯ로	-10.1069
▁고팡에	-10.107
▁ᄒᆞ게시리	-10.1078
▁전인	-10.1079
▁순서	-10.1081
▁토목	-10.1094
▁부쪄	-10.1101
▁헤근엥에	-10.1104
▁육지서	-10.1104
▁소게	-10.1113
▁뒷날	-10.1115
▁적은	-10.1117
▁체로	-10.1145
▁이때	-10.1157
▁족	-10.1159
▁동글락허게	-10.1163
▁험벅	-10.1164
▁아니우꽈예	-10.1172
종	-10.1173
▁가라	-10.1173
▁ᄌᆞ근ᄌᆞ근	-10.1179
▁부뜬	-10.118
▁삼칸집	-10.118
▁날짜	-10.1181
▁서슬	-10.1181
▁공동으로	-10.1185
▁ᄌᆞᆺ	-10.1188
굴	-10.1188
힌	-10.1195
▁패	-10.1197
▁닷	-10.12
▁거왕	-10.1211
▁경ᄒᆞ고	-10.1212
▁차는	-10.1214
▁무꺼근에	-10.1215
▁펭이	-10.1222
통	-10.1223
▁이만썩	-10.1225
▁벤	-10.1236
▁아니라예	-10.1237
▁살앗주게	-10.1247
걸	-10.1253
▁헤다가	-10.1255
▁나간	-10.1264
▁장항	-10.127
▁잊어불	-10.1272
▁두루	-10.1279
▁ᄑᆞᆯ고	-10.1282
▁먹엄	-10.1289
에선	-10.129
▁들르	-10.1296
▁죽여	-10.1297
▁기름	-10.1308
▁멩지로	-10.1315
꾸	-10.1316
ᄊᆞᆯ	-10.1319
▁ᄆᆞᆯᄀᆞ레	-10.1321
▁먹기	-10.1324
▁질루는	-10.1333
▁삐영	-10.1346
▁벌겅	-10.1349
▁메왕	-10.1349
▁멕이곡	-10.1354
논	-10.1355
워	-10.1358
▁서끄	-10.1362
▁젓엉	-10.1365
▁고성	-10.1365
▁ᄀᆞ만이	-10.1366
▁경허영	-10.1368
▁베설	-10.1371
▁솟디	-10.1371
▁따라서	-10.1373
▁가기	-10.1376
는지	-10.1378
허믄	-10.1381
▁ᄉᆞᆱ아근에	-10.1381
▁허면서	-10.1394
▁한식	-10.1409
▁질레	-10.141
▁동글랑	-10.1412
▁이수게	-10.1419
▁송펜	-10.1421
▁납	-10.1424
▁하르버지	-10.1428
▁비영	-10.1428
▁데껴	-10.1444
▁ᄉᆞ월	-10.1448
▁아직	-10.1449
▁끊어	-10.1464
▁고추	-10.148
▁졸	-10.1482
▁소서	-10.1484
▁마당	-10.1486
▁헤낫	-10.1486
쫌	-10.1489
▁현재	-10.1489
▁자랑거리	-10.1489
▁순다리	-10.149
▁질루	-10.149
▁것들이	-10.1491
▁ᄎᆞᆽ아	-10.1492
▁삥이	-10.1493
▁열매	-10.1495
▁그딘	-10.1497
▁데는	-10.15
탕	-10.1503
▁잇이민	-10.1505
▁감제	-10.1505
▁수확은	-10.1506
▁아시	-10.151
▁ᄂᆞ	-10.1511
▁뒈지고기	-10.1513
▁불체	-10.1514
합니까	-10.1517
▁나서	-10.1521
▁거라마씨	-10.1524
▁여기가	-10.1525
▁삭	-10.1526
▁헤나신디	-10.1537
리민	-10.1538
▁질게	-10.1546
든가	-10.1561
나난	-10.1567
▁항에	-10.1574
▁요영	-10.1579
이지	-10.159
▁키우는	-10.1591
▁신발	-10.1594
던가	-10.16
▁엇어부난	-10.1605
▁엇엇	-10.1607
▁끼	-10.1613
▁보관	-10.1616
▁방울	-10.1618
▁여라	-10.1622
▁도구	-10.1624
▁뒈영	-10.1632
처	-10.1643
▁오면	-10.1645
▁이섯	-10.1645
▁앗앙	-10.1648
▁앞으로	-10.1648
▁좋덴	-10.1648
▁특산물	-10.1648
▁요샌	-10.1648
▁찔렁	-10.1648
▁ᄒᆞᆷ치	-10.1648
▁겨울에는	-10.1649
▁겅헷구나	-10.1649
▁식초	-10.1649
▁간격	-10.1651
▁요세	-10.1656
▁들어강	-10.1661
▁타는	-10.1661
▁솔	-10.1664
▁꼿	-10.1664
▁중학교	-10.1664
▁알지	-10.1665
▁나니까	-10.1666
림	-10.1667
▁돼지	-10.1668
▁밀엉	-10.1669
▁밧에	-10.1671
졋	-10.1672
놔그네	-10.1673
거리	-10.1681
▁갓당	-10.1691
▁그때에	-10.1693
▁벳겨	-10.17
▁헷덴	-10.1705
▁아버지는	-10.1711
▁군	-10.1714
▁ᄇᆞ	-10.1714
▁아마	-10.1717
▁제기	-10.1726
▁반지기밥	-10.1746
끼리	-10.1746
노난	-10.1749
▁지짐이	-10.175
으면은	-10.1752
▁아기덜	-10.1753
▁삼춘이	-10.1755
▁이시난	-10.1757
▁헤봔	-10.1759
겟다예	-10.1762
▁골목	-10.1777
▁받는	-10.1787
▁그거주	-10.1789
기네	-10.1795
▁가까운	-10.1798
▁시간이	-10.1803
▁외	-10.1806
▁보지	-10.1806
알	-10.1809
▁쉐에	-10.181
▁초석	-10.181
▁두드령	-10.1811
▁물항	-10.1812
▁씻어	-10.1812
▁놔둿당	-10.1812
▁계란	-10.1813
주곡	-10.1816
▁만들언마씨	-10.1816
▁끌영	-10.1821
▁거구나	-10.1822
▁지제	-10.1822
끄	-10.1823
▁물로	-10.1828
전에는	-10.1829
▁뎅기당	-10.183
▁소문	-10.1833
▁모인	-10.1833
▁제주시	-10.184
▁단지	-10.1843
▁떨어지	-10.1844
냥	-10.1845
▁차이	-10.1846
▁되	-10.1847
칩이	-10.1854
량	-10.1855
▁메역국	-10.1858
▁탄	-10.1859
▁작	-10.1861
▁놔두는	-10.1865
▁거라도	-10.1868
▁더러	-10.1869
▁무시	-10.1877
▁볼목리	-10.1877
▁또로	-10.1884
▁지방	-10.1885
▁헤주	-10.1891
▁그거라	-10.1892
▁끗나	-10.1899
▁나가는	-10.1908
▁전의	-10.1908
▁저녁	-10.191
▁상복	-10.1912
▁봐난	-10.1913
▁두어	-10.1921
▁형	-10.1929
▁둬	-10.1934
▁허렌	-10.194
▁족게	-10.1944
▁창호지	-10.1945
오민	-10.1951
오곡	-10.1969
▁칼	-10.1972
▁맥주보리	-10.1973
▁걱정	-10.1973
▁점심	-10.1974
▁들고	-10.1975
▁피ᄊᆞᆯ	-10.1976
▁엇어난	-10.1977
▁ᄇᆞᆯ릴	-10.1977
▁봐서	-10.1984
▁알앙	-10.199
▁정시	-10.1992
▁궨당	-10.2007
▁문어	-10.2007
▁저베기	-10.2009
해서	-10.2011
▁ᄉᆞᆱ은	-10.2015
▁한동	-10.2037
▁트멍에	-10.2041
테	-10.2045
더라고	-10.2047
▁절로	-10.2056
▁경헤난	-10.2057
▁이디도	-10.2067
▁게문	-10.2067
▁덕	-10.2068
▁남자가	-10.2072
▁망	-10.2073
▁국물	-10.2081
▁끗어	-10.209
주는	-10.2106
렸	-10.2123
▁소고기	-10.2134
▁채소	-10.2142
▁일반	-10.2148
▁컹	-10.2148
▁일름이	-10.2148
▁동네서	-10.2153
▁뎅기곡	-10.2156
▁타고	-10.2157
▁입을	-10.216
▁아덜이	-10.2164
▁자귀	-10.2171
▁질어	-10.2174
▁광목은	-10.2176
피	-10.2177
▁재기	-10.2183
▁국은	-10.2184
▁줄은	-10.2186
▁넘어가	-10.2191
▁셍	-10.2202
▁여자덜	-10.2203
▁경허곡	-10.2213
▁손에	-10.2225
▁사름으로	-10.2228
▁부지	-10.223
▁살앗주	-10.2238
었	-10.2249
▁구워	-10.2258
▁종류에는	-10.2264
▁아니예	-10.2269
▁여저	-10.2274
겟다	-10.2282
▁헤놩	-10.2297
▁밥헤	-10.23
▁긁어	-10.2305
칩	-10.2306
ᄁᆞ	-10.2306
▁택일	-10.231
▁오널	-10.231
▁ᄉᆞᆯ오리	-10.231
▁반지기	-10.2311
▁이빨	-10.2312
▁벌레	-10.2312
▁모종	-10.2312
▁웨정	-10.2314
석	-10.2317
▁탈	-10.232
▁청주	-10.2328
▁먹엇수다	-10.2329
▁암	-10.2331
▁놔사	-10.2333
▁짱	-10.2334
▁크민	-10.2337
▁보리로	-10.2338
▁강씨	-10.2343
▁먹어보	-10.2353
▁봅서	-10.2354
헷어	-10.2354
▁설사	-10.2358
▁여름엔	-10.2359
▁마지막	-10.2363
▁헴	-10.237
▁비엉	-10.2382
▁풍습	-10.239
▁단오	-10.2391
▁길게	-10.2397
▁걸름이	-10.2402
▁장아찌	-10.2403
둬	-10.2404
▁ᄈᆞᆯ아	-10.2426
▁친정	-10.2432
력	-10.2434
관	-10.244
▁뒈는디	-10.2442
모	-10.2446
▁시어멍	-10.2448
혀	-10.2452
▁엇지	-10.2452
쿠다	-10.2454
▁제라	-10.2455
▁놈이	-10.2467
▁번만	-10.2478
▁뒷	-10.2478
끔	-10.2479
▁가족	-10.2481
▁뱅뱅	-10.2482
▁버무령	-10.2482
▁가문잔치	-10.2482
▁몰르크라	-10.2482
▁펜	-10.2483
▁위헤서	-10.2484
▁묘제	-10.2484
이우다	-10.2487
▁양쪽으로	-10.249
▁키	-10.2493
▁어멍이	-10.2495
▁허지예	-10.2495
▁오누이	-10.2495
먹	-10.2503
▁성제	-10.2503
▁갠	-10.2504
▁놀레	-10.2504
▁올리곡	-10.2505
▁여섯	-10.2509
▁거리	-10.2511
▁남ᄌᆞ	-10.2512
▁겁	-10.2515
오름	-10.2517
▁잡곡	-10.252
녀	-10.2523
▁사십	-10.2528
▁올라와	-10.2541
▁뒌장에	-10.2542
허주	-10.2545
▁ᄄᆞᆯ이	-10.2548
▁세상에	-10.255
▁게난에	-10.2556
▁놓젠	-10.2561
▁풀어	-10.2563
▁말이라	-10.2574
▁종지	-10.258
준	-10.258
▁쪼그만	-10.2586
▁해야	-10.2592
▁ᄇᆞᆲ	-10.2592
▁그놈	-10.2593
▁적에는	-10.2594
▁허영은에	-10.2609
▁무신거라	-10.2612
착	-10.2617
식으로	-10.2618
▁여물	-10.262
▁고급	-10.2625
디다	-10.2633
▁이용	-10.2642
염	-10.2649
▁ᄃᆞᆷ	-10.2652
화	-10.2654
▁부리	-10.2655
▁역	-10.2656
걸로	-10.2656
▁않아	-10.2657
▁은절미	-10.2657
▁목화	-10.2658
▁ᄆᆞ작	-10.2658
젓	-10.2659
쉐	-10.2664
▁먹엇어	-10.2666
▁안택	-10.2668
▁미녕은	-10.267
▁생활	-10.267
▁될	-10.267
▁김씨	-10.2671
▁ᄑᆞᆯ레	-10.2672
▁죽엇	-10.2674
▁보통으로	-10.2675
▁보까	-10.2681
▁ᄌᆞᆫᄌᆞᆫ	-10.2685
병	-10.2693
오고	-10.2695
▁내려	-10.2696
리고	-10.2711
거라	-10.2713
▁맛좋	-10.2716
수다게	-10.2717
▁불리	-10.2721
▁그다음은	-10.2722
▁허거든	-10.2726
▁팟	-10.2728
▁동네에	-10.2732
▁검	-10.2734
▁쯤	-10.2742
▁가주	-10.2743
신고	-10.2745
▁썩	-10.2751
▁부산	-10.2757
▁가죽	-10.2761
▁장난	-10.2772
▁하곡	-10.2773
반	-10.2777
▁ᄉᆞᆯ아	-10.2778
▁사릅	-10.2779
▁꼬아	-10.278
▁번은	-10.2781
▁좁ᄊᆞᆯ로	-10.2785
▁사용	-10.2814
▁물떡	-10.2816
▁알주	-10.2819
▁ᄀᆞ스락	-10.282
▁서울	-10.2824
▁백중	-10.2824
신가마씨	-10.2827
나지	-10.2829
▁하나도	-10.283
젱	-10.2831
▁동네는	-10.2834
▁팽이	-10.2835
▁거기는	-10.2835
▁맞는	-10.2836
▁몸에	-10.2836
▁바느질	-10.2836
▁벙뎅이	-10.2836
▁모믈	-10.2836
▁고무옷	-10.2836
▁홍세	-10.2836
▁갈중의	-10.2836
▁산듸찍	-10.2837
▁가메	-10.284
▁동전	-10.284
▁고소리	-10.284
훼	-10.2841
▁한림	-10.2846
▁헤보	-10.2847
▁말이주	-10.2848
▁옆으로	-10.2848
손	-10.2852
이네	-10.2854
▁어머니네	-10.2854
▁베클	-10.2856
▁파니	-10.2856
▁색깔이	-10.2857
▁모물	-10.2857
▁할머니네	-10.2862
타	-10.2865
▁그것ᄀᆞ라	-10.2869
듼	-10.2878
▁들언	-10.2885
▁캐	-10.2886
▁쏘	-10.2892
노민	-10.2901
▁허느냐	-10.2906
▁때고	-10.2914
▁갈랑	-10.2915
▁상강	-10.2931
멩	-10.2936
▁폭도	-10.294
▁가지라	-10.2949
▁설기떡	-10.295
▁잇으면	-10.2951
▁나주게	-10.2952
▁크면	-10.2974
▁바다	-10.2975
안테	-10.2978
드	-10.2978
▁잇어난	-10.2983
주민	-10.2986
▁돌아오	-10.2989
▁싸는	-10.2989
역	-10.2997
르민	-10.3006
▁꽃	-10.3007
둠서	-10.3012
▁쪼꼼	-10.3015
▁암창개	-10.3017
▁금승	-10.3018
▁새미떡	-10.3018
▁대부분	-10.3018
▁이문간	-10.3019
▁오메기떡	-10.3019
▁가근엥	-10.3019
▁ᄉᆞ레기	-10.302
▁관뒈	-10.302
▁시루떡	-10.3021
▁희	-10.3022
▁오죽	-10.3022
▁어욱	-10.3022
▁명칭	-10.3025
▁잘사는	-10.3025
▁금기	-10.3027
▁들어갈	-10.3033
▁초등학교	-10.3051
놓곡	-10.306
▁닮	-10.306
▁남방에	-10.307
▁살젠	-10.3076
시믄	-10.3078
▁경우는	-10.3086
가면은	-10.3087
▁병	-10.3089
▁나기	-10.3091
▁고적	-10.3095
▁멘들고	-10.3099
▁메기	-10.3099
▁ᄆᆞ음	-10.311
▁뭐여	-10.3121
▁헤보고	-10.3129
▁농	-10.3134
▁지엇	-10.3144
▁내창	-10.3148
헤사	-10.3148
▁모르	-10.3159
사주	-10.3159
▁오늘은	-10.3162
▁모욕	-10.3169
▁헷고	-10.3184
▁어머니는	-10.3188
▁주인	-10.3191
▁하르방은	-10.3198
▁선생	-10.32
▁겉보리	-10.3203
▁삭다리	-10.3203
▁귀클	-10.3203
▁기와집	-10.3203
ᄀᆞ루	-10.3203
▁짚신	-10.3204
▁ᄎᆞᆷ지름	-10.3204
▁일등	-10.3207
▁대행	-10.3209
▁신이	-10.3212
▁뜨	-10.3213
▁방에에	-10.3214
▁낙지	-10.3215
▁벌러	-10.3216
틀	-10.3217
▁ᄍᆞᆯ르	-10.3218
▁소로	-10.3221
▁국죽	-10.3221
▁지졍	-10.3222
▁내불어	-10.3223
▁짓엉	-10.3224
▁길이	-10.3225
▁경허단	-10.3227
▁테우리	-10.3227
▁벌어	-10.3234
▁국민학교	-10.3234
▁노리	-10.324
▁생각나	-10.3252
▁ᄆᆞᆯ앙	-10.3252
▁엇인디	-10.3254
▁쉰	-10.3255
▁바람	-10.3258
▁허물	-10.3264
▁놔두면은	-10.3265
▁과	-10.3267
▁마당에서	-10.3268
▁번씩	-10.3274
▁어떵허여	-10.3275
▁담아근에	-10.3276
▁나오지	-10.3277
낫지	-10.3287
▁색	-10.3288
▁앗당	-10.3289
봐	-10.3294
▁보기	-10.3296
▁쑤	-10.332
▁사둔	-10.3325
십	-10.3325
▁찍신	-10.3329
▁헤불민	-10.333
험	-10.3343
▁천리	-10.3343
▁경허면	-10.3349
▁밧디서	-10.3352
▁ᄀᆞᆯ아당	-10.3357
생	-10.3365
▁지나	-10.3369
치기	-10.3375
▁안헙니까	-10.3375
▁사단	-10.3379
▁ᄆᆞ쉬	-10.3387
▁익은	-10.3391
▁낭도	-10.3391
▁뎅길	-10.3392
▁ᄋᆞᄋᆞ	-10.3392
▁바꾸	-10.3393
ᄉᆞ	-10.3393
봔	-10.3394
▁나릅	-10.3398
이야	-10.3398
▁조끔	-10.34
▁광	-10.3401
▁따랑	-10.3408
허레	-10.3408
▁멘들젠	-10.3414
▁서이	-10.3415
▁꿀	-10.3419
▁걸리	-10.3421
점	-10.3438
▁쪼	-10.3439
▁ᄊᆞᆯ도	-10.3442
돈	-10.3444
려근에	-10.3449
▁다녀	-10.3452
▁낭은	-10.3461
▁콩으로	-10.3463
허는디	-10.3466
▁남아	-10.3466
헤가지고	-10.3479
▁처음에는	-10.3479
▁나게	-10.349
▁내불	-10.3493
▁강정	-10.3497
▁제서	-10.3498
랏	-10.3508
▁뒈는데	-10.3514
▁무시거여	-10.3516
▁하르방덜	-10.3516
▁봉	-10.3521
▁아방이	-10.3528
님	-10.3536
▁어른덜은	-10.3537
허기	-10.3542
▁ᄄᆞᆯ라	-10.3543
▁가루	-10.3546
ᄃᆞᆯ	-10.3556
▁법	-10.3561
▁조리	-10.3563
▁먹음	-10.3569
▁돌을	-10.357
보난	-10.357
본	-10.3573
▁부찌	-10.3573
▁늙은	-10.3584
▁뒙니까	-10.3584
▁몸뻬	-10.3584
▁구르마	-10.3584
▁싱겅	-10.3584
▁밧갈쉐	-10.3584
▁ᄍᆞᆯ른	-10.3584
▁ᄆᆞᆯ류왕	-10.3584
▁몰르켜	-10.3585
▁상뒤	-10.3585
▁대충	-10.3585
▁잇으니까	-10.359
▁ᄆᆞᆯ리	-10.359
아근에	-10.3595
▁조천	-10.3598
▁각시	-10.3598
▁요만헌	-10.36
▁벽	-10.3601
▁시리에	-10.3603
▁장이	-10.3606
노니까	-10.3609
▁모살	-10.361
▁사름을	-10.361
▁내는	-10.3611
헤여근에	-10.3611
▁때엔	-10.3612
▁먹엇수과	-10.3615
둘	-10.3617
▁파종	-10.3618
수꽈	-10.362
▁아팡	-10.3631
▁줏어	-10.3632
중	-10.3633
▁이서이	-10.3635
▁업	-10.3645
써	-10.3645
▁말이야	-10.3648
▁성에	-10.3651
▁된	-10.3652
▁돌이	-10.3652
▁나근에	-10.3657
▁친구	-10.3659
▁줍	-10.3662
▁요레	-10.3663
▁조름에	-10.3667
▁말허는	-10.3673
▁가당	-10.3676
▁바우	-10.368
▁크기	-10.3693
▁하루	-10.3698
▁재료	-10.3703
헌덴	-10.3708
▁헤다	-10.371
▁주춧돌	-10.3711
▁귀신	-10.3715
▁성복	-10.3716
▁줴	-10.3719
▁상식	-10.3721
▁구경	-10.3733
▁친정에	-10.3735
▁사오	-10.3737
▁설러	-10.3749
날은	-10.3751
▁개로	-10.3756
▁그듸	-10.3756
▁요만	-10.376
뢍	-10.3765
▁일어	-10.3767
▁잇다	-10.377
▁연기	-10.3774
▁경ᄒᆞ곡	-10.3775
▁생기	-10.3778
▁고등어	-10.378
▁묶어	-10.378
▁콩주름	-10.378
▁주젱이	-10.3781
▁정심	-10.3782
▁ᄆᆞᆯ총	-10.3784
▁맛좋아	-10.3784
▁이리	-10.3785
▁감저꿀	-10.3785
▁느네	-10.3786
▁과질	-10.3786
▁도께질	-10.3789
▁책	-10.3789
▁데헤서	-10.379
▁돗통에	-10.3791
▁ᄉᆞᆱ으민	-10.3796
▁서꺼근에	-10.38
▁감물	-10.3802
▁헤영케	-10.3803
▁장물에	-10.3808
암	-10.381
▁세불	-10.3812
▁창고	-10.3815
▁좁ᄊᆞᆯ에	-10.3821
▁이디선	-10.3822
▁ᄀᆞᆯ앗	-10.3826
▁물팡	-10.3828
할망	-10.3835
▁올라가는	-10.3837
▁닥닥	-10.3845
보민	-10.3846
▁놧	-10.3848
▁엇이니까	-10.3854
줘야	-10.3855
▁그차	-10.3857
▁장시	-10.3857
▁준	-10.3859
뎅	-10.3864
▁개나	-10.3864
축	-10.3877
▁황	-10.3878
▁가진	-10.3881
런	-10.3882
엇던	-10.3889
▁잘허는	-10.3894
▁합	-10.3899
▁장지	-10.39
렷	-10.3903
▁오렌	-10.3903
끄는	-10.3917
▁자라	-10.3919
▁피밥	-10.3919
▁ᄋᆢᆯ	-10.3921
▁베틀	-10.3927
▁부정	-10.3931
▁삐어	-10.3942
▁잡아먹는	-10.3953
▁남자덜	-10.3955
입	-10.3957
▁반찬이	-10.3957
▁가사	-10.396
▁사름이나	-10.3963
엇	-10.397
▁녹디	-10.3976
▁매는	-10.3977
▁어떵헤	-10.3977
▁마께	-10.3979
▁앞의	-10.398
▁모ᄆᆞᆯᄏᆞ루	-10.398
▁암쉐	-10.398
▁부쪙	-10.3981
▁대접	-10.3982
▁ᄈᆞᆯ앙	-10.3982
▁자리훼	-10.3982
▁임시	-10.3982
▁고둥	-10.3985
▁쉬운	-10.3987
▁무우	-10.3988
▁뒌장국	-10.3989
▁삼아	-10.3992
▁이야기	-10.3992
▁쳇	-10.3992
▁잇지예	-10.3993
▁족아	-10.3995
▁나머지	-10.3997
▁무시것	-10.4006
시냐	-10.4009
▁지고	-10.4009
▁ᄆᆞᆯ르민	-10.4011
낫수가	-10.4012
▁때까지	-10.4012
▁놓멍	-10.4013
▁겨민	-10.4015
▁음력으로	-10.4016
▁ᄑᆞᆺ죽은	-10.4017
색	-10.4022
▁ᄀᆞᆮ고	-10.4026
▁케	-10.4033
나무	-10.4039
땅	-10.4048
노	-10.405
▁말해봅	-10.405
▁크고	-10.4057
▁요새는	-10.4059
▁ᄉᆞ주	-10.4064
▁죽엉	-10.4072
▁부모	-10.4076
▁거민	-10.4087
▁딸려	-10.4088
▁큰방	-10.409
둬근에	-10.4091
▁먹읍	-10.4099
▁두드리는	-10.4099
치룩	-10.4103
▁제주도에	-10.4103
▁성복제	-10.4108
▁들어가지	-10.4108
▁장사	-10.4109
▁세미떡	-10.4117
▁ᄐᆞ나	-10.4119
▁ᄑᆞᆺ밥	-10.4124
▁홀타	-10.4132
▁곤썰	-10.4132
뎅이	-10.4134
▁장은	-10.4136
지주게	-10.4145
읜	-10.4146
▁먹당	-10.4148
▁끝나	-10.415
▁ᄇᆞᆲ아	-10.4151
▁둘러	-10.416
▁봣주	-10.4165
불면은	-10.4167
▁가가지고	-10.4167
▁ᄄᆞᆯ은	-10.4176
▁모슬포	-10.4178
▁알고	-10.418
옷	-10.4182
샤	-10.4182
▁별도로	-10.4184
▁섣ᄃᆞᆯ	-10.4184
▁시어머니	-10.4184
▁뽕돌	-10.4184
▁글겡이	-10.4184
▁토종	-10.4184
▁구웡	-10.4184
▁빗창	-10.4185
▁신는	-10.4185
▁어려운	-10.4185
▁ᄆᆞ른	-10.4186
▁쉐걸름	-10.4187
▁웃음	-10.4189
▁퉤기	-10.419
▁조찍	-10.419
트	-10.4191
헌다	-10.4191
▁ᄒᆞ연에	-10.4193
▁생긴	-10.4193
때	-10.4196
▁ᄈᆞᆺ아	-10.4196
▁맞수다게	-10.4196
▁그릇에	-10.4197
▁갈앗	-10.4199
▁곱아	-10.4199
▁떡국	-10.4203
▁살곡	-10.4204
▁소개	-10.4206
▁물통	-10.4207
▁ᄀᆞ룰	-10.4209
▁끗엉	-10.4214
▁말이우다	-10.422
▁갖다	-10.4223
▁들어갓	-10.4227
▁썰어근에	-10.4229
▁드리	-10.423
▁때에는	-10.4231
ᄆᆞᆯ	-10.4232
다리	-10.4237
▁뒈게	-10.4238
▁ᄂᆞᆷ삐도	-10.4242
▁묵은	-10.4245
ᄉᆞᆯ	-10.4252
▁옆	-10.4253
▁곱닥허	-10.4272
▁나시	-10.4276
▁입지	-10.4277
▁이짝	-10.4278
르는	-10.428
▁오젠	-10.4283
▁뿌리고	-10.4283
▁옷이	-10.4288
갓	-10.429
▁질러	-10.429
▁말아	-10.4292
▁사월	-10.43
▁저쪽	-10.4301
엇주게	-10.4309
슬	-10.4325
▁제숙	-10.4329
▁가이	-10.4331
▁일가	-10.4335
▁개민	-10.4338
▁찔르	-10.4339
▁ᄉᆞ춘	-10.4345
한티	-10.4356
▁이장	-10.4363
번	-10.4369
럭	-10.4369
▁ᄒᆞᆨ	-10.4371
▁ᄌᆞᆷ질게	-10.4374
더	-10.4374
▁내려가	-10.4375
▁거믄	-10.4383
읍니다	-10.4385
▁솔레기	-10.4391
▁꼭꼭	-10.4392
▁베뛸락	-10.4392
▁비니루	-10.4392
▁쌓아	-10.4392
▁풍채	-10.4392
▁수눌엉	-10.4393
▁중궤	-10.4393
▁바지저고리	-10.4393
▁ᄉᆞ삼	-10.4393
▁생겨	-10.4394
▁ᄐᆞᆮ앙	-10.4394
▁중요	-10.4394
▁꿩코	-10.4395
▁줫	-10.4395
▁아메도	-10.4396
▁갈옷	-10.4398
▁저냑	-10.4399
꺼	-10.4399
▁삼년	-10.4403
▁세우리	-10.4405
▁북	-10.4408
▁시작허	-10.4409
▁수정	-10.441
▁ᄀᆞᆫ장	-10.4412
▁먹으멍	-10.4421
▁쎄	-10.4421
▁헙디가	-10.4425
십주게	-10.4426
▁멘들곡	-10.4428
▁귀에	-10.4444
▁방이	-10.4449
엇어	-10.4462
▁앗다	-10.4468
▁정지에	-10.4479
▁아니냐	-10.448
▁난다	-10.448
▁번에	-10.448
만씩	-10.4494
▁놔두고	-10.4496
▁무시거라	-10.4502
▁사난	-10.4516
▁톳밥	-10.4537
▁물짐치	-10.4539
▁보리썰	-10.454
▁끌리	-10.4551
▁곤ᄊᆞᆯ로	-10.4551
렝이	-10.4551
다근엥	-10.4552
▁거고예	-10.456
순	-10.4561
▁엇어도	-10.4571
▁일은	-10.4574
▁맨들	-10.4575
▁나무에	-10.4587
▁조합	-10.4594
▁겁주	-10.4599
▁병원	-10.4599
▁유채	-10.4604
▁제물	-10.4604
▁지게	-10.4605
▁도롱이	-10.4605
▁경ᄒᆞᆫ디	-10.4605
▁모인조	-10.4606
▁열흘	-10.4607
▁더퍼	-10.4607
▁찝	-10.4609
▁잇수가	-10.4611
▁숭	-10.4612
▁그전에	-10.4617
▁먹으렌	-10.4617
▁싯어	-10.4624
▁가는디	-10.4627
▁싼	-10.4627
▁봐야	-10.4633
▁허꺼	-10.4636
엇다	-10.4642
판	-10.465
▁썩어	-10.4651
▁보레	-10.4652
▁항아리에	-10.4657
▁크지	-10.4658
▁베옷	-10.4659
▁엇어낫어	-10.4659
디가	-10.4673
▁처음엔	-10.4682
들도	-10.4685
▁저것	-10.4699
두고	-10.4702
▁가지고서이	-10.4704
▁백로	-10.4709
▁아이덜은	-10.4715
▁부억	-10.4721
▁무엇	-10.4722
▁ᄈᆞᆯ	-10.4723
▁사름들	-10.4731
밧듸	-10.4745
▁탕근	-10.4746
▁멍	-10.4753
▁아멩	-10.4755
▁ᄆᆞᆷ국	-10.4758
▁헤낫지	-10.476
▁ᄀᆞᆯ으	-10.476
▁것들은	-10.4765
▁넣어	-10.4766
▁ᄀᆞᆯ안	-10.4774
▁싸움	-10.4776
냐면	-10.4784
▁애기가	-10.4787
▁새가	-10.4787
▁ᄃᆞᆯ아메	-10.4788
▁ᄂᆞᆯ아	-10.4791
▁가정	-10.4794
▁허던	-10.4802
앗	-10.4811
립	-10.4811
▁밧일	-10.4814
▁맞이	-10.4817
덩	-10.4821
▁삭망	-10.4822
▁벌ᄆᆞ작	-10.4822
▁자리물훼	-10.4822
▁그렇주	-10.4822
▁안칠성	-10.4822
▁전화	-10.4823
▁지지	-10.4823
▁금방	-10.4823
▁창옷	-10.4823
▁ᄀᆞ슬	-10.4823
▁동지짐치	-10.4823
▁망데기	-10.4824
▁곱은자	-10.4824
▁십오	-10.4829
▁입으민	-10.4831
▁싱	-10.4833
▁놧다근에	-10.4834
▁해당	-10.4835
▁입지곡	-10.4838
▁놔기네	-10.4841
▁살기	-10.4843
▁세배	-10.4843
▁꽉	-10.4845
▁마께로	-10.4849
▁여자들	-10.4849
▁놉니까	-10.4854
▁핸	-10.4857
누	-10.4865
▁낫으로	-10.4866
▁쏘곱에	-10.4867
▁튿어	-10.4872
술	-10.4874
▁여자는	-10.4883
▁아이덜이	-10.4885
▁숫자	-10.489
▁ᄒᆞ나만	-10.4893
▁고사	-10.4896
▁세미	-10.4903
▁다니는	-10.4906
▁삐여	-10.4911
▁문전에	-10.4913
▁필요헌	-10.4918
▁칙	-10.4919
▁방법이	-10.4923
▁해에	-10.4927
짜리	-10.4937
▁삼방	-10.4941
하나	-10.4946
▁놓주게	-10.4946
▁허나	-10.4946
▁있어	-10.4947
▁난간	-10.495
▁신을	-10.4953
곤	-10.4955
▁콩밧	-10.4957
▁ᄀᆞᆯ아줘	-10.4963
펜	-10.4968
▁맞으	-10.4974
▁게면	-10.4977
▁가죽신	-10.498
▁ᄉᆞᆱ는	-10.4987
▁감저밥	-10.4995
지면	-10.4995
▁따문	-10.4996
▁테와	-10.4997
▁죽고	-10.5005
▁소금에	-10.501
낫는디	-10.5013
▁주어	-10.5025
▁싸고	-10.5028
▁왕대	-10.5032
▁ᄁᆞᆯ아	-10.5035
▁좁	-10.5036
헷주	-10.5036
▁낚시	-10.5038
▁ᄃᆞᆯ아매	-10.5043
▁형제	-10.5043
▁느젱이	-10.5044
▁끓영	-10.5044
▁밑으로	-10.5044
댄	-10.5044
▁바닷고기	-10.5044
▁바농상지	-10.5045
▁미릇	-10.5045
▁억새	-10.5045
▁조코고리	-10.5045
▁ᄑᆞ레	-10.5045
▁것고라	-10.5047
▁ᄈᆞᆺ앙	-10.5047
덕	-10.5049
▁넘으민	-10.505
▁씻엉	-10.5052
▁장작	-10.5054
▁설탕	-10.5057
▁빵	-10.5066
▁몬	-10.5076
▁삽	-10.5077
▁입져	-10.5079
▁쉽게	-10.508
▁어머닌	-10.5084
▁허느니	-10.5085
▁ᄃᆞᆨ죽	-10.5085
▁촐은	-10.509
▁오레	-10.5098
▁돌아뎅기	-10.5099
짓	-10.5101
▁현	-10.5103
▁들이는	-10.5109
▁모영	-10.5109
▁올린	-10.5116
▁불도	-10.5119
▁일제	-10.512
▁ᄆᆞᆯ아	-10.512
▁초담	-10.5121
▁두에	-10.5121
▁상여	-10.5127
짐	-10.5132
▁날라	-10.5132
▁헤나난	-10.5152
▁나왕	-10.5159
▁ᄃᆞ는	-10.5164
베기	-10.517
▁ᄀᆞᆯ은	-10.5171
보다는	-10.5174
▁흐린좁ᄊᆞᆯ	-10.5179
▁죽는	-10.5181
▁데로	-10.5183
들어	-10.5186
▁마리에	-10.5192
▁보리찍	-10.5196
▁에에	-10.5198
▁ᄒᆞ니까	-10.5202
▁방상	-10.5203
벼	-10.5206
▁언	-10.5207
▁부락에	-10.5215
▁제주도는	-10.5228
▁할망상	-10.523
▁트멍	-10.5231
▁들면	-10.5237
져근에	-10.5239
▁ᄄᆞ	-10.5253
우민	-10.5256
▁일포	-10.5257
▁자연	-10.5257
▁아하	-10.5259
▁여자덜이	-10.5259
▁푸	-10.5261
▁부모님	-10.5268
▁싱그는	-10.5268
더라	-10.5268
▁만뒤	-10.5271
▁도세기	-10.5272
▁무조건	-10.5272
▁바둑	-10.5272
▁막펜지	-10.5272
▁빨래	-10.5272
▁ᄎᆞᆷ웨	-10.5273
▁재배	-10.5274
▁ᄁᆞᆯ앙	-10.5274
▁도련	-10.5274
▁도야지	-10.5275
▁해변	-10.5275
▁질겨	-10.5277
▁몰란	-10.5279
▁조그만	-10.5279
▁깨끗	-10.5284
▁썰어놩	-10.5285
▁ᄋᆢ물	-10.5286
▁가달	-10.529
▁ᄇᆞ디	-10.529
▁이기	-10.5291
▁데왕	-10.5292
▁쑤민	-10.5294
▁사건	-10.5295
▁비석	-10.5299
▁헙니께	-10.5302
유	-10.5307
▁호령창	-10.5311
▁ᄌᆞᆷ수	-10.5315
빈	-10.5321
▁정말	-10.5327
▁나오곡	-10.533
▁삿	-10.5334
▁받고	-10.5338
▁경우	-10.5342
못	-10.5342
난디	-10.5345
▁조왕	-10.5347
▁사레	-10.5349
▁조개	-10.535
잔	-10.5357
▁	-10.5359
▁내영	-10.5361
둰	-10.5362
▁헤신고	-10.5363
▁담앗	-10.5367
하곡	-10.5368
주마씨	-10.5368
쪽	-10.537
▁ᄀᆞᆮ주	-10.5378
▁노난	-10.5381
▁밟	-10.5384
▁뎅침	-10.539
▁놓은	-10.5392
▁몰아	-10.5392
▁ᄊᆞᆯ은	-10.5401
▁토롱	-10.5404
▁간단	-10.5408
▁애기들	-10.5413
▁뒤집어	-10.5414
▁짐치도	-10.5415
쳥	-10.5426
▁물장	-10.5427
▁들어가면	-10.5427
▁헤나민	-10.5428
▁멕에	-10.5429
▁좋으	-10.5429
▁불려	-10.5432
이로	-10.5435
▁얼굴	-10.5436
▁오메기술	-10.5437
▁예장	-10.5438
▁모다	-10.5441
가멍	-10.5445
네다	-10.545
평	-10.5456
▁먹으난	-10.5457
▁편	-10.5458
▁덮어	-10.5459
부런	-10.5473
▁이거를	-10.5474
놓	-10.5482
▁거령	-10.5486
▁아닌	-10.5488
렴	-10.5494
▁방장대	-10.5504
▁않은	-10.5504
▁흐린	-10.5505
▁특별하게	-10.5507
▁장갑	-10.5507
▁물릇	-10.5509
▁꼬앙	-10.551
▁큰ᄄᆞᆯ	-10.5511
▁각제기	-10.5512
▁농ᄉᆞ	-10.5516
▁살앗어	-10.5516
▁끓이	-10.5516
▁모양이라	-10.5521
▁요추룩	-10.5526
▁다닐	-10.5528
냥으로	-10.5528
▁ᄀᆞᆷ	-10.5529
▁식은	-10.5529
▁상제덜	-10.5531
▁먹엇지	-10.5531
▁년대	-10.5532
▁사다근에	-10.5539
▁태	-10.5544
▁오라근에	-10.5548
▁곳	-10.5549
▁털어지	-10.5549
▁들엇	-10.555
▁ᄃᆞ리	-10.5554
각	-10.5559
▁엇엇주게	-10.556
▁뒌덴	-10.5561
▁어렵	-10.5564
▁닮은디	-10.5565
▁와가지고	-10.5569
▁모르쿠다	-10.5571
▁놧다	-10.5572
▁다듬	-10.5572
▁동생	-10.5575
▁헤줘	-10.5575
▁일단	-10.5579
당은에	-10.558
▁나강	-10.5585
▁가부난	-10.5589
▁치멍	-10.5589
깡	-10.5595
▁근	-10.5596
▁잇엇주게	-10.5599
씬	-10.5605
▁뒷날은	-10.5607
▁갈아야	-10.561
▁돌려	-10.561
▁사람덜이	-10.5624
▁명이	-10.5625
▁어른덜이	-10.5628
▁센	-10.5629
▁경헷주	-10.563
▁잇을	-10.5639
▁맛잇	-10.5639
▁끄	-10.5646
▁마을이	-10.5655
▁똑같	-10.5656
▁비어당	-10.5657
▁없지	-10.5661
▁쉐나	-10.5662
▁구덕에	-10.5675
▁부섭	-10.5675
▁타작	-10.568
▁시꺼오	-10.5683
▁모기	-10.5684
▁놔두면	-10.5686
▁혀	-10.5687
▁동세	-10.5689
려고	-10.5692
▁콩씨	-10.5696
▁밋	-10.5705
▁피는	-10.571
으는	-10.5712
이라든가	-10.5713
▁김녕	-10.5721
▁친척	-10.5729
▁유리	-10.5729
▁각단	-10.5733
▁ᄆᆞᆯ리와	-10.5735
▁ᄎᆞᄎᆞ	-10.5741
▁도꼬마리	-10.5742
▁묻는	-10.5742
▁좋을	-10.5742
▁앙꼬	-10.5742
▁물허벅	-10.5744
▁영영영영	-10.5745
▁둣날	-10.5746
▁고추장	-10.5747
▁돌아간	-10.5747
▁홀	-10.5748
▁때라	-10.5751
▁담베	-10.5752
▁스무날	-10.5753
▁틈	-10.5754
▁아시날	-10.5754
▁정신	-10.5755
▁멕영	-10.5756
▁동상	-10.5756
▁덧	-10.5757
▁자리젓은	-10.5759
▁개역은	-10.5764
▁무명	-10.5768
▁전날	-10.5772
▁한줄	-10.5774
▁사발에	-10.5775
▁나오기	-10.578
▁찍엉	-10.5781
▁들어서	-10.5785
▁헨게	-10.5788
▁충	-10.5792
▁거우꽈	-10.5794
▁바짝	-10.5803
▁겨고	-10.5803
▁놧다가	-10.5809
▁터지	-10.5809
▁갑니다	-10.5811
▁쏘아	-10.5812
▁못헤여	-10.5812
▁짜근에	-10.5813
헨에	-10.5813
▁엇는	-10.5818
군	-10.582
▁봄이	-10.582
▁줜	-10.582
담	-10.5821
▁통지	-10.5823
▁부렝이	-10.5829
▁도고리	-10.5833
헨마씨	-10.5834
싱	-10.5846
▁노면은	-10.5846
▁소리가	-10.5852
ᄒᆞᆸ니까	-10.5855
▁늘	-10.5858
이든	-10.5859
▁안헷수과	-10.5864
구리	-10.5865
풀	-10.5876
▁쪽으로	-10.5876
▁연장	-10.5877
▁그것은	-10.5877
뿐	-10.5877
▁요만은	-10.5878
▁사름들은	-10.5878
▁열일곱	-10.5881
▁세우는	-10.5884
▁일어나	-10.5892
만히	-10.5897
▁아침에	-10.5898
으로만	-10.59
▁불곡	-10.59
신듸	-10.5905
▁틀린	-10.5914
▁씨아	-10.5914
▁창곰	-10.5917
▁걷	-10.5924
▁구십	-10.5932
▁빠져	-10.5941
라야	-10.5956
▁남저덜	-10.5957
▁올르	-10.5958
▁어웍	-10.596
▁잠데	-10.5965
▁문은	-10.5967
▁못헹	-10.5967
▁경허여	-10.597
▁메민	-10.5972
▁양석	-10.5974
▁모관	-10.5984
▁무끈	-10.5985
▁이제난	-10.5985
▁이만은	-10.5986
▁쪽파	-10.5986
▁꿩마농	-10.5986
▁대소상	-10.5986
▁몸이	-10.5986
▁삭삭	-10.5987
▁돌아가셧	-10.5987
▁착착	-10.5988
▁솟덕	-10.5989
▁ᄉᆞᆺ	-10.5989
낫는데	-10.5989
▁도복	-10.5989
▁딸령	-10.599
▁으응	-10.5991
▁삥이치기	-10.5991
▁생복	-10.5991
▁열무	-10.5994
▁고등학교	-10.5995
▁꼴	-10.5995
▁멩긴	-10.5996
▁도깨로	-10.5997
▁만들어서	-10.5998
▁매날	-10.5999
▁나두민	-10.5999
▁주루	-10.5999
▁먹어서	-10.6003
▁세멘	-10.6004
▁헤신가	-10.6004
노렌	-10.6005
▁또시	-10.6006
▁이바지	-10.6007
▁고와	-10.6007
▁장남	-10.601
▁실로	-10.6014
▁갈기	-10.6029
따	-10.6035
▁허곡게	-10.6037
용	-10.6044
▁좋아마씨	-10.6051
▁조사	-10.6051
셔	-10.6071
봔마씨	-10.6076
▁때니까	-10.6078
▁이제나	-10.6078
▁저지	-10.608
센	-10.6089
포	-10.6091
▁시절에	-10.6091
▁ᄈᆞᆺ	-10.6099
▁하주	-10.6103
▁헤봐	-10.6108
▁만들어근에	-10.6117
▁ᄒᆞᆫ다	-10.6122
▁아녀곡	-10.6123
다게	-10.613
▁삼양	-10.6131
▁치민	-10.6137
▁ᄌᆞᆷ질	-10.6139
▁헌거	-10.6143
▁산듸는	-10.6153
▁모셔	-10.6155
룽	-10.6155
▁가지가	-10.6156
▁고량	-10.6161
▁봐나	-10.6162
하기	-10.6174
▁정월에	-10.6174
▁벳기	-10.6175
지양	-10.6184
▁에염	-10.6188
▁멘들어	-10.6188
▁어서	-10.6191
▁여ᄌᆞ	-10.6196
▁때라도	-10.6197
▁ᄎᆞᆸᄊᆞᆯ	-10.6202
파	-10.6209
▁부자	-10.622
기를	-10.622
▁제주도에서	-10.6221
▁상방	-10.6223
▁버무려	-10.6229
▁비우	-10.623
▁경우에	-10.6234
▁하얀	-10.6236
▁묻을	-10.6236
▁선인장	-10.6236
▁ᄐᆞ	-10.6237
▁요멘썩	-10.6237
▁판찍	-10.6237
▁ᄀᆞ따	-10.6237
▁경운기	-10.6237
▁도둑질	-10.6238
▁윤디	-10.6239
▁허허허	-10.6239
▁ᄃᆞᆨ새기	-10.6239
▁조팟듸	-10.6239
▁대우리	-10.624
▁캉	-10.6242
▁헷수광	-10.6242
▁쑤엉	-10.6242
▁전기	-10.6245
▁노루	-10.6246
▁ᄀᆞ트민	-10.625
▁ᄂᆞᆷ이	-10.6251
▁실러	-10.6253
ᄒᆞ난	-10.6253
베낀	-10.6253
▁지낼	-10.6256
▁경허당	-10.6262
▁ᄄᆞᆯ랑	-10.6273
▁ᄐᆞᆨ	-10.628
헤마씨	-10.6283
▁주인이	-10.6287
▁문이	-10.6292
▁쪙	-10.6297
▁혹	-10.6299
▁지진	-10.6299
▁껍질	-10.63
▁품	-10.6304
오는	-10.6306
▁돌아와	-10.6308
▁주변에	-10.631
▁멜이	-10.6328
▁떨어져	-10.6332
▁내려와	-10.6334
▁신디	-10.6337
▁헌다게	-10.6338
헷주게	-10.6339
편	-10.6344
사람	-10.6344
▁입은	-10.6345
깍	-10.6346
▁ᄄᆞ나	-10.6353
▁하늘	-10.6354
얄	-10.6355
▁보리밥에	-10.6364
머리	-10.6367
▁신은	-10.6374
▁돌아가신	-10.6376
▁오게	-10.6378
▁바당이	-10.638
▁ᄉᆞᆱ으	-10.6388
십디다	-10.6389
▁대반	-10.6391
▁다라에	-10.6393
▁놓주	-10.6396
▁년도	-10.6398
▁안우꽈	-10.64
▁촐도	-10.6402
▁주장	-10.6404
▁요거는	-10.6408
▁아레	-10.6408
▁담고	-10.6414
▁절간에	-10.6415
▁ᄒᆞ나에	-10.6416
▁어신	-10.642
이니	-10.6422
가면	-10.6424
▁절변	-10.6425
딜로	-10.643
▁범벅은	-10.6434
▁섬비	-10.6436
▁짓은	-10.6438
▁제대	-10.6443
▁감저줄	-10.6444
▁올렷	-10.6453
▁잡을	-10.6464
▁ᄉᆞᆼ키	-10.6464
▁사름들이	-10.6465
커라	-10.6473
▁낭에	-10.6476
벡	-10.6478
▁시집가	-10.6479
▁멘짝	-10.648
웁	-10.6482
헷지	-10.6484
앗수과	-10.6488
▁초ᄒᆞ루	-10.6491
▁붓	-10.6492
▁묻엉	-10.6493
▁훍게	-10.6493
▁염색	-10.6493
▁ᄎᆞ례	-10.6493
▁제지내	-10.6493
▁실뜨기	-10.6493
▁덕석	-10.6493
▁아멩헤도	-10.6493
▁바싹	-10.6494
▁상ᄆᆞ루	-10.6494
▁눌엇당	-10.6494
▁사료	-10.6495
▁퍼렁	-10.6495
▁물룻	-10.6496
▁대목	-10.65
▁찝신	-10.6501
더렌	-10.6504
▁자란	-10.6507
이면은	-10.6509
▁잡으민	-10.6509
라게	-10.651
▁덩어리	-10.6512
▁짓고	-10.6514
▁멕이레	-10.652
▁모양으로	-10.6522
▁가죽으로	-10.6524
▁ᄉᆞᆱ	-10.6528
▁성씨가	-10.653
▁내일	-10.6531
▁싶은	-10.6531
딜	-10.6533
▁어려	-10.6533
▁헷거든	-10.6534
▁머옌	-10.6536
▁묘	-10.6537
▁컷당	-10.6537
▁걸령	-10.6554
▁이쪽으로	-10.6555
▁멘들아근에	-10.6564
▁봉가	-10.6568
▁도망가	-10.657
짐치	-10.6577
▁뒈서	-10.6578
▁아이가	-10.6581
▁피해	-10.6585
낫구나	-10.6589
▁넷	-10.659
▁와도	-10.6591
싹	-10.6592
우다게	-10.6597
▁사는디	-10.6602
재	-10.6604
봣	-10.6606
느	-10.6607
▁산제	-10.6608
임	-10.6609
▁모양이	-10.661
▁ᄒᆞ단	-10.6621
▁잇엇고	-10.6623
▁들면은	-10.6624
▁어른이	-10.6627
▁대게	-10.6628
부리	-10.6628
▁많으	-10.6628
▁어제	-10.663
▁담곡	-10.6632
▁바닥	-10.6638
▁며느리	-10.6641
▁해녀	-10.6642
▁어울	-10.6645
▁거난게	-10.6649
▁설에	-10.6655
▁심방이	-10.6657
간에	-10.6657
▁옵	-10.6661
▁ᄎᆞᆷ대	-10.6664
▁양반	-10.6664
▁개만	-10.6672
쌍	-10.6675
▁목욕	-10.6678
▁씻	-10.6688
▁멩글아	-10.6695
▁이서야	-10.6698
▁맷돌	-10.6699
▁감저도	-10.6706
▁ᄊᆞᆯ을	-10.6707
▁정기	-10.6709
▁눈에	-10.6733
놧당	-10.6734
▁경헤서	-10.674
▁ᄒᆞ루에	-10.6741
▁기가	-10.6742
▁ᄌᆞᆨ은	-10.6746
▁ᄃᆞᆯ고	-10.6748
▁바깟	-10.6749
움	-10.6752
▁베염	-10.6753
▁밧듸서	-10.6753
▁삶아	-10.6756
▁제환지	-10.6756
▁콥대사니	-10.6756
▁특히	-10.6756
▁오리목	-10.6756
▁글쎄	-10.6756
▁ᄆᆞᆷ쿡	-10.6756
▁솔변	-10.6756
▁팡팡	-10.6757
벳긘	-10.6757
▁족은아덜	-10.6757
▁고셍	-10.6757
▁몃	-10.6758
낫덴	-10.6759
▁장콩	-10.6759
▁막뎅이	-10.6759
▁베끗듸	-10.6759
▁놔둔	-10.6759
▁똑같아	-10.676
▁ᄒᆞ우꽈	-10.6761
근넹에	-10.6761
▁개월	-10.6762
▁쑤어	-10.6762
▁요만인	-10.6763
▁속옷	-10.6763
▁둘리	-10.6763
▁동넨	-10.6765
▁신창	-10.6767
▁집읜	-10.6767
▁놓으민	-10.6772
▁명절	-10.6774
▁아버지네	-10.6776
▁잇일	-10.6778
▁호상	-10.6778
▁곶	-10.6779
글락	-10.6779
▁성냥	-10.678
▁ᄃᆞᆼ기	-10.6783
▁개인으로	-10.6785
▁저를에	-10.6785
▁쉬와	-10.6789
▁자기네	-10.679
▁뗀	-10.6791
▁서방	-10.6791
버리	-10.6792
▁일년	-10.6795
▁ᄆᆞᆯ이나	-10.6796
▁비왕	-10.6796
▁말만	-10.6803
▁방상에	-10.6806
▁그디가	-10.6807
▁헴서	-10.6807
▁모저	-10.6808
▁먹이	-10.6814
▁ᄑᆞᆯ곡	-10.6815
▁결혼은	-10.6815
▁매어	-10.6818
▁겨울엔	-10.682
▁자식들	-10.6827
사름	-10.6829
▁세왕	-10.6831
▁아니라게	-10.6834
▁ᄌᆞᆷ수덜	-10.6841
삭	-10.6842
▁헤수과	-10.6845
▁궤여	-10.6856
▁기관	-10.6857
▁흑이	-10.6859
잇	-10.686
궤	-10.6862
▁보난에	-10.6863
▁물질허	-10.6865
▁갈안	-10.6868
춘	-10.6869
▁얼레	-10.6879
섭	-10.6881
▁신구간에	-10.6884
▁나대	-10.6886
▁꼽	-10.689
▁화	-10.6901
허고예	-10.6903
▁대헹	-10.6912
▁ᄌᆞᆽ	-10.6913
▁통에	-10.6915
▁ᄋᆞ졍	-10.6931
▁싸민	-10.6935
이구	-10.6938
▁경찰	-10.6945
▁내어	-10.6947
▁그디도	-10.6949
▁숙	-10.6958
치는	-10.696
▁톨밥	-10.6961
▁ᄌᆞᆸ	-10.6964
▁부제	-10.6965
▁임제	-10.6966
▁와야	-10.6969
▁있지	-10.6975
이냐	-10.6986
▁먹어낫주	-10.6987
▁회	-10.6992
▁형성	-10.6994
▁잠깐	-10.7002
▁없엇	-10.7004
▁밭	-10.7013
▁십일월	-10.7016
둿당	-10.702
시녜	-10.7025
▁맞다	-10.7026
▁씁니	-10.7026
▁윷놀이	-10.7026
▁정벵이	-10.7027
▁배추짐치	-10.7027
▁ᄀᆞ랏	-10.7027
▁누님	-10.7028
▁잔칫날	-10.7028
▁소중의	-10.7028
▁초복	-10.7028
▁주워	-10.703
▁화상	-10.703
▁보릿낭	-10.703
▁올라간	-10.7031
▁잊어불언	-10.7032
▁뽑앙	-10.7032
▁보리클	-10.7033
엇수가	-10.7034
▁햇수과	-10.7034
▁약간	-10.7035
▁일러	-10.7036
▁요딘	-10.7037
▁한복	-10.7039
▁살당	-10.7047
▁쉐막에	-10.705
▁꿩죽	-10.7051
▁잠깐만	-10.7051
▁안헨	-10.7052
▁이유가	-10.7059
▁감산이	-10.706
▁서실	-10.706
▁쥐	-10.7062
▁그떼	-10.708
▁모르는	-10.7081
▁쳐근에	-10.7082
▁부꺼	-10.7083
▁가문	-10.7085
먹어	-10.7086
▁그기	-10.7086
▁터진	-10.7087
▁살앙	-10.7088
▁거치	-10.7089
▁찬	-10.709
▁시켜	-10.7096
▁쒜로	-10.7098
▁그놈의	-10.7099
▁보여	-10.7102
▁ᄉᆞᆷ고	-10.7105
▁조로	-10.7107
▁고물	-10.7108
보지	-10.7109
▁ᄀᆞ라	-10.7112
찍	-10.7112
▁경허	-10.7113
▁ᄒᆞ당	-10.7119
▁금	-10.712
▁ᄆᆞᆫ여	-10.7123
▁메야	-10.7124
▁나갈	-10.7124
▁들어오지	-10.7126
쩌	-10.7127
으레	-10.713
▁굴이	-10.7131
롱	-10.7133
눌	-10.7136
▁만들곡	-10.7138
▁양에	-10.7143
▁지경	-10.7148
▁오빠	-10.715
저것	-10.7154
헴	-10.7156
▁잇주만	-10.7159
▁초파일	-10.716
▁하는데	-10.7164
▁동글랑허게	-10.7167
▁장게	-10.7179
▁생이	-10.718
▁뭇이	-10.7189
▁낫주	-10.7194
▁청묵은	-10.7195
▁입엇주	-10.7197
▁촌	-10.7203
▁ᄀᆞ를	-10.7205
▁보라	-10.721
▁손을	-10.7212
▁놓아	-10.7213
▁씨어멍	-10.7224
ᄒᆞ주게	-10.7227
들을	-10.7229
▁사돈	-10.7232
▁ᄆᆞᆽ	-10.7232
▁정ᄀᆞ레	-10.7235
▁농사짓	-10.7236
▁변	-10.724
▁미싱	-10.7246
▁거엔	-10.7249
삼	-10.7254
▁생각을	-10.7257
키여	-10.7257
▁호렝이	-10.7258
▁ᄃᆞᆫ	-10.7259
오라	-10.7263
▁잊어	-10.727
▁아녀게	-10.7274
▁밀ᄀᆞ루	-10.7275
▁같아	-10.7281
▁걸렷	-10.7281
▁ᄁᆞᆯ	-10.7288
불지	-10.7291
격	-10.7294
▁남자는	-10.7301
▁서쪽	-10.7302
만큼	-10.7303
▁그럭저럭	-10.7304
▁디딜팡	-10.7304
▁맞촹	-10.7304
▁확실	-10.7304
▁휏불	-10.7304
▁졸업	-10.7304
▁일제시대	-10.7304
▁씨아지방	-10.7304
▁ᄀᆞᆸ	-10.7304
▁갓김치	-10.7305
▁만뒤떡	-10.7305
▁오가리	-10.7306
▁시쳐	-10.7306
▁ᄀᆞ레착	-10.7306
▁새끼훼	-10.7306
▁쑨	-10.7306
▁도깨질	-10.7307
▁앚졍	-10.7307
▁물고기	-10.7309
▁보달	-10.731
▁노란	-10.7311
▁모냥이라	-10.7311
▁종일	-10.7312
▁퍼데기	-10.7312
▁망치	-10.7313
▁살림	-10.7313
▁힘든	-10.7314
▁헤낫구나	-10.7314
▁느랑	-10.7314
▁비께	-10.7316
▁엇인가마씨	-10.7316
▁ᄑᆞᆯ앙	-10.7317
▁장소	-10.7318
▁그난	-10.7319
▁데령	-10.7325
▁밑에는	-10.7325
▁있는데	-10.7331
ᄒᆞ멍	-10.7334
▁허니	-10.7335
▁감옷	-10.7337
▁뎅겻	-10.7343
▁나믄	-10.7344
▁돼지고기	-10.7345
헌디	-10.7347
▁사라	-10.7351
팡	-10.7354
룬	-10.7355
▁아닌가	-10.7377
▁엿은	-10.7382
▁뜬	-10.7383
▁아니우다	-10.7383
▁안헤도	-10.7384
▁잇이난	-10.7393
▁종이로	-10.7398
▁던지	-10.7399
▁조수	-10.7403
렝	-10.7408
▁하이고	-10.7414
낫젠	-10.7415
▁멜은	-10.7417
▁용도	-10.742
▁잇다가	-10.742
크	-10.7423
▁하양	-10.7429
▁허주기	-10.7438
▁헤나서	-10.7439
▁내우	-10.7442
▁끌이	-10.7443
▁멩텡이에	-10.7446
▁지가	-10.7448
▁물어보	-10.745
려면	-10.746
껴	-10.7462
먹고	-10.7471
▁준비헤	-10.7474
▁안읍니까	-10.7474
▁얻어	-10.7476
▁잇어서	-10.7481
▁말치	-10.7493
▁ᄌᆞ배기	-10.7494
▁소금물	-10.7502
▁조왕에	-10.7507
ᄒᆞ나	-10.751
야주	-10.7512
▁헤벤	-10.752
류	-10.7522
▁만나	-10.753
▁갈면은	-10.7533
▁매기	-10.7533
▁조상	-10.7538
▁운	-10.7546
▁ᄉᆞᆯ에	-10.7552
▁많지	-10.7556
▁동광	-10.7564
▁ᄐᆞᆮ	-10.7564
▁ᄀᆞᆯ겡이	-10.7565
▁용	-10.7565
▁족바지	-10.7566
까지는	-10.7568
▁들어봔	-10.7571
▁호박입	-10.7578
호	-10.7579
▁봉덕	-10.7589
▁그렇구나	-10.759
▁높이	-10.759
▁먹보말	-10.759
▁뭣고	-10.759
▁삶이	-10.759
▁어촌계	-10.759
▁주칫돌	-10.759
▁깍두기	-10.759
▁돔비	-10.759
▁장독대	-10.759
▁태작	-10.759
▁두루막	-10.759
▁가마귀	-10.7592
▁고무	-10.7592
▁일월	-10.7594
▁즉	-10.7594
▁ᄉᆞᆷ앙	-10.7595
▁돌담	-10.7595
▁들어본	-10.7596
▁창신	-10.7596
▁남원리	-10.7596
▁ᄌᆞᆷ자	-10.7598
▁마라	-10.7598
▁입동	-10.7599
▁ᄂᆞᆷ삐국	-10.7601
▁ᄀᆞ리치	-10.7602
▁자주	-10.7605
▁여기서도	-10.7612
▁헤양	-10.7613
▁ᄀᆞᆮ곡	-10.7615
▁ᄃᆞᆯ연	-10.7616
▁카근에	-10.7623
▁빌어근에	-10.7623
치고	-10.7623
▁티	-10.7624
▁아덜은	-10.7626
가곡	-10.7626
지니까	-10.763
▁족은방	-10.763
▁암만	-10.7631
▁아무라도	-10.7632
▁뒌장은	-10.7632
▁나오니까	-10.7633
▁소도	-10.764
▁잡아먹	-10.764
▁잇어낫어	-10.7644
티	-10.7645
▁부덴	-10.7647
▁집마다	-10.765
▁아녀난	-10.7652
▁가지로	-10.7654
▁더프는	-10.7657
▁손잡이	-10.7664
디다게	-10.7667
▁먹으면	-10.7667
▁시꺼당	-10.7673
▁박는	-10.7676
▁종기	-10.768
▁웨냐면	-10.7692
쯤에	-10.7692
어서	-10.7694
▁다시다	-10.7701
헤근엥	-10.7704
▁키우고	-10.7705
▁조기	-10.7707
▁벗어	-10.7712
▁펜안	-10.7715
봉	-10.7715
농사	-10.7716
▁온다	-10.772
▁여자덜은	-10.7723
▁봣어	-10.7724
▁나사	-10.7729
▁나가고	-10.7733
▁하르방도	-10.7735
쓰	-10.7738
지가	-10.7743
▁싯지	-10.7744
된	-10.7749
▁지져	-10.7752
트민	-10.7752
▁엇어예	-10.7752
▁운반	-10.7754
▁하관	-10.7759
▁번이나	-10.7762
놧	-10.7774
▁게다	-10.779
▁앚지	-10.7796
▁일본서	-10.7796
▁비누	-10.7797
▁파당	-10.7798
▁혼자만	-10.7801
▁휘	-10.7802
▁뜻	-10.7803
다른	-10.7803
엿수과	-10.781
쿠	-10.781
▁흔	-10.7811
▁상웨떡은	-10.7812
부럿	-10.7812
▁뼁이	-10.7813
▁과일	-10.7822
▁나무는	-10.7825
▁바닷가에	-10.7828
▁아녀는	-10.783
▁쌀이	-10.7831
▁하기	-10.7831
▁신고	-10.7835
▁하게	-10.7844
▁농사가	-10.7846
▁방향	-10.7847
▁보리쌀	-10.7847
▁심는	-10.7847
▁새스방	-10.7854
▁말에	-10.7866
▁잇이	-10.7873
▁모르지	-10.7876
▁ᄀᆞᆯ아서	-10.7883
▁치료	-10.7883
엥	-10.7883
▁맞췅	-10.7884
▁뭔지	-10.7884
▁비차락	-10.7884
▁어쨋든	-10.7884
▁여덟	-10.7884
▁천연두	-10.7884
▁갑자기	-10.7884
▁졸바로	-10.7884
▁다데떡	-10.7884
▁내지	-10.7884
▁오꼿	-10.7884
▁주넹이	-10.7885
▁판관	-10.7885
▁중심	-10.7885
▁배설	-10.7885
▁감저는	-10.7886
▁멩그	-10.7886
▁점복	-10.7886
▁성게국	-10.7887
▁베추	-10.7888
▁콩찍	-10.789
▁들어왓	-10.7891
▁물구덕	-10.7891
▁ᄂᆞ물국	-10.7892
▁먹구정	-10.7893
물이	-10.79
▁안트레	-10.7901
▁고운	-10.7901
▁뚜껑	-10.7902
▁소주	-10.7903
▁마농지시	-10.7904
▁수세	-10.7905
▁잇엇수과	-10.7905
▁노린	-10.7908
▁비슷헌	-10.7909
▁험벅으로	-10.7913
▁걸로만	-10.7914
▁첫	-10.7918
▁새왓	-10.7919
▁들어왕	-10.792
▁경헤여	-10.7923
▁ᄆᆞᆯ른	-10.7924
▁ᄂᆞ리	-10.7927
▁허문	-10.7929
▁입관	-10.7932
▁ᄃᆞᆷ아	-10.7937
▁주난	-10.7939
▁절벤은	-10.7941
▁한국	-10.7945
▁살지	-10.7948
▁ᄎᆞᆯ리는	-10.7951
▁ᄃᆞᆺ	-10.7952
▁뒈가민	-10.7953
▁왓다	-10.7955
▁ᄋᆢᆯ아	-10.7957
▁갈지	-10.7957
▁주멍	-10.7962
헷수다	-10.7962
▁놓으면	-10.7964
▁ᄃᆞᆯ아나	-10.7967
▁치와	-10.7975
▁상어	-10.7986
▁ᄇᆞᆯ리고	-10.7987
▁가리	-10.7987
▁벗어지	-10.799
▁우수	-10.7994
▁경헤야	-10.7995
▁파근에	-10.7998
▁나오주	-10.8005
▁헷젠	-10.8012
▁전엔	-10.8014
▁차롱	-10.8022
▁페와	-10.8022
햇	-10.8029
학	-10.8033
총	-10.8039
▁ᄀᆞ뜨	-10.804
▁인칙	-10.8042
▁살아도	-10.8044
놘	-10.8047
멜	-10.8052
▁벼	-10.806
▁하나에	-10.8067
▁어떵헌	-10.8069
▁남자들	-10.8069
▁바치	-10.8071
▁얻어먹	-10.8074
▁ᄌᆞ물	-10.8077
▁사근에	-10.8079
▁맛도	-10.8088
▁안헤서	-10.8088
제나	-10.8098
▁잇엇주	-10.8102
습	-10.8108
▁누는	-10.8116
▁넘으면	-10.8119
▁살아서	-10.8125
놈	-10.8126
▁동짓ᄃᆞᆯ	-10.813
▁데가	-10.8133
봐서	-10.8138
▁엇어서	-10.814
하지	-10.814
릅니까	-10.814
▁끌여	-10.8143
▁사름만	-10.8146
▁까까	-10.8147
리에	-10.8152
▁모ᄆᆞᆯᄊᆞᆯ	-10.8155
▁성읍	-10.816
▁ᄀᆞ루를	-10.816
▁시키	-10.8162
▁저장	-10.8166
▁네모	-10.8169
▁나완	-10.8169
▁ᄀᆞᆯ암	-10.8176
▁발에	-10.8178
ᄌᆞ	-10.8179
룰	-10.8183
엇수다	-10.8184
▁공동묘지	-10.8187
▁궂어	-10.8187
▁새시방	-10.8187
▁섞어	-10.8187
▁여드름	-10.8187
▁오토미	-10.8187
▁절롼지	-10.8187
▁하늬ᄇᆞ름	-10.8187
▁ᄂᆞ람쥐	-10.8187
▁쉐질메	-10.8187
▁팍팍	-10.8187
▁호롱이	-10.8187
▁구좌	-10.8187
▁애월	-10.8187
▁굴중의	-10.8187
▁화순	-10.8187
▁엇으난	-10.8187
▁몬딱	-10.8187
▁들이쳥	-10.8188
▁ᄒᆞ썰	-10.8188
▁처녀	-10.8188
▁여남은	-10.8188
▁빨간	-10.8188
▁수두리	-10.8188
▁연애	-10.8188
줘사	-10.8188
▁조왕제	-10.8188
▁여유	-10.8189
▁올라강	-10.819
▁반착	-10.8191
▁응응	-10.8192
▁올케	-10.8195
▁놔둠서	-10.8196
▁ᄃᆞᆯ아메영	-10.8197
▁족영	-10.8201
▁끈엉	-10.8201
▁신경	-10.8204
▁꽝	-10.8209
▁멥	-10.8209
▁갤	-10.821
▁잇거든	-10.8212
▁뒷문	-10.8213
▁ᄀᆞᆯ겡이로	-10.8214
▁나왓	-10.8214
▁정의	-10.8214
▁청수리	-10.8215
▁준비헤야	-10.8215
▁말아야	-10.8215
▁잡안	-10.8219
벢이	-10.8221
▁아니과	-10.8221
▁모ᄌᆞ	-10.8221
▁익으면은	-10.8224
▁이시니까	-10.8226
▁걸러	-10.8232
▁질어당	-10.8234
▁가운	-10.8234
▁타레	-10.8235
▁값	-10.8235
▁잇덴	-10.8237
▁완에	-10.8239
▁수의	-10.8239
▁피어	-10.8243
▁다마	-10.8248
▁들어봣	-10.8259
▁썰	-10.826
▁찍은	-10.8262
밧디	-10.8263
▁양씨	-10.8266
▁밋에	-10.827
침	-10.8277
▁닮다	-10.828
▁ᄀᆞ르치	-10.8287
▁어른들	-10.8291
ᆫ	-10.8294
▁거ᄀᆞ라	-10.8297
▁뿌	-10.8305
▁만들앗	-10.8315
▁영헌	-10.8315
▁주시	-10.8318
▁식이	-10.8329
릉	-10.8331
읍	-10.8331
옵	-10.8331
약	-10.8343
쌀	-10.8344
아졍	-10.8344
족	-10.8348
린덴	-10.8351
▁잘라	-10.8356
▁두께	-10.8356
▁줄로	-10.8356
씰	-10.8359
로구나	-10.836
▁헤먹	-10.8361
뭇	-10.8363
▁아니믄	-10.8364
▁피가	-10.8365
어가지고	-10.8367
▁하면서	-10.8372
▁대가	-10.838
▁잠	-10.8383
▁잡아당	-10.8402
▁못헌	-10.8405
▁ᄒᆞᆫ불	-10.8412
랜	-10.8423
것이	-10.8423
닌	-10.8429
▁나오라	-10.843
집니다	-10.8434
옌도	-10.8438
▁허라	-10.844
▁지곡	-10.8441
방에	-10.8441
▁적도	-10.8447
소리	-10.845
▁불엉	-10.846
▁조팝은	-10.8466
▁부니까	-10.8478
▁건졍	-10.8482
▁여기에서	-10.8483
▁운동	-10.8485
▁찰	-10.8487
▁양력	-10.8488
▁죽으	-10.8497
▁무덤	-10.8499
▁앞더레	-10.8499
꼉	-10.8499
▁콩꼬질	-10.8499
▁프로	-10.85
▁묘종	-10.85
▁선생님	-10.85
▁두말떼기	-10.8501
▁ᄀᆞ타	-10.8501
▁ᄂᆞᆷ삐짐치	-10.8501
▁말쩨	-10.8502
▁ᄎᆞᆽ앙	-10.8502
▁콩짚	-10.8502
▁연술	-10.8502
▁비듬	-10.8503
▁궤명	-10.8503
▁기준	-10.8505
▁젠젠헌	-10.8506
▁궝	-10.8506
▁받안	-10.8507
▁남뎅이	-10.8507
▁빌레	-10.8508
▁나끄레	-10.8509
▁소님	-10.8509
▁내쳐	-10.8509
▁적갈	-10.8511
▁오라방	-10.8513
엇저	-10.8514
▁꿰왕	-10.8515
▁삼베	-10.8517
▁일부러	-10.8518
▁놀아	-10.8521
▁헤변	-10.8521
▁져당	-10.8522
▁헤봣어	-10.8526
▁송애기	-10.8528
▁ᄒᆞ여도	-10.8531
▁제사를	-10.8535
▁잇엉	-10.854
▁비여근에	-10.8543
▁보린	-10.8545
▁몽	-10.8546
▁모아	-10.8547
▁크는	-10.855
▁지정	-10.855
▁ᄋᆢ름에	-10.8556
▁보리밥은	-10.8556
▁썻주	-10.8556
▁뿌려근에	-10.8561
▁더운	-10.8565
▁안헌	-10.8571
▁팍	-10.8571
놓난	-10.8571
▁한문	-10.8573
▁다님	-10.8573
▁초가	-10.8574
▁둘리가	-10.8574
▁말멍	-10.8576
▁꿰는	-10.8578
▁들으	-10.8578
▁총으로	-10.8579
▁필요헤	-10.858
등	-10.8581
장을	-10.8582
▁담그	-10.8585
낫저게	-10.8588
ᆞᆯ	-10.8589
▁어울리	-10.8589
난게	-10.8591
▁있잖아	-10.8594
▁엇엇고	-10.86
▁ᄒᆞ면	-10.8603
▁때려	-10.8605
▁거죽	-10.8607
▁입으로	-10.861
▁여자들은	-10.8611
보다도	-10.8611
▁뿌립	-10.8619
▁위로	-10.8629
지난	-10.863
▁헤단	-10.8633
▁뒈믄	-10.8635
▁배로	-10.8636
했	-10.8646
변	-10.8646
▁소곱	-10.8647
크라	-10.8647
▁바르	-10.8649
▁좁쌀로	-10.865
▁입엇	-10.865
▁지역	-10.8653
▁ᄆᆞᆯ랑	-10.8653
▁적다	-10.8661
▁행사	-10.8664
▁알아지	-10.8665
탁	-10.8665
▁너이	-10.8668
쯤은	-10.8671
▁재수	-10.8672
▁만들주	-10.8677
▁날레	-10.8681
풍	-10.8686
▁테주	-10.8687
▁들어가야	-10.8687
헤낫수과	-10.8691
▁만들지	-10.8697
▁어시	-10.8706
▁묻으	-10.8709
▁삼춘네는	-10.871
가지	-10.8712
▁지팡	-10.8727
▁자식	-10.8731
▁경헤낫주	-10.8744
▁가져오	-10.8746
▁컷	-10.8748
▁사니까	-10.875
▁더프	-10.8751
사주게	-10.8757
▁놓난	-10.8761
▁말하는	-10.8764
▁발효	-10.8765
▁오주게	-10.8768
▁구분	-10.8772
▁아판	-10.8782
▁갓다가	-10.8784
납디	-10.8785
▁육지는	-10.8791
▁칠석	-10.8797
▁ᄆᆞᄆᆞᆯ	-10.88
▁심으	-10.8803
▁추워	-10.8804
▁올레에	-10.8804
엇는데	-10.8809
▁ᄆᆞᆺ아	-10.8815
▁차가	-10.8819
▁녹두	-10.8819
▁이쪽에	-10.882
▁빙빙	-10.8821
ᆞ	-10.8822
▁고깃배	-10.8822
▁넣는	-10.8822
▁묻엇	-10.8822
▁절간고구마	-10.8822
▁조풍뎅이	-10.8822
▁줄넘기	-10.8822
▁탯줄	-10.8822
▁벙것	-10.8822
▁알개미젓	-10.8822
▁창꿈	-10.8822
▁팔팔	-10.8822
비언	-10.8822
▁허리띠	-10.8823
▁바빠	-10.8823
▁노끗	-10.8823
▁싹싹	-10.8823
▁들이쳐	-10.8824
▁키울	-10.8824
▁ᄄᆞ루	-10.8824
▁ᄑᆞᆺ쉬	-10.8824
▁헨게마는	-10.8825
▁다락	-10.8827
▁메역도	-10.8828
▁잇수게	-10.8828
▁돌처귀	-10.8829
▁가신	-10.8829
▁ᄌᆞᆯ라	-10.8829
▁초파일날	-10.8831
▁생멩지	-10.8833
▁두드레기	-10.8834
▁마당질	-10.8834
▁재미난	-10.8835
▁헌다고	-10.8836
▁눌굽	-10.8837
▁식당에	-10.8838
▁밧가는	-10.8839
▁양말	-10.8841
▁놓앙	-10.8842
나마나	-10.8842
봣어	-10.8843
▁용시	-10.8843
▁ᄋᆢ답	-10.8844
▁우영에	-10.8844
▁나오면	-10.8846
▁불렁	-10.8848
▁거리는	-10.8849
▁장난으로	-10.8849
▁아냐	-10.8854
▁이십오	-10.8854
▁구들에	-10.8856
▁홍	-10.8856
▁요강	-10.8859
▁지미	-10.8861
▁놔뒁	-10.8863
▁어떵헷수과	-10.8865
▁뽄	-10.8869
져당	-10.8869
▁걸름으로	-10.8872
▁있으면	-10.8873
불여	-10.8874
▁밧갈	-10.8877
▁무시거니	-10.888
▁아장	-10.8881
▁ᄒᆞᆫ착	-10.8886
▁흐흐흐	-10.8888
▁헴수과	-10.889
▁바다에서	-10.8891
▁그늘	-10.8898
▁좁ᄊᆞᆯ은	-10.8899
▁정헤	-10.8899
▁ᄌᆞᆸ은	-10.8901
▁쑤고	-10.8911
▁오만	-10.8913
▁동산	-10.8915
▁고누	-10.8916
▁나오면은	-10.8917
▁먹어나	-10.8918
▁ᄀᆞᆺ디	-10.8919
▁깨끗이	-10.8921
▁일만	-10.8925
▁국수	-10.8926
▁중에서	-10.8927
▁ᄂᆞ려	-10.893
언마씨	-10.8931
팟	-10.8932
▁모르쿠	-10.8932
고라	-10.8933
▁단지에	-10.8935
▁버려	-10.8937
헙니다	-10.8938
▁잡아근에	-10.8942
▁문짝	-10.8942
▁물건	-10.8948
▁모른	-10.8949
터레	-10.8952
싸	-10.8958
▁조죽	-10.8963
▁ᄀᆞᆯ민	-10.8967
▁분이	-10.897
▁누룩은	-10.8974
▁전이는	-10.8977
쿠과	-10.8988
▁아니여	-10.8992
▁널르	-10.8993
▁모두	-10.8996
▁남ᄌᆞ덜	-10.8999
▁콩국은	-10.9007
메기	-10.9011
▁언제쯤	-10.9012
▁마찬가지로	-10.9017
맨	-10.9021
▁헤봣	-10.9021
▁앗	-10.9023
▁지민	-10.9023
▁딜로	-10.9024
정도	-10.9025
▁피우	-10.9029
▁테우는	-10.903
▁앚져	-10.9036
▁발레	-10.9041
▁삼촌은	-10.9047
▁두부도	-10.9051
▁낫을	-10.9054
▁물들이	-10.9055
▁부락이	-10.9056
▁설칫	-10.9059
▁ᄀᆞᆯ체	-10.906
▁바꽈	-10.9064
ᄒᆞ연	-10.9065
▁나온다	-10.9068
▁빨	-10.9085
▁연싸움	-10.9087
▁양식	-10.9087
▁대톱	-10.9089
▁철이	-10.9091
▁감추	-10.9095
▁들어난	-10.9095
라부난	-10.9105
▁흑으로	-10.9108
▁벌이	-10.9119
▁얼멩이	-10.912
▁굴묵에	-10.9121
▁비오	-10.9122
▁부치	-10.9135
▁뒈기	-10.9136
▁돌에	-10.9141
▁공무원	-10.9153
▁칼국	-10.9154
▁대들포	-10.9155
▁습격	-10.9155
▁신혼살림	-10.9155
▁큰메누리	-10.9155
▁망사리	-10.9155
▁닷새미녕	-10.9155
▁육이오	-10.9155
▁엄청나게	-10.9155
▁훈련	-10.9155
▁각메기	-10.9156
▁쳇망	-10.9156
▁탕쉬	-10.9156
▁홀트	-10.9156
▁셍선	-10.9157
▁일포제	-10.9157
▁알아지크라	-10.9157
▁틔왕	-10.9157
집니까	-10.9157
▁ᄎᆞᆷᄂᆞ물	-10.9158
▁젓으멍	-10.9158
▁기침	-10.9159
▁소설	-10.9159
▁대썹	-10.9159
▁반ᄃᆞᆯ	-10.9159
▁곤ᄊᆞᆯ이	-10.916
▁걷엉	-10.9161
▁웃드리	-10.9161
▁부모네	-10.9162
▁가불	-10.9163
▁ᄃᆞᆼ겨	-10.9164
▁주름	-10.9164
▁도레기	-10.9164
▁모래	-10.9164
▁받앗	-10.9165
▁안헤여	-10.9166
▁요만한	-10.9166
▁내리	-10.9166
▁바령	-10.9167
분덴	-10.9167
▁홀테	-10.9167
▁부엌에	-10.9168
▁내부는	-10.9169
▁양력으로	-10.9171
▁베개	-10.9172
▁매해	-10.9174
▁싯저	-10.9177
▁버즘	-10.9181
▁깍신	-10.9183
▁그럴	-10.9189
▁허엿	-10.9191
▁비고	-10.9192
▁새해	-10.9192
엇당	-10.9193
▁떨어진	-10.9193
▁물어볼게	-10.9196
▁가저	-10.9198
▁넘어가민	-10.9199
▁삼으로	-10.9203
▁접게	-10.9203
▁줏어당	-10.9203
▁판이	-10.9203
▁법이	-10.9204
▁ᄑᆞᆯ젠	-10.9208
▁ᄒᆞ꼼썩	-10.9209
▁사이	-10.921
▁삼수	-10.9216
▁적당	-10.9217
▁웨로	-10.9219
▁손질	-10.922
▁헷주마는	-10.9223
▁허벅으로	-10.923
▁밟아	-10.9231
▁말곡	-10.9233
▁지레	-10.9237
▁못허난	-10.9241
둥	-10.9242
▁비여당	-10.9248
▁집들이	-10.925
▁청명	-10.9252
▁가령	-10.9252
▁거랑	-10.9252
▁영허영	-10.9255
▁헷다	-10.9261
▁들게	-10.9263
▁ᄉᆞᆷ으	-10.9265
▁ᄎᆞᆽ	-10.9267
▁병원에	-10.9267
▁이수	-10.9269
▁통시에	-10.9274
▁모르게	-10.9277
썹	-10.9281
이사	-10.9285
▁낸	-10.9291
▁ᄂᆞ려가	-10.9294
▁시아방	-10.9299
▁복삭	-10.93
리지	-10.93
놓니까	-10.9311
▁날에	-10.9313
▁소나	-10.9315
들락	-10.9317
▁만큼	-10.9319
허여근에	-10.932
▁딱지	-10.9322
▁내려오	-10.9329
▁해그네	-10.9333
▁해난	-10.9333
▁콩죽은	-10.9334
항	-10.9335
▁불지	-10.9339
벤	-10.9339
▁한라산	-10.934
▁배에	-10.9344
▁때민	-10.9345
뜨	-10.9348
▁톡허게	-10.9351
속	-10.9354
▁갓주게	-10.9358
▁베가	-10.936
▁멩질에	-10.936
▁이서낫	-10.936
▁천지	-10.9364
▁중매결혼	-10.9364
봥	-10.9366
▁입주	-10.937
▁ᄆᆞᆺ	-10.9373
▁베어	-10.9378
▁토신제는	-10.9381
▁솔잎	-10.9381
▁삼헌	-10.9386
▁오름은	-10.939
라노난	-10.9391
던데	-10.9397
▁술은	-10.9398
▁ᄀᆞᆯ고	-10.9398
▁틔	-10.9399
▁ᄃᆞᆮ	-10.9403
▁고치장	-10.9403
▁들어가게	-10.9406
이구나	-10.9408
▁줄기	-10.9409
▁만들기	-10.941
야주게	-10.9413
▁복치메	-10.9421
▁뒈야	-10.9425
▁팔월에	-10.943
▁호박입국	-10.9434
▁손님	-10.9443
▁유월에	-10.9444
▁헴시	-10.9449
▁먹으	-10.9455
만한	-10.9458
▁수고	-10.9466
밧이	-10.9475
▁송	-10.9477
▁대체	-10.9484
▁골고	-10.9489
▁녹아	-10.9499
▁돗가레	-10.95
▁왜정	-10.95
▁동짓날	-10.95
▁맞지	-10.95
▁우뭇가사리	-10.95
▁줴기떡	-10.95
▁짤랑	-10.95
▁찢어	-10.95
▁후루메	-10.95
쩬	-10.95
▁가린석	-10.95
▁돗국물	-10.95
▁보목리	-10.95
▁윳놀이	-10.95
▁갯담	-10.95
▁밖거리	-10.95
▁열굿떡	-10.95
▁ᄉᆞ믓	-10.95
▁나룩찍	-10.9501
▁부지런	-10.9501
▁진설	-10.9501
▁멩지씰	-10.9502
▁생목	-10.9502
▁상ᄆᆞ르	-10.9502
▁큰아들	-10.9502
▁갈산듸	-10.9502
▁수웨	-10.9502
▁백중제	-10.9502
▁ᄍᆞᆯ랑	-10.9503
▁입추	-10.9503
▁누렁	-10.9504
▁질뢍	-10.9504
▁버선	-10.9505
▁상강일	-10.9505
▁ᄎᆞᆫ물	-10.9506
▁가시리국	-10.9506
▁산테	-10.9506
▁가멩이	-10.9506
버리니까	-10.9507
▁일젠	-10.9507
▁오그라진	-10.9507
▁요센	-10.9507
▁소살	-10.9508
▁부쳐	-10.9508
▁ᄃᆞᆯ에	-10.9509
▁새우리	-10.9509
▁몰랑	-10.9512
▁경허주	-10.9515
▁질문	-10.9518
▁ᄌᆞᆯ라메	-10.952
▁ᄆᆞᆯ타기	-10.9522
▁공장에	-10.9526
▁ᄇᆞᆯ리젠	-10.9526
▁ᄆᆞᆯᄀᆞ레에	-10.9526
▁멩심	-10.9527
▁놉니다	-10.9527
▁헷다근에	-10.9527
▁ᄋᆢ덥	-10.953
▁대강	-10.9531
▁우리말로	-10.9535
▁어멍네	-10.9537
▁ᄑᆞ	-10.9538
▁납니다	-10.9546
▁둥	-10.9553
▁중방	-10.9555
건디	-10.9556
▁이따	-10.9558
▁두개	-10.9558
▁걸리민	-10.956
▁끼우	-10.9561
▁처서	-10.9563
▁버치	-10.9571
▁내낭	-10.9571
▁영허는	-10.9572
▁헤신가마씨	-10.9577
▁오일	-10.9577
부난에	-10.9578
▁양펜	-10.9585
▁옷에	-10.9588
▁반치지	-10.959
▁엿도	-10.9591
▁솔벤은	-10.9594
▁어성	-10.9597
▁쟁기로	-10.9598
▁낫주게	-10.9602
▁닥	-10.9603
▁다까	-10.9604
▁친족	-10.9604
▁무끄고	-10.9607
진다	-10.9608
▁나오난	-10.9611
▁헤야지	-10.9612
자리	-10.9615
▁저펜	-10.9623
▁토지	-10.9627
라예	-10.9633
▁풍	-10.9641
▁궤기도	-10.9643
▁먹어낫저	-10.9652
▁절에	-10.9653
▁요즘도	-10.9657
▁촐왓	-10.9665
시켜	-10.9668
▁ᄀᆞ레로	-10.9672
▁이어	-10.9676
▁초상	-10.9677
▁안반	-10.9678
갑	-10.968
▁잇어낫	-10.9682
▁ᄀᆞ트	-10.9684
▁화리	-10.9685
▁ᄃᆞᆼ	-10.9692
급	-10.9692
합	-10.9693
▁먹엄주	-10.9694
▁흘	-10.9695
다만은	-10.9698
▁보릿	-10.9703
▁죽언	-10.9705
궁	-10.9708
허다	-10.9708
▁교	-10.9712
▁마찬가지라	-10.9713
냉	-10.9716
왓어	-10.9716
넷	-10.9717
였	-10.9717
솟	-10.9719
쳣	-10.9719
볼	-10.9722
벨	-10.9723
▁남군	-10.9724
▁고고리가	-10.9725
▁개라	-10.9729
▁쉐왕	-10.9731
▁마음	-10.9739
▁부찌는	-10.974
▁오래지	-10.9744
▁뎅겻주	-10.9745
줍서	-10.9751
▁없이	-10.9755
▁맞춰	-10.9757
▁숭년	-10.9759
▁홀트는	-10.976
▁잡앗	-10.9765
▁양쪽	-10.9766
불주게	-10.9775
▁내중	-10.9777
▁소까이	-10.9788
▁농사에	-10.9788
▁부터	-10.9789
선게	-10.9796
▁본향에	-10.9797
▁뒙니다	-10.9798
▁뿐	-10.9798
▁패밥	-10.9798
▁뻔	-10.98
▁산듸ᄊᆞᆯ	-10.9806
겟	-10.981
▁콩대	-10.9817
▁ᄍᆞ	-10.9817
▁어린아이	-10.9819
▁세여	-10.9822
▁동쪽	-10.9824
▁멍청	-10.9825
▁허벅에	-10.983
▁허는거	-10.9831
꾼	-10.9845
▁짐작	-10.9848
▁같으	-10.9848
▁노니까	-10.9852
▁농촌	-10.9852
투	-10.9854
엘	-10.9856
▁사기	-10.9857
▁갯ᄂᆞ물	-10.9857
▁흐흐	-10.9857
▁끝에	-10.9857
▁맞고	-10.9857
▁맞앙	-10.9857
▁며칠	-10.9857
▁숭늉	-10.9857
▁시커멍	-10.9857
▁종뉴	-10.9857
▁좋나	-10.9857
▁못빼기	-10.9857
▁성주풀이	-10.9857
▁금능	-10.9857
▁지둘뢍	-10.9857
▁바쁘	-10.9857
▁쌍둥이	-10.9858
▁ᄍᆞ른	-10.9858
▁가라ᄆᆞᆯ	-10.9858
▁표준어	-10.9858
▁ᄀᆞ득	-10.9858
▁주십서	-10.9858
▁부찐	-10.9859
▁ᄉᆞᆯ보리	-10.9859
▁것보리	-10.9859
▁뽕낭	-10.9859
▁모멀ᄊᆞᆯ	-10.986
▁뿌릴	-10.9861
▁지키	-10.9861
▁꿩엿	-10.9862
▁ᄇᆞᆯ령	-10.9863
▁두두리	-10.9864
▁달래	-10.9864
▁몰른	-10.9864
▁쉐뿔	-10.9864
▁펄	-10.9865
▁쎈	-10.9865
▁없엇어	-10.9865
▁쪼끔씩	-10.9867
▁끗동	-10.9867
▁두껑	-10.9868
▁마제	-10.9868
▁휘양	-10.9868
▁푹	-10.9869
▁줴영	-10.987
▁적졍	-10.9871
▁연락	-10.9873
▁조반	-10.9874
▁걸쳐	-10.9875
▁안허냐	-10.9875
▁고리	-10.9876
▁경헷구나	-10.9877
▁세워	-10.9877
▁막둥이	-10.9877
▁이만인	-10.988
앗당	-10.9883
▁코지	-10.9884
▁안에서	-10.9889
▁빌언	-10.989
▁해방뒈	-10.9892
▁셔낫저	-10.9892
▁ᄒᆞᆷ	-10.9894
르고	-10.9895
▁가켄	-10.9897
▁전쟁	-10.9897
▁전체	-10.9899
▁닮지	-10.99
▁아무거나	-10.9901
▁ᄀᆞᆯ으민	-10.9904
▁잇인디	-10.991
▁영헤영	-10.9914
▁이시	-10.9919
▁명주	-10.9922
▁엿날도	-10.9925
▁가르	-10.9926
▁메주는	-10.9926
▁ᄎᆞᆯ린	-10.9928
▁던져	-10.9929
▁눌고	-10.9936
▁알아지는	-10.9944
▁멍석에	-10.9946
▁떼어	-10.9947
▁허니깐	-10.9947
▁지붕에	-10.995
▁고고리를	-10.9953
▁ᄀᆞ만	-10.9963
▁차기	-10.9967
▁사람으로	-10.9968
▁봐근에	-10.9971
왓듸	-10.9988
▁없어져	-10.999
▁ᄀᆞᆯ아도	-10.9993
버	-10.9994
▁이러	-10.9996
▁안혀	-10.9997
▁섯	-10.9999
▁말젠	-11
쟁이	-11.0002
▁조밧	-11.0004
▁지은	-11.0011
▁노인	-11.0016
▁뎅	-11.0017
▁걸린	-11.0017
▁국이	-11.0017
▁생선국	-11.002
▁나주	-11.0021
촌	-11.003
▁표선	-11.0034
헷다	-11.0041
콩	-11.0042
▁바닥에	-11.0043
▁잇나	-11.0051
ᄒᆞ젠	-11.0055
▁떨어	-11.0057
▁받은	-11.0058
▁헤지민	-11.0058
느니	-11.0064
▁골라	-11.0071
클	-11.0071
▁아무도	-11.0073
농	-11.0073
밀	-11.0075
▁깨끗허게	-11.008
▁신랑이	-11.0084
▁ᄆᆞᆯ방	-11.0084
페	-11.0088
받	-11.0092
▁시절	-11.0094
▁나둬	-11.0094
▁아들이	-11.0096
▁마루에	-11.0102
▁놓니까	-11.0103
▁뒈가지고	-11.0109
쪽으로	-11.012
▁촌에	-11.0122
비어	-11.0128
▁보름에	-11.0138
▁물들	-11.0142
▁고팡은	-11.0148
프	-11.0153
▁잡식	-11.0158
▁망건	-11.0162
▁안허	-11.0162
▁눅	-11.0163
▁귀신이	-11.0171
▁굴묵은	-11.0172
가믄	-11.0184
▁관에	-11.0185
▁ᄀᆞᆯ갱이	-11.0187
▁작살	-11.019
▁하젠	-11.0196
릿	-11.0199
버리면	-11.0199
▁ᄆᆞ물ᄏᆞ루	-11.0201
▁횃불	-11.0201
같이	-11.0215
▁돌아가셔	-11.0217
▁수까락	-11.022
겻	-11.0221
▁흑질허	-11.0221
앗어	-11.0221
▁오징어	-11.0227
▁놋그릇	-11.0228
▁바글바글	-11.0228
▁붙어	-11.0228
▁서까래	-11.0228
▁않안	-11.0228
▁정월멩질	-11.0228
▁확확	-11.0228
▁과즐	-11.0228
▁상왜떡	-11.0228
▁부룽이	-11.0228
▁혼수품	-11.0228
▁쪼끌락	-11.0228
▁얼룩쉐	-11.0228
▁ᄆᆞ작단추	-11.0228
▁ᄆᆞ믈ᄏᆞ루	-11.0228
▁열무김치	-11.0228
▁시집살이	-11.0228
▁모르크라	-11.0228
▁다마치기	-11.0228
▁빤스	-11.0228
▁솔펜	-11.0228
▁가오리연	-11.0228
▁몰르쿠다	-11.0229
▁ᄆᆞ녀	-11.0229
▁친목	-11.0229
▁금년	-11.0229
▁ᄆᆞ물ᄊᆞᆯ	-11.0229
▁흰ᄊᆞᆯ	-11.023
▁동짐치	-11.023
▁꺼내	-11.023
▁오백	-11.0231
▁영장밧듸	-11.0231
▁ᄉᆞ십	-11.0231
▁당추	-11.0232
▁아념니까	-11.0232
▁키왕	-11.0232
▁잇돌	-11.0233
▁소똥	-11.0233
▁근방	-11.0233
▁기본	-11.0234
▁해삼	-11.0234
▁벳경	-11.0234
▁빤	-11.0235
▁물적삼	-11.0235
▁멕일	-11.0235
▁나신디	-11.0235
▁섬비질	-11.0236
▁어머님	-11.0236
▁뽕	-11.0237
▁공정	-11.0238
▁물김치	-11.0238
▁이백	-11.024
▁지금이야	-11.024
▁보끄	-11.024
▁탓	-11.0241
▁훅	-11.0241
▁ᄆᆞᆯ테	-11.0243
▁하천	-11.0246
▁쉐손	-11.0248
▁댕기	-11.0248
▁모냥	-11.0249
▁표선리	-11.025
▁헤줍서	-11.0251
▁대가리	-11.0255
▁자세	-11.0255
▁따비	-11.0259
▁자체	-11.0265
▁들으민	-11.0266
▁듣고	-11.0268
▁계절에	-11.0269
▁꺼멍	-11.0269
▁두드려근에	-11.0271
▁준비허는	-11.0271
ᄒᆞ지	-11.0271
▁데싸	-11.0273
▁먹어낫어	-11.0279
불엇주	-11.028
▁지금이랑	-11.0282
▁대반이	-11.0282
▁말제	-11.0282
▁질긴	-11.0282
▁컨	-11.0282
▁빨강	-11.0283
▁도치	-11.0284
▁질엉	-11.0285
▁저슬에	-11.0285
▁좋앗	-11.0286
▁올라오민	-11.0286
리곡	-11.0288
불엉	-11.029
▁아플	-11.0293
▁뒈야지	-11.0293
▁배치	-11.0295
▁간식	-11.0296
▁꼽아	-11.0299
▁쒀근에	-11.0302
▁죽어부난	-11.0305
▁맷돌에	-11.0308
▁대나무로	-11.0309
▁철에	-11.0311
▁해나	-11.0311
▁집안에서	-11.0313
▁어른들은	-11.0315
▁쌀로	-11.0317
▁잇게	-11.0317
▁자리도	-11.0319
허단	-11.032
▁거렌	-11.0323
▁그때부터	-11.0326
▁것덜은	-11.0327
▁옛날에사	-11.033
▁가불고	-11.033
▁주위에	-11.0334
▁난리	-11.0338
▁얼굴에	-11.0341
▁던	-11.0354
▁싱것	-11.0358
▁ᄀᆞᆯ아주	-11.0359
▁사발로	-11.036
▁그놈으	-11.0361
▁구신	-11.0362
▁오랏	-11.0362
▁헤영헌	-11.0363
▁베와	-11.0369
셍이	-11.0371
▁납작	-11.0374
▁아져가	-11.0376
▁오이	-11.0379
▁불치를	-11.038
▁하르버지가	-11.0383
▁허지만	-11.0387
▁헌건	-11.0387
▁준다	-11.0388
▁주면	-11.0389
▁상을	-11.0393
▁여청	-11.04
▁감치	-11.04
▁반지	-11.0412
▁그분	-11.0412
▁아침이	-11.0416
▁ᄑᆞᆯ지	-11.0418
▁몰르게	-11.0426
▁맛엇	-11.0426
▁간덴	-11.0436
▁헤주는	-11.0436
줌	-11.0436
▁둥글	-11.0437
▁쓸어	-11.0452
▁도망	-11.0467
접	-11.0468
▁허단에	-11.0469
콜	-11.047
쉬	-11.0472
또	-11.0473
푸	-11.0476
▁새에	-11.0481
▁헌데	-11.0483
▁꺼끄	-11.0483
헤기네	-11.0492
▁농협	-11.05
▁앚이	-11.0504
▁지관	-11.0505
▁우잣	-11.0508
▁안허난	-11.051
▁짐이	-11.0511
▁굽는	-11.0517
▁떡에	-11.0522
▁보리허고	-11.0528
▁내기	-11.0532
▁깝	-11.0535
▁송편은	-11.0538
▁죽지	-11.0541
▁쪽이	-11.0545
▁질기	-11.055
▁것이고	-11.055
오랑	-11.0553
▁뭐옌	-11.0555
듬	-11.0555
기만	-11.0561
▁이제야	-11.0576
▁헤먹어	-11.0578
▁건강	-11.0579
▁공동	-11.0591
득	-11.0591
▁개발시리	-11.0594
▁속이	-11.0594
웡	-11.0599
▁ᄄᆞᆷ	-11.0607
슨	-11.061
▁늙어	-11.061
▁십이월	-11.0612
▁가막창신	-11.0612
▁궹장	-11.0612
▁넙패	-11.0612
▁맥주맥	-11.0612
▁문간채	-11.0612
▁묻은	-11.0612
▁좋는	-11.0612
▁할무니	-11.0612
▁탁배기	-11.0612
▁우지시	-11.0612
▁김매기	-11.0612
▁ᄀᆞ랑조	-11.0612
▁돗도고리	-11.0612
▁큰구들	-11.0612
▁질뢋	-11.0612
▁작업	-11.0612
▁새끼손가락	-11.0613
▁도곰	-11.0613
▁상손가락	-11.0614
▁비늘	-11.0615
▁사혼	-11.0615
▁한참	-11.0615
부턴	-11.0615
▁대바지	-11.0616
▁무쳥	-11.0616
▁고구리	-11.0616
▁살아나	-11.0616
▁심그	-11.0617
▁재산	-11.0617
▁소독	-11.0617
▁푸린	-11.0618
▁북군	-11.0618
▁남매	-11.0618
▁집터	-11.0619
▁십년	-11.0619
▁부조	-11.0621
▁고조	-11.0622
▁멘네씨	-11.0623
▁생일	-11.0623
▁고름	-11.0624
▁아닌디	-11.0625
▁조금씩	-11.0626
▁원체	-11.0626
▁밥주리	-11.0626
로부터	-11.0626
▁ᄌᆞᆸ앙	-11.063
▁봐낫어	-11.063
▁ᄐᆞ난	-11.063
▁테역밧	-11.0631
▁보리체	-11.0631
▁파제	-11.0631
▁짠물	-11.0634
▁이묘	-11.0634
▁먹으니까	-11.0635
▁소소	-11.0636
▁ᄀᆞᆮ젠	-11.0637
나면	-11.0644
▁잇어나	-11.0645
▁웬쪽	-11.0646
▁추억이나	-11.0646
▁끌리민	-11.0648
▁글자	-11.0649
디강	-11.065
▁옛날부떠	-11.0651
▁그믓	-11.0651
▁작살로	-11.0654
▁보리밧디	-11.0655
▁약도	-11.0658
▁ᄃᆞᆯ안	-11.0658
▁보리나	-11.066
▁하르방네	-11.066
▁헤져	-11.0661
▁게역	-11.0663
▁고향	-11.0663
▁줘사	-11.0664
동안	-11.0664
▁죽음	-11.0667
▁들어완	-11.0669
▁이서도	-11.0669
▁엇이난에	-11.0674
▁아바지	-11.0674
말로	-11.0676
▁연결	-11.0679
▁어디에	-11.0679
▁갖당	-11.068
▁사과	-11.068
▁출	-11.068
▁할망당	-11.068
▁가져근에	-11.0681
▁ᄇᆞᆯ르곡	-11.0683
▁쉔	-11.0685
▁올리민	-11.069
백	-11.0693
낫수게	-11.0695
▁내와	-11.0701
▁가렌	-11.0707
▁걷어당	-11.071
▁반찬으로	-11.0711
▁삼은	-11.0714
▁지지는	-11.0715
이난에	-11.0717
▁올려근에	-11.0723
▁같은데	-11.0724
나실	-11.0728
▁놓기	-11.0732
▁가장	-11.0734
▁그지예	-11.0739
졌	-11.0741
▁잡으	-11.0744
▁까지	-11.0745
▁뒤에서	-11.0751
▁뭐허는	-11.0756
▁비레	-11.0757
▁남자덜은	-11.0765
▁보젠	-11.0766
▁고랑에	-11.0773
▁주주	-11.0774
장에	-11.0777
▁못사	-11.0783
▁뿌린	-11.0784
▁이서마씨	-11.0785
사켜	-11.0791
밧딘	-11.0792
잇어	-11.0797
▁어깨	-11.0798
덜이나	-11.0802
▁잇구나	-11.0806
뜩	-11.0812
남수과	-11.0817
▁멘들앗	-11.0823
끗	-11.0823
▁이제ᄀᆞ치	-11.0828
▁가졍가	-11.0829
▁타당	-11.0829
▁시냐	-11.0831
▁보곡	-11.0832
▁안헌다	-11.0834
▁이여	-11.0834
▁털어져	-11.084
▁든다	-11.0843
▁장만헤	-11.0844
▁ᄉᆞᆯ이	-11.0851
졈	-11.0851
▁부인	-11.0854
▁놓나	-11.0854
안에	-11.0857
벌	-11.0857
▁갈면	-11.0858
ᄄᆞᆯ	-11.0866
꿰	-11.0876
아버진	-11.0876
저고리	-11.0876
젱이	-11.0879
▁뒈사	-11.0882
▁부분은	-11.0882
▁먹어져	-11.0884
▁집덜	-11.0893
▁되는	-11.0895
▁썰어놓	-11.0898
▁ᄋᆢᇁ	-11.0906
랴	-11.0909
와신디	-11.0915
▁난덴	-11.0915
▁비만	-11.0917
▁데도	-11.0917
▁씨로	-11.0923
▁먹어야	-11.0932
▁못ᄒᆞ여	-11.0933
▁군산	-11.0934
녕	-11.0935
▁깅이는	-11.0942
플	-11.0942
▁거기다	-11.095
▁의	-11.0952
깐	-11.0964
▁쓰지	-11.0968
하멍	-11.0978
▁알앗	-11.0982
봣지예	-11.0983
▁고모	-11.0989
▁ᄈᆞ	-11.0998
▁헤헤	-11.1001
▁때ᄁᆞ지	-11.1006
▁콩국도	-11.1008
▁ᄉᆞᆨ쉐	-11.1012
▁ᄒᆞᆫ꺼번에	-11.1012
▁나까오리	-11.1012
▁뒷바농질	-11.1012
▁좋읍니다	-11.1012
▁한다리인다리	-11.1012
겔	-11.1012
▁종륜	-11.1012
▁말타기	-11.1012
▁모인좁썰	-11.1012
▁밋밋	-11.1012
▁무좀	-11.1012
▁네모나게	-11.1012
▁삼각형	-11.1012
▁수월봉	-11.1012
▁설귀떡	-11.1012
▁토멩지	-11.1012
▁호박잎국	-11.1013
▁고무줄놀이	-11.1013
▁참웨	-11.1013
▁창오지	-11.1013
▁ᄆᆞᆯ고랑	-11.1013
▁정술	-11.1013
▁꺼껑	-11.1013
▁쒜손	-11.1013
▁쓰무	-11.1013
▁실패	-11.1013
▁짐승	-11.1013
▁논다	-11.1014
▁주둥이	-11.1014
▁말지기	-11.1014
▁파김치	-11.1014
헤부난	-11.1015
▁작두	-11.1016
▁파짐치	-11.1016
▁엇엇수광	-11.1016
▁다듬앙	-11.1017
▁고대	-11.1017
▁십오일	-11.1017
▁굿떡	-11.1018
▁반달	-11.1019
▁고달	-11.1019
▁베껴	-11.1019
▁흑손	-11.1019
▁메타	-11.1019
▁헴신디	-11.102
▁즉시	-11.102
▁장판	-11.102
▁성산	-11.102
▁사둘	-11.1021
▁엇엇주	-11.1021
▁동경	-11.1022
엇주	-11.1023
줍센	-11.1023
▁박앙	-11.1023
▁맛엇어	-11.1023
▁콩입	-11.1024
▁화단	-11.1024
▁낙시	-11.1024
▁뿌렷	-11.1026
▁골ᄀᆞ루	-11.1028
▁춤	-11.1031
▁고정	-11.1032
▁아의덜	-11.1032
▁본향당	-11.1033
▁들어올	-11.1033
릅	-11.1033
▁당일	-11.1034
▁싯엉	-11.1035
▁특별헌	-11.1041
▁조팟디	-11.1042
▁보리골	-11.1044
▁앚아근에	-11.1044
▁둘레	-11.1047
▁강훼	-11.1055
▁내치	-11.1055
▁가래	-11.1056
겠다예	-11.106
뒈는	-11.1065
럽	-11.1065
▁틔와	-11.1065
▁기억나	-11.1066
▁겡은	-11.1068
불엇	-11.1073
▁아방네	-11.1075
▁죽으면은	-11.1075
▁헷다고	-11.1076
▁나가지	-11.1076
니다게	-11.1079
려서	-11.1083
▁지와	-11.1086
▁ᄁᆞ는	-11.1089
▁집이나	-11.1092
▁물회	-11.1094
▁적삼도	-11.1095
▁딸리	-11.1096
▁바닷가	-11.1098
▁젯	-11.11
▁뎅겨낫주	-11.1102
▁중간에사	-11.1102
▁놔두난	-11.1104
▁썩지	-11.111
▁어렵게	-11.1112
▁대서	-11.1116
▁이서서	-11.1117
▁엇덴	-11.1121
▁헤어	-11.1124
벳긴	-11.1126
▁입에	-11.1127
▁지치	-11.1133
▁종류도	-11.1134
▁ᄉᆞᆱ아야	-11.1134
▁타근에	-11.1136
▁요새엔	-11.1144
▁거옌	-11.1145
▁합니다	-11.1146
▁입언	-11.1149
▁모르겟	-11.1149
▁주사	-11.1157
▁사다가	-11.1163
▁검질로	-11.1167
▁ᄁᆞ	-11.1169
▁쩨	-11.1172
언에	-11.1174
기로	-11.1177
▁ᄉᆞᆱ아근엥	-11.1177
▁부제칩이	-11.118
▁적게	-11.1182
▁ᄀᆞ졍	-11.1183
▁ᄂᆞᆯ이	-11.1187
▁먹으라	-11.1188
▁찔르는	-11.1194
▁안해	-11.1195
봣주	-11.1197
▁받아가	-11.1201
▁태어나	-11.1205
▁바람이	-11.1205
용으로	-11.1206
▁잇기	-11.1212
▁터져	-11.1213
▁들이고	-11.1216
▁뀌	-11.1223
▁데와	-11.1226
▁저쪽에	-11.1227
▁초신은	-11.123
범벅	-11.1242
▁마는	-11.1242
▁들지	-11.1246
똥	-11.1249
거난	-11.1252
제로	-11.1256
▁촐눌	-11.1257
▁ᄌᆞ는	-11.1261
머	-11.1266
겁	-11.1267
키	-11.1268
▁도는	-11.1274
▁뒈연	-11.1274
람	-11.1275
▁불럿	-11.1277
ᄂᆞ물	-11.1278
헷저	-11.1284
이옌도	-11.1289
현	-11.1291
띠	-11.1292
숫	-11.1293
▁갈주	-11.1293
줜	-11.1293
▁다듬이	-11.1294
▁먹게	-11.1295
젤	-11.1295
궤기	-11.1295
▁이만	-11.1296
▁잇단	-11.1298
▁쉽	-11.13
▁초신도	-11.13
동산	-11.1302
▁ᄀᆞᇀ	-11.1302
립니다	-11.1306
▁형님	-11.131
▁못ᄒᆞᆫ	-11.1315
▁거긴	-11.1316
▁놀앗	-11.1317
▁널엇	-11.132
▁못허	-11.1321
▁숫이	-11.1326
▁내려오는	-11.1327
▁ᄉᆞᆱ아사	-11.133
▁ᄇᆞᆲ으	-11.1335
▁직허	-11.1335
으난	-11.1346
▁두고	-11.1346
▁벳긔	-11.1347
▁쟁	-11.1351
▁술이	-11.1352
▁안허게	-11.1357
▁어렝이	-11.136
합니다	-11.136
들에	-11.1365
▁잇어이	-11.1366
▁우인	-11.1368
▁제주시에	-11.137
▁꿩이	-11.1373
▁ᄌᆞᆷᄊᆞᆯ	-11.1385
▁시원	-11.1385
벵	-11.1387
▁위험	-11.1388
▁이시면	-11.1395
머닌	-11.1398
끠	-11.1398
▁콩죽도	-11.1403
▁상주	-11.1405
▁푸는체	-11.1406
▁사용헷	-11.141
▁요걸	-11.1419
껀	-11.142
▁밀리	-11.142
▁온돌	-11.1422
▁솔라니	-11.1427
▁ᄇᆞᆯ른	-11.1428
▁꿈	-11.1428
▁맞은	-11.1429
▁ᄀᆞ싸	-11.1429
▁갱연	-11.1429
▁곤친떡	-11.1429
▁낚으	-11.1429
▁맞촤	-11.1429
▁미시거	-11.1429
▁방칠락	-11.1429
▁씌와	-11.1429
▁얽어	-11.1429
▁웃기떡	-11.1429
▁익고	-11.1429
▁익엉	-11.1429
▁콥데사니	-11.1429
껜	-11.1429
▁ᄎᆞ마기	-11.1429
▁액막이	-11.1429
▁친촉	-11.1429
▁모실포	-11.1429
▁췌고	-11.1429
▁쒜비눔	-11.1429
▁암커	-11.1429
▁해수욕장	-11.1429
▁아가미젓	-11.1429
▁세벡이	-11.1429
▁열무짐치	-11.1429
▁딱지치기	-11.1429
▁잊어부런	-11.1429
▁ᄀᆞ리쳐	-11.1429
▁구제기	-11.143
▁부떵	-11.143
▁키워	-11.143
▁아궁이	-11.143
▁드물	-11.143
▁대산이	-11.143
▁코피	-11.1431
▁선피	-11.1431
▁식쉐	-11.1431
▁산태	-11.1432
▁보시	-11.1432
▁진풀	-11.1432
▁우알	-11.1432
ᄎᆞᄎᆞᄎᆞ	-11.1432
▁파싹	-11.1433
▁비닐	-11.1433
▁있었	-11.1433
▁우리나라	-11.1434
▁방치기	-11.1434
▁먹었	-11.1435
▁칠일	-11.1435
▁동창	-11.1436
▁폭낭	-11.1436
▁보초	-11.1437
▁길루	-11.1438
▁전후	-11.1438
▁웨방	-11.1439
▁쉐덜	-11.1439
▁미국	-11.144
▁술래	-11.1441
▁사다	-11.1441
▁서끈	-11.1441
▁쎄여	-11.1442
▁삼복	-11.1443
▁깔아	-11.1443
▁앚는	-11.1443
▁곰팡이	-11.1444
▁콩이나	-11.1444
▁몽클	-11.1444
▁뿌리면	-11.1447
▁총각	-11.1447
▁집으로	-11.1448
▁가입	-11.1449
▁콩밧에	-11.145
▁헤치	-11.1451
▁돗집	-11.1452
▁담강	-11.1454
▁페밥	-11.1455
▁역사	-11.1456
낫잖아예	-11.1456
▁가위	-11.146
▁접아	-11.146
▁선장	-11.1461
까진	-11.1461
▁갓수과	-11.1464
▁울어	-11.1467
▁셔낫주	-11.1467
▁짜고	-11.1469
▁허메	-11.1472
▁무끄곡	-11.1473
인가마씨	-11.1474
▁몰르주	-11.1476
▁찻	-11.1477
▁살앗수다	-11.1477
▁돌아갓	-11.1478
▁부끄	-11.1479
▁후에는	-11.1479
▁뒛어	-11.1481
▁성씨	-11.1493
▁심어근에	-11.1493
▁뒛수다	-11.1494
▁보네	-11.1503
▁뎅겨난	-11.1503
▁열ᄒᆞᆫ	-11.1503
▁고만	-11.1512
▁끌리는	-11.1512
▁ᄆᆞ디	-11.1513
완에	-11.1513
▁소금물에	-11.1513
▁미녕이	-11.1514
▁순경	-11.1515
▁웨가	-11.1518
▁메엉	-11.1521
▁에염에	-11.1524
▁이시믄	-11.1528
▁공장	-11.1534
▁열어	-11.1535
▁검질들이	-11.1535
▁부트	-11.1537
▁웨에는	-11.1539
왓저	-11.1541
▁패랭이	-11.1545
르륵	-11.1545
▁들어봐	-11.1546
▁않으면	-11.1546
▁지난	-11.1552
▁먹이는	-11.1558
▁ᄉᆞᆯ진	-11.1561
▁월라	-11.1561
어야	-11.1564
▁젓는	-11.1564
▁속으로	-11.1565
▁나두	-11.1568
▁영장이	-11.1569
▁없다	-11.157
▁다라	-11.1571
▁주젠	-11.1571
▁ᄎᆞᆯ레엔	-11.1572
▁굽에	-11.1573
▁냉	-11.1581
시니까	-11.1585
▁이서나	-11.1589
데로	-11.1591
▁끗는	-11.1591
▁방사	-11.1592
▁튀어	-11.1594
▁지내고	-11.1595
▁씰이	-11.1605
▁묶으	-11.1608
▁학	-11.1609
▁표선이	-11.1612
▁예전	-11.1614
다니고	-11.1614
▁옥	-11.1621
▁임	-11.1631
▁보리ᄊᆞᆯ로	-11.1632
▁찔	-11.1632
▁잇어낫주	-11.1639
▁지영	-11.164
▁솟에	-11.1641
▁열아	-11.1643
▁이번	-11.1643
헤낫저	-11.1653
▁미치	-11.1654
구정	-11.1654
버리고	-11.1658
▁담제	-11.1667
셧	-11.1668
▁빠당	-11.1675
ᄒᆞ여그네	-11.1681
북	-11.1684
▁마지막에	-11.1685
▁눌러	-11.1687
▁잇서	-11.1696
왐	-11.1697
이라부난	-11.1703
▁싶	-11.1706
▁거로구나	-11.1707
시쿠다	-11.1708
둔	-11.1712
벳	-11.1718
▁메우	-11.172
▁국물에	-11.172
▁지나가	-11.172
▁튼	-11.1721
▁듣	-11.1722
찬	-11.1723
났	-11.1725
▁거두	-11.1727
▁상군	-11.1727
탄	-11.1728
첨	-11.1729
▁사가	-11.1733
▁뒌장을	-11.1738
닐	-11.1743
▁놀려	-11.1757
▁구헤	-11.1777
▁혹시나	-11.1778
픈	-11.1782
▁헷다는	-11.1783
졍강	-11.1791
▁놤	-11.1793
▁적지	-11.1799
▁동그	-11.18
이지예	-11.1802
▁섬피	-11.1804
해야	-11.1809
불면	-11.1811
껏	-11.1812
▁전문	-11.1816
▁메도	-11.1823
▁신사라	-11.1829
것	-11.1829
▁예물	-11.1832
▁산듸짚	-11.1834
▁산뒤ᄊᆞᆯ	-11.1837
▁걸치	-11.1837
▁이딧	-11.1839
▁속담	-11.1841
▁좁ᄊᆞᆯ도	-11.1842
▁곰베	-11.1845
▁ᄀᆞ세	-11.1847
▁과정이	-11.1852
▁말이고	-11.1852
▁책임	-11.1853
▁남죽	-11.1854
았	-11.1855
랗	-11.1861
▁돌아다니	-11.1862
▁ᄉᆞ삼ᄉᆞ건	-11.1864
▁끊엉	-11.1864
▁끓일	-11.1864
▁끝난	-11.1864
▁넣곡	-11.1864
▁맞ᄀᆞ레	-11.1864
▁먼물깍	-11.1864
▁뭣에	-11.1864
▁붙깍신	-11.1864
▁삼메떡	-11.1864
▁숟가락	-11.1864
▁앞뒤	-11.1864
▁연날리기	-11.1864
▁좋수다	-11.1864
▁좋앙	-11.1864
▁홍짓대	-11.1864
뒨	-11.1864
▁대보름	-11.1864
▁우녕에	-11.1864
▁ᄀᆞ렛방석	-11.1864
▁바닷궤기	-11.1864
▁아싯날	-11.1864
▁평고대	-11.1864
▁홀어멍	-11.1864
▁엄청	-11.1864
▁구슬치기	-11.1864
▁웅매	-11.1864
▁감젓줄	-11.1864
▁벵벵	-11.1864
▁셋아덜	-11.1864
▁호충	-11.1864
▁축담	-11.1865
▁ᄃᆞᆫᄃᆞᆫ	-11.1865
▁ᄃᆞᆼ그	-11.1865
▁출산	-11.1865
▁ᄇᆞ딘	-11.1865
▁적이	-11.1865
▁자리젯	-11.1865
▁피보리	-11.1866
▁끄차	-11.1866
▁장쿡	-11.1866
▁도새기궤기	-11.1867
▁감티	-11.1867
▁보릿ᄀᆞ루	-11.1867
▁표시	-11.1867
▁톡톡톡톡	-11.1867
▁좀팍	-11.1868
▁어머니도	-11.1868
▁나쁘	-11.1868
▁ᄎᆞᆷ항	-11.1868
▁일어낭	-11.1868
▁모가지	-11.1869
▁밖으로	-11.1869
▁마다리	-11.187
▁먹엇수가	-11.1871
▁데끼	-11.1871
▁맨들아	-11.1871
▁혼수	-11.1871
▁대판	-11.1872
▁말입니다	-11.1873
▁반창	-11.1873
▁겡이죽	-11.1874
▁말똥	-11.1875
▁내려온	-11.1875
▁조농사	-11.1876
▁멘들안	-11.1877
▁전분	-11.1877
▁겨믄	-11.1878
▁아가미	-11.1879
▁하르바님	-11.1879
▁궈	-11.1879
▁하꼬	-11.1882
▁거려놩	-11.1882
▁조축	-11.1882
▁해녀덜	-11.1884
▁가나	-11.1884
▁바늘	-11.1886
▁옛날말로	-11.1886
▁내내	-11.1889
▁코시	-11.189
▁헷자	-11.1891
▁찍으	-11.1895
▁대학	-11.1897
▁고등에	-11.1897
▁저슬	-11.1903
▁다르	-11.1907
▁보단	-11.1908
▁지동	-11.1909
졋어	-11.191
▁긋어	-11.1913
▁삼대	-11.1914
▁소분	-11.1917
▁헤사주	-11.1917
▁ᄀᆞᆺ아	-11.192
▁발전	-11.192
▁무밥	-11.1922
▁요지금은	-11.1922
▁살마다	-11.1922
▁지슬은	-11.1927
▁ᄂᆞᆷ삐는	-11.1929
▁넹	-11.193
▁보리낭으로	-11.1931
▁부락에서	-11.1932
▁나도록	-11.1934
▁입하	-11.1935
▁시상	-11.1935
▁파랑	-11.1936
▁목장이	-11.1937
▁이십니까	-11.1937
▁특이	-11.1938
▁뎅기단	-11.1939
▁두들	-11.194
▁ᄀᆞᆯ멍	-11.1941
▁노멍	-11.1943
▁더레	-11.1949
▁가분	-11.195
▁꾸	-11.1951
▁소미	-11.1952
▁어딘	-11.1959
▁매영	-11.196
▁살아부난	-11.1962
▁일본말로	-11.1962
▁나옵니	-11.1967
▁맛잇게	-11.1972
▁ᄑᆞᆯ기	-11.1976
▁호박도	-11.1979
▁먹으면은	-11.198
▁하나가	-11.1983
▁날씨	-11.1983
▁짓언	-11.1986
▁것ᄀᆞ란	-11.1989
▁시대에	-11.1989
▁답	-11.1989
▁약헌	-11.1989
▁뿌리민	-11.1994
▁헤가난	-11.1994
▁추우	-11.1997
▁걷는	-11.2002
▁새는	-11.2003
▁못헤영	-11.2008
▁못허지	-11.2008
▁헤다근엥	-11.2008
▁ᄆᆞᆯ방에에	-11.201
▁굴은	-11.2013
르레	-11.2022
▁빌어사	-11.2025
▁시간에	-11.2027
허당	-11.2028
▁발이	-11.2031
▁불에	-11.2032
▁어떵허는	-11.2032
▁나오게	-11.2038
▁오당	-11.204
▁싸근에	-11.204
▁곱지	-11.2043
▁상복은	-11.2045
▁경칩	-11.2046
▁하믄	-11.205
▁보게	-11.2051
땐	-11.2053
라이	-11.2056
리멍	-11.2058
으니깐	-11.2064
▁못허영	-11.2068
▁미녕을	-11.207
▁그만큼	-11.2071
▁손이	-11.2072
▁씰로	-11.2083
▁뜯어	-11.2085
▁자고	-11.209
▁하는디	-11.2094
▁얘기허는	-11.2095
▁결혼식은	-11.2102
▁뭐시	-11.2105
▁기간	-11.2109
▁꺼풀	-11.2111
▁그러냐면	-11.2111
▁먹나	-11.2112
▁ᄉᆞ나이	-11.2114
▁결혼헨	-11.2117
업	-11.2124
▁무거	-11.2125
애기	-11.2131
▁키왓	-11.2137
▁가젱이	-11.2138
▁오니까	-11.2147
봣수다	-11.2151
뜰	-11.2155
태	-11.2156
▁들어근에	-11.2159
▁가지우다	-11.2159
▁산에서	-11.216
▁큰아덜이	-11.2161
독	-11.2164
▁산디는	-11.2165
쳔	-11.2166
▁ᄀᆞ리	-11.2167
▁들인	-11.2171
뒛	-11.2174
뻬	-11.2184
ᄀᆞ룰	-11.2184
▁촐밧	-11.2194
▁갔	-11.2199
▁돌아가는	-11.2201
▁장개	-11.2205
▁해낫주	-11.2205
▁기술자	-11.2219
에서도	-11.2228
▁것덜이	-11.223
▁베에	-11.2237
▁잘헤	-11.2237
▁복친	-11.2241
▁많주	-11.2241
▁향	-11.2241
▁뎅이	-11.2247
▁해녀들	-11.2252
▁부비	-11.2254
▁숫은	-11.2257
▁때영	-11.2258
▁듬북은	-11.2258
ᄒᆞ게시리	-11.226
▁시집이	-11.2261
▁특별허게	-11.2262
▁짓으	-11.2265
▁일본에	-11.2265
▁꿰여	-11.2266
▁허허허허	-11.2272
▁하다	-11.2275
거던	-11.229
빗	-11.2298
▁밀려	-11.2306
지름	-11.2308
▁이펜	-11.231
▁ᄎᆞᆫ	-11.2311
▁벌러지	-11.2318
▁넘은	-11.2318
▁넣고	-11.2318
▁리사무소	-11.2318
▁맞주	-11.2318
▁맡아	-11.2318
▁미숫가루	-11.2318
▁방패연	-11.2318
▁왜냐	-11.2318
▁익지	-11.2318
▁제초제	-11.2318
▁좋넨	-11.2318
▁짤르	-11.2318
▁하르부지	-11.2318
끤	-11.2318
녠	-11.2318
뻐	-11.2318
▁ᄃᆞᆯ벵이뿔	-11.2318
▁낭께기	-11.2318
▁벵원에	-11.2318
▁굴렁쉐	-11.2318
▁구녁	-11.2319
▁작작	-11.2319
▁풀마농	-11.2319
▁시아버지	-11.2319
▁도폭	-11.232
▁비싼	-11.232
▁아무거라도	-11.232
▁벨도로	-11.232
▁대여섯	-11.232
▁절편	-11.232
ᄎᆞ츰	-11.232
▁새철	-11.2321
▁콩찝	-11.2321
▁보선목	-11.2321
▁한가운디	-11.2321
▁장황	-11.2321
▁자식덜	-11.2322
▁무섭	-11.2322
▁콩ᄂᆞᄆᆞᆯ	-11.2322
▁녹두죽	-11.2322
▁어려우니까	-11.2322
▁관련	-11.2323
▁관계	-11.2323
▁건져내	-11.2324
▁시쳥	-11.2325
▁미역국	-11.2325
▁녹디죽	-11.2326
▁죽어도	-11.2326
▁ᄌᆞᆯ앙	-11.2327
▁골무	-11.2327
▁무쳐	-11.2327
▁힘들엇	-11.2327
▁젓으민	-11.2328
▁밧자리	-11.2328
▁쉐궤기	-11.2329
▁오른쪽	-11.2329
▁무시걸로	-11.2331
▁준덴	-11.2331
▁돌아가실	-11.2331
▁콩밧듸	-11.2331
▁봉가당	-11.2332
▁부튼	-11.2332
▁이불안	-11.2332
▁널문	-11.2332
▁살암저	-11.2333
▁웃대	-11.2334
▁만들안	-11.2334
▁십일	-11.2334
▁얼음	-11.2334
▁살앗저	-11.2335
▁아녀우과	-11.2335
▁질이	-11.2336
▁당신	-11.2336
▁이번엔	-11.2337
▁올라온	-11.2337
▁수까락으로	-11.2337
▁보선코	-11.2338
▁재미로	-11.2338
▁지경이	-11.2339
▁말이지	-11.2339
▁ᄄᆞ난	-11.234
▁시절엔	-11.234
▁처음부터	-11.234
▁헤야주	-11.2342
▁콩밧디	-11.2343
▁안허느냐	-11.2344
▁없는데	-11.2347
▁순메	-11.2348
▁볼목리에서	-11.2348
▁세계	-11.235
▁이젯	-11.235
▁헤납디	-11.235
▁고산에서	-11.2354
▁쳐야	-11.2355
▁불르멍	-11.2356
▁걸렁	-11.2357
▁허쿠다	-11.2357
▁남의	-11.2359
▁새벡이	-11.236
▁아녜	-11.236
▁일일이	-11.2363
▁누게네	-11.2364
▁박아근에	-11.2364
▁안허곡	-11.2364
▁헌관	-11.2365
▁아니주	-11.2366
나신가	-11.2368
▁쓰젠	-11.2372
▁옌날은	-11.2374
▁일뤠	-11.2374
▁엇엇수다	-11.2379
▁것꽈	-11.238
▁메여근에	-11.2385
▁시꺼다	-11.2389
▁얼어	-11.2395
▁밟기	-11.2395
▁견	-11.2397
▁좋아야	-11.24
▁묶으는	-11.24
▁먹어나고	-11.2402
▁띄와	-11.2405
▁찐	-11.2408
▁대죽	-11.241
▁칭	-11.2412
▁방어	-11.2412
▁줄도	-11.2414
▁말이꽈	-11.2415
▁헤먹고	-11.2415
낫수다게	-11.2417
▁거꺼	-11.2418
▁올라가민	-11.2418
짐친	-11.242
▁옷으로	-11.2421
라사	-11.2423
▁임제가	-11.2423
▁우에서	-11.2423
▁뒈도	-11.2424
▁집짓	-11.2424
▁아져	-11.2425
▁크주	-11.2426
▁두드리고	-11.2428
▁못해	-11.2432
▁ᄒᆞ레	-11.2432
▁남자들은	-11.2441
▁콩물	-11.2442
▁멕이민	-11.2442
▁메레	-11.2442
▁못하게	-11.2446
▁올리지	-11.2448
바지	-11.2448
마니	-11.2451
입주	-11.2454
▁ᄀᆞᆯ아마씨	-11.2461
▁테레비에	-11.2465
▁문중	-11.2469
▁오로	-11.2472
▁거리멍	-11.2478
▁색깔에	-11.2483
▁헤라	-11.2487
▁매고	-11.2488
수게게	-11.2489
▁헤보난	-11.2491
▁들에	-11.2491
▁두세	-11.2493
▁이천	-11.2493
의서	-11.2496
▁이용헤	-11.2496
승	-11.2496
▁오멍	-11.2497
▁가자	-11.2498
▁왓주게	-11.2499
▁보릿대	-11.2501
▁부억에	-11.2501
▁생각이	-11.2504
▁고팡이	-11.2505
▁통제	-11.2507
▁허다	-11.2509
▁올라오는	-11.2513
▁외에	-11.2517
▁돌아가시	-11.2518
끄곡	-11.252
▁헤네	-11.2521
▁요새에	-11.2521
쪽에	-11.2521
▁이겨	-11.2527
▁들어오고	-11.2527
▁자는	-11.253
아지	-11.2537
▁사지	-11.2538
▁흰죽은	-11.2549
▁쩌	-11.2551
▁갖	-11.2551
▁뒌다고	-11.2551
▁섭	-11.2554
▁아이들이	-11.2555
▁아시는	-11.2558
▁앉	-11.2558
▁젓이	-11.256
ᄀᆞ란	-11.2562
▁풍습이	-11.2569
▁뒛주	-11.2571
헹은에	-11.2575
▁있다	-11.2577
▁ᄊᆞᆯ밥	-11.2579
헴젠	-11.258
▁연이	-11.2589
▁내놓	-11.259
▁만들면	-11.2594
▁우시가	-11.2594
▁빠지지	-11.2596
▁이신가	-11.2597
▁검질덜	-11.2599
ᄆᆞ	-11.2599
터	-11.2602
▁ᄇᆞ름에	-11.261
급니까	-11.262
▁좁썰로	-11.2621
흘	-11.2621
빠	-11.2626
나면은	-11.2627
줫	-11.2629
▁알암	-11.2636
▁놧주	-11.2637
같은	-11.2638
겡이	-11.264
▁잇어사	-11.2641
애	-11.2643
▁만난	-11.2646
왓젠	-11.2646
증	-11.2649
뿔	-11.2651
답	-11.2651
▁근래	-11.2653
너	-11.2654
악	-11.2655
뜬	-11.2655
쥐	-11.2656
컬	-11.2656
▁필요허	-11.2656
털	-11.2657
▁이서난	-11.2659
▁콩낭	-11.266
▁들어도	-11.2661
▁약궤는	-11.2664
▁소랑	-11.2667
▁그런거	-11.2667
▁한집	-11.2682
▁죽어불	-11.2696
▁이불은	-11.2697
▁뎅겨나	-11.2697
▁등에	-11.2698
ᄎᆞ	-11.2699
▁가는데	-11.2702
시카	-11.2714
▁세대	-11.2715
▁북삭	-11.272
▁홍세함	-11.2721
▁치지	-11.2722
ᄒᆞ니까	-11.2723
말고	-11.2723
▁사곡	-11.2724
라면	-11.2735
▁물어볼	-11.2737
▁냉장고	-11.2737
▁ᄎᆞ낭	-11.2738
▁데며	-11.274
▁뜨는	-11.2742
▁주서	-11.2749
▁신곡	-11.275
▁궨당덜	-11.2753
▁여자들이	-11.2762
▁멧돌	-11.277
▁미녕씰	-11.2774
▁잇고이	-11.2777
▁시작헌	-11.2779
쿨	-11.278
▁들여놓	-11.2781
헷던	-11.2789
웟	-11.2792
▁언니	-11.2794
▁ᄆᆞᆯ탈락	-11.2794
▁ᄎᆞᆷᄀᆞ메기	-11.2794
▁납작납작	-11.2794
▁도절귀	-11.2794
▁씌왕	-11.2794
▁앞섭	-11.2794
▁양엣근	-11.2794
▁얼룩빼기	-11.2794
▁오분재기	-11.2794
▁익는	-11.2794
▁잣굿떡	-11.2794
▁쪽기차기	-11.2794
▁한치물훼	-11.2794
▁훍어	-11.2794
룸	-11.2794
▁굴무기	-11.2794
▁다마네기	-11.2794
▁장팡뒤	-11.2794
▁대사니	-11.2794
▁이발충	-11.2794
▁엄지손가락	-11.2794
▁벌거지	-11.2794
▁곤침떡	-11.2794
▁재밋	-11.2795
▁영등굿	-11.2795
▁시누이	-11.2795
▁갈중이	-11.2795
▁청총	-11.2795
▁버렝이	-11.2795
▁생겻	-11.2795
▁복쿨	-11.2795
▁펭이치기	-11.2795
▁시켯	-11.2796
▁똥겡이	-11.2796
▁밀ᄀᆞ르	-11.2796
▁신ᄂᆞᆯ	-11.2796
▁덕천	-11.2796
▁열댓	-11.2796
▁콩잎	-11.2796
▁깅이젓	-11.2796
▁입젱이	-11.2797
▁청소	-11.2797
▁앉앙	-11.2797
▁하셨	-11.2797
▁수커	-11.2798
▁눗	-11.2798
▁엇으니까	-11.2798
▁역할	-11.2798
▁허껑	-11.2798
근넹이	-11.2798
▁체암	-11.2799
▁버무리	-11.2799
▁난에	-11.2799
▁검은쉐	-11.2799
▁속돌	-11.2799
▁미쳐	-11.28
▁셍멩지	-11.28
▁드물어	-11.28
▁반반	-11.2801
▁ᄃᆞᆨ엿	-11.2801
▁먹으믄	-11.2801
▁양복	-11.2801
▁헷는지	-11.2802
▁거멍헌	-11.2802
▁유건	-11.2802
▁멩주실	-11.2803
▁뒝	-11.2805
▁개맛	-11.2807
▁모멀죽	-11.2807
▁마시리	-11.2807
우꽝	-11.2808
▁넹겨	-11.2808
▁바깟디	-11.2809
▁쌀문	-11.281
▁비교	-11.281
▁서끄는	-11.2811
▁쭐	-11.2811
▁헴주만은	-11.2812
▁애긴	-11.2812
▁옛날이사	-11.2813
▁좌	-11.2814
▁비창	-11.2815
▁받으민	-11.2816
▁머드레	-11.2817
▁골메	-11.2817
▁아으덜	-11.2818
▁백일	-11.2818
▁ᄈᆞᆺ아근에	-11.2819
▁곰베로	-11.282
▁꼴리	-11.282
▁방세	-11.2822
▁다슷	-11.2824
▁집어	-11.2825
▁ᄎᆞᆽ지	-11.2826
▁삼동	-11.2828
▁웃어른	-11.2829
▁ᄀᆞᆯ체로	-11.2829
▁엄지	-11.2829
▁ᄆᆞᆯ아근에	-11.2832
▁따라가지고	-11.2832
▁ᄆᆞ을에서	-11.2834
▁각자	-11.2835
▁활	-11.2836
ᄀᆞ치록	-11.2837
▁두모	-11.2838
▁잎	-11.2838
▁한창	-11.2838
▁ᄒᆞ주만은	-11.2842
▁헴수다	-11.2844
연에	-11.2847
▁죽어불고	-11.285
넹	-11.2853
▁보니깐	-11.2853
▁도저	-11.2854
▁가온	-11.2855
▁허더라고	-11.2856
▁노레	-11.2857
▁척	-11.2858
보는	-11.286
▁게젓	-11.286
▁오름에	-11.2862
▁벗어져	-11.2863
▁지낭	-11.2864
▁이듸서	-11.2866
▁나부난	-11.2868
▁접시	-11.2873
▁ᄌᆞ물아	-11.2873
▁정씨	-11.2875
▁당시엔	-11.2875
▁넬	-11.2879
▁돌ᄏᆞ레에	-11.2881
▁잇인가	-11.2885
▁허끄	-11.2885
▁도당	-11.2885
▁끌리고	-11.2889
▁아칙이	-11.289
▁온덴	-11.2893
▁바찌	-11.2894
▁해신디	-11.2896
▁헤여근엥	-11.2901
▁그창	-11.2902
▁무신걸	-11.2902
▁왓수과	-11.2903
▁장만허는	-11.2903
▁불령	-11.2907
▁못허주게	-11.2908
▁멀어	-11.2909
▁억	-11.291
▁없으면	-11.2913
▁멘들민	-11.2915
▁산덴	-11.2919
▁대반은	-11.2921
우니까	-11.2921
▁불치에	-11.2923
▁봐신디	-11.2923
▁갖고	-11.2931
▁클로	-11.2931
▁까끄는	-11.2933
▁먹단	-11.2935
▁못살	-11.2936
하니까	-11.2937
▁ᄂᆞ려오	-11.2937
납	-11.2939
▁가죽신은	-11.2941
▁일고	-11.2942
▁먹어낫주게	-11.2944
▁ᄌᆞ룩	-11.295
▁올라가고	-11.2953
▁ᄀᆞ레에서	-11.2953
▁허듯이	-11.2954
것ᄀᆞ란	-11.2955
▁수술	-11.2955
▁헴젠	-11.2961
놓는	-11.2961
▁병이	-11.2966
▁과정을	-11.297
▁이꺼	-11.2976
▁여장	-11.2976
▁월령에	-11.2977
▁떡으로	-11.2979
▁써난	-11.298
엇주만은	-11.298
집의	-11.2985
지믄	-11.2988
▁한동은	-11.2991
▁뿔이	-11.2997
▁뜻이	-11.2998
▁안방	-11.3003
▁남을	-11.3006
▁안네서	-11.3006
▁끈어져	-11.301
▁내여	-11.3014
▁채로	-11.3014
자가	-11.3015
▁ᄂᆞᆷ삐로	-11.3017
▁장의사	-11.302
▁어무니가	-11.302
씨가	-11.3021
▁가신디	-11.3022
▁가단	-11.3028
지쿠과	-11.3028
▁ᄉᆞ나이덜	-11.3029
드라고	-11.3032
디레	-11.3034
▁배우	-11.3046
▁생각헤	-11.3053
▁장만허	-11.3054
▁살던	-11.3067
▁해녀들이	-11.3068
▁풀어지	-11.3068
▁마당이	-11.3075
▁잡지	-11.3075
▁산디도	-11.3082
▁년을	-11.3083
먹는	-11.3086
▁떠나	-11.3091
▁고기는	-11.3091
▁두지	-11.3091
▁사위는	-11.3093
▁줘서	-11.3094
▁아니꽝	-11.31
▁해가	-11.3103
▁질르	-11.3104
헤낫수가	-11.3106
▁ᄀᆞᆯ려	-11.3108
▁가네	-11.3109
▁사름네	-11.311
▁길르	-11.3112
지만	-11.3119
다보니까	-11.3125
데가	-11.3125
▁기주	-11.3134
▁안허는	-11.3134
은엥	-11.3136
▁바지도	-11.3139
맛	-11.314
▁ᄃᆞᆯ레	-11.3145
출	-11.3149
▁칠월에	-11.3149
▁근무	-11.315
렛	-11.3153
품	-11.3155
폭	-11.3155
▁내년	-11.3156
꾹	-11.3159
열	-11.316
저근에	-11.3165
▁엿이	-11.3166
▁정미소	-11.3177
▁ᄐᆞ다	-11.3185
▁곳이	-11.3185
▁이짝에	-11.3186
▁나이가	-11.3187
▁보말국	-11.3188
▁방수	-11.3188
▁시작헤	-11.319
▁왐	-11.3192
▁그런데	-11.3192
▁제사에	-11.3194
▁ᄀᆞ을	-11.3198
▁올립	-11.32
거추룩	-11.3212
▁손지덜	-11.3213
▁풀풀	-11.3214
하다	-11.3215
▁제에	-11.3218
▁조그만이	-11.322
▁톱이	-11.3221
▁싶으	-11.3227
▁요지금	-11.3228
▁고망에	-11.323
셰	-11.3233
▁작년	-11.3235
▁개에	-11.3236
▁계절	-11.3243
▁불편	-11.3245
▁나무도	-11.3247
치긴	-11.3247
▁헤놓	-11.3248
분에	-11.325
▁결혼헤	-11.325
▁강알	-11.3252
▁뿐이주	-11.3253
ᄀᆞ를	-11.3255
▁야이	-11.3255
▁무뚱	-11.3256
려야	-11.3259
▁밀가루	-11.3265
▁차로	-11.3273
▁어디레	-11.3274
러진	-11.3281
이건	-11.3283
치가	-11.3283
▁ᄒᆞᆫ짝	-11.3288
즘	-11.3289
▁골로	-11.3289
맹	-11.3293
찜	-11.3294
깜	-11.3294
▁ᄎᆞᆷ깅이	-11.3294
▁ᄒᆞᆫ다리인다리	-11.3294
▁공깃돌	-11.3294
▁과수원	-11.3294
▁낚아	-11.3294
▁높아	-11.3294
▁두루마기	-11.3294
▁문친떡	-11.3294
▁물맞이	-11.3294
▁밧칠성	-11.3294
▁배냇머리	-11.3294
▁쉐스렁	-11.3294
▁씌우	-11.3294
▁어떵어떵	-11.3294
▁연애결혼	-11.3294
▁오분작	-11.3294
▁짇어	-11.3294
▁훌트	-11.3294
랍	-11.3294
▁누르떵	-11.3294
▁열아홉	-11.3294
▁드릇마농	-11.3294
▁굼벵이	-11.3294
▁축ᄇᆞ름	-11.3294
▁첫째	-11.3295
▁족두리	-11.3295
▁시라목	-11.3295
▁뻬떼기	-11.3295
▁이버지	-11.3295
▁중의적삼	-11.3295
▁솔썹	-11.3295
▁휴가	-11.3295
▁ᄆᆞᆫ지락	-11.3295
▁그루후제	-11.3295
▁홀탕	-11.3295
▁배추김치	-11.3295
▁메호미	-11.3295
▁해산물	-11.3296
▁장호미	-11.3296
▁호멩이	-11.3296
▁겁죽	-11.3296
▁닷새	-11.3296
▁금줄	-11.3296
▁화장실	-11.3296
▁접궤	-11.3297
▁수월	-11.3297
▁성담	-11.3297
▁문지방	-11.3297
▁널판	-11.3297
▁ᄀᆞ르쳐	-11.3297
▁깡통	-11.3297
▁동티	-11.3297
▁없었어	-11.3297
▁땔	-11.3298
▁식당	-11.3298
▁대설	-11.3298
▁테위	-11.3299
▁구젱이	-11.3299
▁감재	-11.3299
▁부쩌	-11.3299
▁데쓰	-11.3299
▁ᄈᆞᆯ리	-11.33
▁불교	-11.3301
▁꺼끄레	-11.3302
▁감절	-11.3302
▁밀감	-11.3303
▁신깍	-11.3303
▁보이	-11.3303
▁수입	-11.3305
▁띄우	-11.3305
▁ᄆᆞᆯ류와근에	-11.3306
▁스물다섯	-11.3306
▁이녁만씩	-11.3307
▁허젱	-11.3307
▁태와	-11.3307
▁비병	-11.3307
▁제줏말로	-11.3308
▁되면	-11.331
▁거름이	-11.3311
▁미신	-11.3312
▁모읜조	-11.3312
▁달려	-11.3313
▁종류들	-11.3314
▁뒛수과	-11.3315
▁달구	-11.3316
▁유명헌	-11.3316
▁햄	-11.3318
▁살앗수과	-11.3319
▁보리밧듸	-11.332
▁어떵헨	-11.3322
▁된장	-11.3323
▁받으	-11.3325
▁이유	-11.3325
▁기차	-11.3325
▁먹어낫수다	-11.3326
▁봄에는	-11.3326
▁밧데	-11.3327
▁탈곡기	-11.3328
▁몰앙	-11.3329
▁터럭	-11.3329
▁부쪄근에	-11.3329
밧긔	-11.3332
▁ᄉᆞ미	-11.3333
▁햄주	-11.3333
▁간식으로	-11.3333
▁입히	-11.3334
▁제국	-11.3335
▁ᄀᆞᆷ아	-11.3336
▁몰랏	-11.3337
▁허드라고	-11.3337
▁말복	-11.3338
▁이십니다	-11.3343
▁이서낫어	-11.3345
▁두드리곡	-11.3347
▁바드렝이	-11.3347
나니까	-11.3348
안틔	-11.3349
▁닥치	-11.335
▁앉아	-11.3351
▁조밥	-11.3352
나신가마씨	-11.3354
▁뒛다	-11.3355
▁그때사	-11.3355
▁모신	-11.3355
▁줫주	-11.3357
▁허여도	-11.336
▁헷주기	-11.336
▁운영	-11.336
▁떼도	-11.336
▁들엄	-11.3362
▁이삼	-11.3366
▁ᄌᆞᆯ게	-11.3368
긋	-11.3369
▁싱그민	-11.337
▁버렷	-11.337
▁부잣집	-11.3371
섯	-11.3371
▁헙서	-11.3373
▁뭐냐면	-11.3373
▁거라부난	-11.3375
▁끼와	-11.3375
▁헐리	-11.3377
▁학년	-11.3378
▁초헌	-11.3378
▁과짝	-11.3382
▁빙떡은	-11.3385
▁껍	-11.3386
▁기계에	-11.339
▁만들아근에	-11.3392
▁엇는디	-11.3395
▁도렌	-11.3397
▁디레	-11.3398
▁ᄉᆞᆱ을	-11.3398
▁나까	-11.3403
▁업고	-11.3404
치곡	-11.3404
▁사민	-11.3407
▁입이	-11.3408
▁과일은	-11.341
▁떨어지는	-11.3411
▁만들어야	-11.3414
붑니다	-11.3419
▁그치록	-11.3421
▁쪽에서	-11.3422
▁순간	-11.3422
▁개인이	-11.3424
드는	-11.3424
▁여기까지	-11.3428
▁헤시난	-11.3428
▁진진	-11.3428
▁년도에	-11.343
▁갯ᄀᆞᆺ이	-11.343
▁안뒈	-11.343
▁뒤로	-11.3433
▁각단은	-11.3436
남은	-11.3437
헤낫어	-11.3438
▁곤밥이	-11.3443
▁일본에서	-11.3444
▁거뿐	-11.3444
▁헴구나	-11.3444
▁부모가	-11.3449
▁영장날	-11.3458
▁아무리	-11.346
▁딱허게	-11.3462
▁이거라	-11.3464
▁길마	-11.3464
육	-11.3464
▁물팡은	-11.3466
▁절이	-11.3467
죽도	-11.3474
▁사용허는	-11.3475
▁가불민	-11.3478
▁무는	-11.3486
린다	-11.3487
▁신식	-11.3488
▁뛰어	-11.3496
셍	-11.3499
▁좁ᄊᆞᆯ이	-11.3504
▁반지기밥은	-11.3508
▁하르방덜은	-11.3508
르멍	-11.3512
▁헷단	-11.3514
▁딜	-11.3517
▁어떠	-11.3518
▁젠젠	-11.3518
불라	-11.3524
▁두건은	-11.3526
▁학생	-11.3534
▁할아버지가	-11.3535
▁아덜덜	-11.3537
▁무치	-11.3539
▁걸궁은	-11.354
▁바라	-11.3542
▁가로	-11.3543
▁집에는	-11.3543
▁뜨거	-11.355
하면은	-11.3551
▁골르	-11.3552
▁명칭이	-11.3555
▁얄	-11.356
▁편안	-11.3566
▁들어오면	-11.3569
▁잡아오	-11.3573
▁할망은	-11.3575
▁들어사	-11.3589
껑	-11.3589
▁밑에서	-11.359
상에	-11.359
▁쉬어	-11.3595
▁깔	-11.3601
커	-11.3602
▁그것에서	-11.3603
▁끗이	-11.3608
▁엎어	-11.3616
놩은에	-11.3625
▁돔박낭	-11.3626
▁가져가는	-11.3631
분다	-11.3637
▁확인	-11.3643
▁개날	-11.3644
▁유명	-11.3651
뿌	-11.3652
▁테레비	-11.3653
▁한걸	-11.3655
▁구루마에	-11.3656
▁ᄋᆢᇁ이	-11.3659
▁안허니까	-11.366
▁허는구나	-11.3661
▁들어봅디	-11.3665
▁한다	-11.3667
▁상여꾼	-11.367
▁감저가	-11.367
▁메역은	-11.3674
낸	-11.3675
깃	-11.3677
여그네	-11.368
▁수박은	-11.3681
ᄂᆞᄆᆞᆯ	-11.3681
찐	-11.3681
줭	-11.3686
뒐	-11.3687
새끼	-11.3689
추록	-11.369
▁멍에에	-11.3694
▁이서낫주	-11.3695
▁ᄀᆞᆯ라앚	-11.3699
▁학교에	-11.3708
월	-11.3708
헷는데	-11.3711
입니다	-11.3713
큼	-11.3713
▁꼭대기	-11.3714
▁들어보고	-11.372
▁잇지만	-11.3724
▁ᄋᆢ름	-11.3728
▁듬성듬성	-11.3729
락허게	-11.3738
▁손도	-11.374
치록	-11.3742
▁꿩은	-11.3742
▁물린	-11.3745
▁드르	-11.3746
▁상대방	-11.375
▁섯ᄃᆞᆯ	-11.3753
나믄	-11.3757
▁시꺼가	-11.3759
하민	-11.3762
▁구석	-11.3762
▁세상이	-11.3766
▁ᄌᆞ식	-11.3768
낫주마는	-11.377
▁ᄀᆞᆯ아근엥	-11.377
허렌	-11.3771
▁아정	-11.3771
▁아칙	-11.3775
▁멘네로	-11.3778
파리	-11.378
낀	-11.3781
▁맛잇주	-11.3782
▁가까	-11.3783
▁봐지	-11.3795
▁갓단	-11.3797
▁바레	-11.3797
큰게	-11.3798
료	-11.38
▁들엇주	-11.3801
▁영장밧디	-11.3802
▁이것에	-11.3808
▁ᄒᆞᆫ덴	-11.3813
▁녹듸	-11.3813
▁ᄑᆞ리	-11.3814
▁판포	-11.3814
▁모래찜	-11.3815
드라	-11.3815
▁짇을	-11.3818
▁찾아	-11.3819
▁도체비	-11.3819
▁ᄆᆞᆯ류와	-11.382
▁ᄃᆞᆰ	-11.3821
▁ᄎᆞ근ᄎᆞ근	-11.3821
▁굉장히	-11.3821
▁꺾어	-11.3821
▁묶엉	-11.3821
▁문설주	-11.3821
▁묻히	-11.3821
▁물꾸럭	-11.3821
▁뭉치	-11.3821
▁앞가지	-11.3821
▁젱베름	-11.3821
훨	-11.3821
▁마무리	-11.3821
▁사까린	-11.3821
▁순두부	-11.3821
▁아감젓	-11.3821
▁웬ᄉᆞᆺ	-11.3821
▁천상쿨	-11.3821
▁깃저고리	-11.3821
▁작대기	-11.3821
▁통보리밥	-11.3821
▁머드레콩	-11.3821
▁꽝보리	-11.3821
▁누에고치	-11.3821
▁활용	-11.3821
▁햇빗	-11.3821
▁당캐	-11.3821
▁결국	-11.3821
▁ᄃᆞᆯ매기	-11.3821
▁골미떡	-11.3821
▁고장떡	-11.3822
▁농서짓	-11.3822
▁전설	-11.3822
▁알동네	-11.3822
▁ᄎᆞᆽ으레	-11.3823
▁너덩	-11.3823
▁탕건골	-11.3823
▁동넷	-11.3823
▁상례	-11.3823
껍데기	-11.3823
▁제물떡	-11.3823
▁버쳐	-11.3823
▁납평날	-11.3823
▁이삼일	-11.3824
▁ᄑᆞᆺ겡이	-11.3824
▁인다리	-11.3824
▁중계	-11.3824
▁누워	-11.3824
▁내려간	-11.3825
▁질룰	-11.3825
▁전읜	-11.3825
▁고약	-11.3825
▁쑤물	-11.3825
▁키운	-11.3825
▁바눙질	-11.3825
▁멩근	-11.3825
▁오분제기	-11.3826
▁삼백	-11.3826
▁ᄀᆞ래	-11.3826
▁성창	-11.3827
▁탈곡	-11.3827
▁메역귀	-11.3827
▁누룩이	-11.3827
▁동귀	-11.3827
▁학질	-11.3828
▁ᄃᆞᆷ앙	-11.3829
▁ᄌᆞ른	-11.3829
▁거멍허	-11.3829
▁특별나게	-11.383
▁생강	-11.383
▁중문	-11.383
▁방목	-11.383
▁ᄑᆞᆯ앗	-11.3831
지카부덴	-11.3832
▁가빠	-11.3832
▁ᄌᆞᆸᄊᆞᆯ	-11.3833
▁기록	-11.3834
▁어려우난	-11.3834
▁족으민	-11.3834
▁계메	-11.3835
▁연줄	-11.3836
▁막내	-11.3836
보리	-11.3837
▁의사	-11.3837
으넹	-11.3838
▁입졍	-11.3839
▁윳	-11.3839
▁더워	-11.3839
▁굼	-11.384
▁겁덕	-11.384
부니깐	-11.3841
▁군인덜	-11.3843
▁그리	-11.3844
▁더끈	-11.3845
▁헨게만은	-11.3847
시에	-11.3847
▁궨	-11.3847
사름덜	-11.3847
▁얼마씩	-11.3849
▁보까근에	-11.3851
▁멘짝허게	-11.3853
▁벡여	-11.3854
▁양석으로	-11.3854
▁걸련	-11.3854
▁ᄋᆢ슷	-11.3855
▁수산	-11.3858
▁어프	-11.3858
▁보수	-11.386
▁미원	-11.3861
▁예쁘	-11.3862
▁못하	-11.3862
▁고씨	-11.3863
▁서광	-11.3863
▁헤낫잖아예	-11.3864
▁필요한	-11.3864
▁매일	-11.3865
▁인사	-11.3868
▁준비헤마씨	-11.3869
▁끄서	-11.3869
▁잣	-11.3869
▁ᄋᆢᄉᆞᆺ	-11.3869
▁곱닥ᄒᆞ게	-11.3874
▁실은	-11.3875
▁ᄒᆞ라	-11.3875
▁그려	-11.3875
▁헷수게	-11.3876
▁해나서	-11.3877
▁조그만헌	-11.388
▁헤신게	-11.388
▁사실	-11.3881
▁가시낭	-11.3883
▁가구	-11.3883
▁셩	-11.3884
▁보름날	-11.3886
▁살락	-11.3887
▁걸언	-11.389
▁다르게	-11.389
▁고대로	-11.3892
▁상장	-11.3892
▁마을제	-11.3892
▁엇거든	-11.3893
▁벌영	-11.3894
▁지장	-11.3894
▁잇어나서	-11.3895
▁겅헤근에	-11.3897
▁다습	-11.39
▁접이	-11.3903
에라도	-11.3907
▁소한	-11.3907
▁고향은	-11.3912
▁밥허고	-11.3913
▁ᄇᆞ르	-11.3914
▁ᄀᆞ룰로	-11.3915
▁죽어가	-11.3916
져서	-11.3918
▁왓수다	-11.3919
▁동짓ᄃᆞᆯ에	-11.392
▁ᄀᆞᆮ나	-11.3923
▁시월에	-11.3923
▁풀엉	-11.3926
▁세운	-11.3928
▁조문	-11.393
▁게나	-11.393
▁돌아가면은	-11.3931
▁도라	-11.3934
▁ᄒᆞᆸ주	-11.3936
▁찍는	-11.3937
▁대헤	-11.3938
▁사항	-11.3938
▁뿔우	-11.3939
▁그것덜	-11.394
▁익숙	-11.3942
▁빠근에	-11.3948
▁톱으로	-11.3949
▁ᄀᆞ라지	-11.395
▁비슷	-11.3951
▁뭐니	-11.3951
▁무당	-11.3952
▁그물어	-11.3953
▁비어근에	-11.3956
멩이	-11.3964
▁밀낭	-11.3965
▁오그려	-11.3968
▁ᄃᆞ렌	-11.3969
▁이십디다	-11.3969
켜예	-11.3972
▁지금까지	-11.3973
▁끌어	-11.3976
▁개미	-11.3976
▁조근	-11.3976
▁데려	-11.3982
▁통지에	-11.3987
▁맛좋게	-11.3999
▁경기	-11.3999
▁유월덜	-11.4001
▁할망들	-11.4001
▁ᄇᆞᆯ랏	-11.4002
▁것보다	-11.4003
▁쪽기	-11.4004
▁힘들고	-11.4005
져부런	-11.4006
▁고사리도	-11.4006
▁다림	-11.4007
▁불면	-11.4007
▁판매	-11.4008
▁뎅기주	-11.401
▁써근에	-11.4015
▁돌아가고	-11.4018
▁안아	-11.4021
▁보면서	-11.4021
▁나문	-11.4023
▁먹다	-11.4025
다근엥에	-11.4026
▁무끄지	-11.4028
▁경헌다	-11.4028
▁헤나신가	-11.403
▁버리고	-11.4033
▁성질	-11.4035
▁약으로	-11.4042
▁년이	-11.4042
▁ᄆᆞᆯ려야	-11.4049
▁훈장	-11.4052
마자	-11.4059
▁대장	-11.406
▁노인덜	-11.4062
▁못헐	-11.4064
▁깨어	-11.4066
▁어선	-11.4068
▁과정은	-11.4069
▁아이덜도	-11.4072
▁재미	-11.4072
▁ᄉᆞ삼사건에	-11.4072
▁해사	-11.408
불엄	-11.4081
▁듯	-11.4081
▁팔아	-11.4084
▁어시난	-11.4087
▁단단	-11.4094
▁방상이	-11.4095
▁노꼿	-11.4096
▁보내고	-11.41
▁나와야	-11.4101
▁김칩	-11.4102
▁ᄂᆞᆷ덜	-11.4107
▁오래가	-11.4108
으믄	-11.4109
▁문전은	-11.411
▁걸리면	-11.4111
▁웨지	-11.4113
졋다	-11.4114
▁지역에	-11.4118
▁많앗	-11.4119
▁삼월에	-11.413
▁멘들지	-11.4131
▁ᄀᆞᆯ앗주	-11.4131
▁거기에서	-11.4132
▁후라이판	-11.4133
▁날르	-11.4135
▁씬	-11.4135
▁집이라	-11.4136
▁만헌	-11.4136
▁치곡	-11.4136
▁가느냐	-11.4146
▁이녁만	-11.4146
▁낫젠	-11.415
▁애들	-11.4153
▁어두	-11.4156
▁웨에	-11.4159
▁이구	-11.416
▁옌날	-11.416
▁씰어	-11.4162
쪙	-11.4163
▁조씨	-11.4164
▁보이는	-11.4166
리면은	-11.417
설	-11.4173
▁물훼는	-11.4178
▁ᄇᆞ름이	-11.4182
▁박세기	-11.4182
혼	-11.4185
통에	-11.4187
짜	-11.4189
▁걸레	-11.4191
▁소중이	-11.4196
▁걸어가	-11.4198
닥닥	-11.4199
▁필요허고	-11.4204
퍼	-11.4206
김치	-11.4212
▁하서	-11.4213
▁반장	-11.4214
▁골을	-11.4214
▁꿰와	-11.4216
▁소라는	-11.4219
황	-11.4219
▁이성	-11.4223
걸름	-11.4224
억	-11.4224
혹	-11.4226
▁베고	-11.4228
삿	-11.4237
▁알아집	-11.424
▁뿌리가	-11.4241
▁알러	-11.4249
▁약은	-11.4252
졋저	-11.4255
▁춘	-11.426
▁검질들	-11.4263
버려	-11.4263
▁담아놔	-11.4267
ᄒᆞᆸ주게	-11.4268
▁ᄆᆞ물은	-11.4269
▁여끄	-11.427
▁옷덜	-11.427
▁뒈싸	-11.4271
▁개여	-11.4271
▁뽀	-11.4272
▁자구	-11.4274
뿌리	-11.4276
베설	-11.4282
▁여자삼춘	-11.4284
▁좁ᄊᆞᆯ만	-11.4286
▁헙주	-11.4292
왓주	-11.4292
▁부각	-11.4296
▁태교	-11.4297
▁이끄	-11.4299
▁안반에	-11.43
▁겁나	-11.43
▁변소	-11.4304
▁한쪽	-11.4307
▁못허곡	-11.4314
▁핫주	-11.4316
엄젠	-11.4319
▁메지	-11.432
▁마찬가지주	-11.4321
▁사투리	-11.4322
▁나라	-11.4328
▁우의로	-11.4328
▁설명	-11.4329
▁질어오	-11.4335
▁ᄃᆞ레	-11.4335
▁배고프	-11.4336
▁맞아야	-11.4336
흐	-11.434
▁기술이	-11.4341
덜안티	-11.4344
▁산디ᄊᆞᆯ	-11.4349
▁ᄊᆞᆷ	-11.4352
▁알기	-11.4355
▁골이	-11.436
▁산뒤찝	-11.4361
▁솔박	-11.4363
놀이	-11.437
믈	-11.4371
▁ᄋᆢᄃᆞᆸ	-11.4372
빡	-11.4373
▁솔래기	-11.4375
▁가오리	-11.4375
▁윤누리	-11.4376
▁ᄋᆢᆨ	-11.4376
▁ᄌᆞᆼ게호미	-11.4376
▁감귤	-11.4376
▁됩니다	-11.4376
▁방엣간에	-11.4376
▁볶앙	-11.4376
▁수두리보말	-11.4376
▁숨바꼭질	-11.4376
▁시아주방	-11.4376
▁연자방아	-11.4376
▁찹쌀	-11.4376
▁팔월멩질	-11.4376
쓱	-11.4376
▁망텡이	-11.4376
▁머귀낭	-11.4376
▁바꿔	-11.4376
▁오자미	-11.4376
▁조친떡	-11.4376
▁훍으	-11.4376
▁끄슬퀴	-11.4376
▁주젱기	-11.4376
▁세앙비	-11.4376
▁경노당	-11.4376
▁ᄎᆞᆫ흑	-11.4376
▁장텡이	-11.4376
▁요번에	-11.4376
▁족은구들	-11.4376
▁ᄄᆞᆺ	-11.4376
▁ᄂᆞ멀	-11.4376
▁추운	-11.4377
▁곰펭이	-11.4377
▁구녁치기	-11.4377
▁나타나	-11.4377
▁댕겨	-11.4377
▁검악	-11.4377
▁총모자	-11.4377
▁뽕입	-11.4377
▁웃동네	-11.4377
▁곰셍이	-11.4377
▁청각	-11.4377
▁벌이줄	-11.4378
▁추렴	-11.4378
▁ᄆᆞ믈ᄊᆞᆯ	-11.4378
▁구멍치기	-11.4378
▁유입	-11.4378
▁찻방	-11.4378
▁싱근	-11.4378
▁쉬는	-11.4379
▁무겁	-11.4379
▁조침떡	-11.4379
▁동그랑	-11.4379
▁구슬	-11.438
▁호끔	-11.438
▁갈적삼	-11.438
▁죄	-11.438
▁더펑	-11.438
▁마중	-11.4381
▁멩지옷	-11.4381
▁토산	-11.4381
▁ᄆᆞᆺ앙	-11.4381
▁먹술	-11.4381
▁보리찝	-11.4382
▁야가지	-11.4382
▁둘렁	-11.4382
▁관복	-11.4383
▁벌렁	-11.4383
▁약초	-11.4383
▁신양리	-11.4383
▁ᄋᆢᆯ앙	-11.4384
▁묵적	-11.4384
▁부추	-11.4385
▁갓닥	-11.4385
▁메틀	-11.4386
▁발목	-11.4386
▁중국	-11.4387
▁간단허게	-11.4387
▁끗나는	-11.4388
▁ᄇᆞᄅᆞᆷ	-11.4389
▁곰보	-11.4389
▁도구리	-11.4389
▁당근	-11.4389
▁절차	-11.4389
▁밤의	-11.439
▁널른	-11.4392
▁벗엉	-11.4392
▁사막	-11.4392
▁않으민	-11.4393
▁다ᄉᆞᆺ	-11.4393
▁지난번에	-11.4394
▁지명	-11.4394
길이	-11.4395
▁이녁만썩	-11.4396
▁삼달리	-11.4396
▁ᄀᆞ실	-11.4397
▁버짐	-11.4398
▁인정	-11.4399
▁셍이	-11.4399
▁얼만이	-11.4399
▁놓아근에	-11.4401
▁걸쉐	-11.4403
▁세역	-11.4403
▁만들엇어	-11.4403
▁쟁반	-11.4405
▁콕	-11.4405
▁조림	-11.4406
▁작박	-11.4406
▁신식으로	-11.4407
▁푸는체로	-11.4407
▁전복죽	-11.4408
▁세로	-11.4409
▁번쉐	-11.441
▁나왓어	-11.441
▁헷인디	-11.4412
▁먹엇던	-11.4412
▁종이에	-11.4412
▁헷지만은	-11.4413
▁조체	-11.4413
란게	-11.4413
▁모르주	-11.4415
▁다니멍	-11.4415
▁시국	-11.4417
▁뀌어	-11.4417
▁물때	-11.442
▁대학교	-11.4421
▁이껑	-11.4421
▁개량	-11.4421
▁다와	-11.4422
▁대체로	-11.4422
▁거피	-11.4422
▁엿날부터	-11.4423
▁어느제	-11.4425
▁나력	-11.4427
▁짤라근에	-11.4428
▁감아근에	-11.4428
▁어른들이	-11.4429
▁시신	-11.4429
▁실이	-11.4431
▁내놩	-11.4431
▁부찌민	-11.4431
▁봐낫수과	-11.4432
▁거리고	-11.4432
▁알아지쿠다	-11.4433
▁나왓주	-11.4435
▁ᄁᆞᆯ고	-11.4438
▁내왕	-11.4442
▁네려	-11.4444
▁압	-11.4445
허면서	-11.4449
▁엇어나서	-11.445
▁전복은	-11.4452
▁올히	-11.4454
▁지왕	-11.4459
▁층	-11.446
▁ᄃᆞᆯ아당	-11.4462
▁자연적	-11.4465
▁천장	-11.4468
▁거라게	-11.4472
▁빠멍	-11.4474
▁사름안티	-11.4475
전인	-11.4477
▁궤는	-11.4479
▁솜이	-11.4479
▁둥글락	-11.4485
▁안자리	-11.4486
▁기미	-11.4487
▁본다	-11.4491
▁궁글	-11.4492
▁소라도	-11.4494
▁저구리	-11.4497
▁내불고	-11.4497
▁것들도	-11.4498
▁아랜	-11.4506
▁살아가는	-11.451
▁이서수과	-11.4511
▁살이	-11.4516
▁뭣이라	-11.4516
▁그추록	-11.4518
▁질어다	-11.4524
▁불엇어	-11.4526
▁경계	-11.4526
▁우마	-11.4531
▁올려놓	-11.4537
▁구물	-11.4538
▁솟두껑	-11.4538
▁ᄉᆞ방	-11.4538
▁똑같은	-11.4539
▁오일장에	-11.454
▁넘어가는	-11.4543
▁남편	-11.455
▁다음날	-11.455
▁잇어근에	-11.4555
라근에	-11.4555
▁틀어	-11.4556
▁쓰민	-11.4557
▁준비하	-11.4558
▁농사지	-11.4558
방이	-11.4559
▁사다근엥	-11.4564
굽	-11.4565
하르방	-11.4568
▁이섯고	-11.4572
▁나갓	-11.4575
펜이	-11.4575
▁부정헌	-11.4576
▁뒘	-11.4585
▁당번	-11.4587
▁메역을	-11.4589
▁일리	-11.4591
▁형님이	-11.4594
▁번썩	-11.4598
▁구짝	-11.4607
▁버리니까	-11.4613
▁오리	-11.4616
▁뒈언	-11.4618
▁ᄆᆞ르	-11.4621
▁되고	-11.4622
▁버리	-11.4622
▁갈르	-11.4623
▁ᄇᆞᆯ린	-11.4623
▁아무디	-11.4627
▁같	-11.4629
르지	-11.4634
▁멘다	-11.464
▁한라산에	-11.4642
▁기어	-11.4647
▁ᄄᆞ리	-11.4651
▁곡석이	-11.4652
▁크난	-11.4652
▁봣수다	-11.4656
▁거기가	-11.4661
칩의	-11.4661
하면서	-11.4663
▁찌는	-11.4664
원이	-11.4669
▁개쯤	-11.4674
▁감태는	-11.4677
▁예순	-11.4689
▁남자덜이	-11.4691
▁유마	-11.4695
▁종손	-11.4701
▁쓰주	-11.4704
뒈고	-11.4712
▁오그	-11.4713
인게	-11.4715
▁여저덜	-11.4716
보니까	-11.4718
▁안네는	-11.472
▁끈을	-11.4724
▁때마씨	-11.4727
▁간질	-11.4727
▁갈아근엥	-11.4734
▁갔다	-11.4736
▁생각해	-11.4739
▁들어가서	-11.4742
▁멩질날	-11.4746
▁국가에	-11.4756
민양	-11.4759
곰	-11.476
▁데껴불	-11.4764
▁수제	-11.4766
▁빌려	-11.4767
▁저르	-11.477
▁갓주	-11.477
▁사나	-11.477
▁발라	-11.4771
▁기르	-11.4771
젯	-11.4772
▁엇어수다	-11.4775
▁펜이	-11.4775
웨	-11.4778
▁앚지는	-11.4781
▁상이	-11.4783
▁먹어봅디	-11.4785
▁삼는	-11.4798
▁냉국은	-11.4803
▁웬	-11.4803
▁준비헷	-11.4804
톱	-11.4807
▁뎅겸	-11.4818
텅	-11.4819
ᄀᆞ르	-11.4819
법	-11.4823
팍	-11.4823
곳	-11.4823
▁땐디	-11.4824
▁돌집	-11.4825
깔	-11.4825
필	-11.4827
검질	-11.4828
▁ᄒᆞ기	-11.4833
▁중게	-11.4835
▁간디	-11.4837
▁담아서	-11.4837
▁선비	-11.484
▁ᄆᆞ을에	-11.4841
▁제도	-11.4843
나부난	-11.4851
▁산간	-11.4852
헷덴	-11.4856
▁메누리도	-11.4856
▁거벳긔	-11.4859
▁ᄍᆞᆯ	-11.4859
▁때마다	-11.4862
▁마치	-11.4865
으라	-11.4867
▁거려놓	-11.4869
▁데서	-11.4872
▁간장이	-11.488
▁생수	-11.4883
어근엥	-11.489
갑니다	-11.4891
▁들어야	-11.4894
▁어디가	-11.4896
▁ᄆᆞᆯ류	-11.4899
▁경대	-11.4899
▁두부가	-11.4899
▁익으면	-11.4902
▁다데	-11.4905
▁ᄌᆞ미	-11.4908
▁나야	-11.4909
▁줍는	-11.4912
▁꿰어	-11.4912
지방	-11.4914
▁소곰물	-11.4923
▁저추룩	-11.4923
▁도깨	-11.493
▁짜근엥	-11.4932
▁허잖아	-11.4932
▁베미	-11.4934
룹	-11.4935
▁표준말	-11.4935
▁이딜	-11.4942
가라	-11.4944
▁메누	-11.4949
▁관광	-11.4949
롬	-11.4952
겠다	-11.4954
▁달롸	-11.4955
껭	-11.4957
▁개고	-11.4958
볏	-11.4958
▁여꺼	-11.4959
▁과정에	-11.4961
▁할마니	-11.4963
▁삼칸	-11.4963
▁낮이	-11.4964
▁노랑흐린조	-11.4964
▁높으	-11.4964
▁단지ᄂᆞᆷ삐	-11.4964
▁덮으	-11.4964
▁딸꾹질	-11.4964
▁똥깅이	-11.4964
▁맞을	-11.4964
▁부글부글	-11.4964
▁붙으	-11.4964
▁붙이	-11.4964
▁사모관대	-11.4964
▁섣달	-11.4964
▁아녓어	-11.4964
▁어떻든	-11.4964
▁여쭤볼게	-11.4964
▁옮겨	-11.4964
▁움직이	-11.4964
▁한꺼번에	-11.4964
텐	-11.4964
▁기신새	-11.4964
▁메옹이	-11.4964
▁생명주	-11.4964
▁제기차기	-11.4964
▁주머니	-11.4964
▁지집아이	-11.4964
▁한경면	-11.4964
▁주멩기	-11.4964
▁누르뜨	-11.4964
▁킬로	-11.4965
▁ᄄᆞᆷ떼기	-11.4965
▁짇을커	-11.4965
▁똑ᄀᆞ따	-11.4965
▁어깨마리	-11.4965
▁월라ᄆᆞᆯ	-11.4965
▁혼적삼	-11.4965
▁콩가루	-11.4965
▁형태	-11.4965
▁꺼끄먹	-11.4965
▁빼떼기	-11.4965
다시피	-11.4965
▁농약	-11.4965
▁지냇	-11.4965
▁공기놀이	-11.4965
▁백오십	-11.4965
▁다리웨	-11.4965
▁저번에	-11.4965
▁드셧	-11.4965
▁돗궤기	-11.4966
▁패마농짐치	-11.4966
▁는젱이	-11.4966
▁땅값	-11.4966
▁부쩡	-11.4966
▁두불콩	-11.4966
▁합쳐	-11.4966
▁욕심	-11.4966
▁도깨비	-11.4966
▁영등할망	-11.4966
▁ᄆᆞ물축	-11.4967
▁동갑	-11.4967
▁족은ᄄᆞᆯ	-11.4968
▁버스	-11.4968
▁ᄃᆞᆯ아멩	-11.4969
▁필요합니까	-11.4969
▁여잔	-11.4969
▁대답	-11.4969
▁닿	-11.4969
▁식귀	-11.4969
▁ᄂᆞᆷ으	-11.4969
▁복복	-11.4969
▁메밀묵	-11.4969
▁ᄆᆞᆯ망국	-11.497
▁소섬	-11.497
▁지픈	-11.497
▁콩ᄀᆞ르	-11.497
▁콩나물국	-11.4971
▁칠성제	-11.4971
▁단계	-11.4971
▁웨냐허면	-11.4972
▁조끗듸	-11.4972
▁생차	-11.4973
▁아파트	-11.4973
▁볼락	-11.4974
▁직원	-11.4974
▁시험	-11.4975
▁쌀밥	-11.4975
▁엇인가	-11.4975
▁지냥으로	-11.4976
▁하려면	-11.4976
▁원짜리	-11.4977
▁뎅겨낫어	-11.4978
▁먹켄	-11.4978
▁놧수과	-11.4978
▁널고	-11.4979
▁솔박으로	-11.498
▁감저밧듸	-11.4981
▁데미	-11.4983
▁묻어지	-11.4983
▁만두	-11.4986
▁재미잇	-11.4986
▁몽콜	-11.4986
▁노동	-11.4986
▁대창	-11.4987
▁죽어불어	-11.4987
▁죽으면	-11.4989
▁이만헌	-11.499
▁삼촌네	-11.499
▁일루	-11.499
▁ᄄᆞᄄᆞᆺ헌	-11.499
▁곱닥헌	-11.4991
▁ᄀᆞᆯ으멍	-11.4991
▁뭐뭐	-11.4992
▁꺽어	-11.4993
▁질멧가지	-11.4994
▁홀타근에	-11.4994
▁계산	-11.4995
▁삐엉	-11.4996
▁옛날식으로	-11.4997
▁ᄒᆞ문	-11.4997
▁소매	-11.4999
▁작물	-11.4999
▁꼬아근에	-11.5
▁웅	-11.5
▁웨냐	-11.5001
▁치매	-11.5003
▁ᄇᆞᆰ	-11.5004
▁그거뿐이주	-11.5005
▁건대	-11.5006
▁산메	-11.5006
▁시집간	-11.5006
▁찰리	-11.5007
▁햇수게	-11.5008
▁붸	-11.501
▁핀	-11.5011
▁대축	-11.5011
▁국에	-11.5012
▁다듬아	-11.5013
▁여기에는	-11.5014
길레	-11.5014
▁칠석날	-11.5014
엇을	-11.5014
▁어딜	-11.5017
▁첵	-11.5019
▁만들언	-11.5019
▁걷지	-11.5022
▁새나	-11.5023
▁돌아가면	-11.5024
▁낙	-11.5024
헷당	-11.5024
▁중진	-11.5028
▁듣기	-11.5028
▁더꺼근에	-11.5028
▁앚인	-11.5029
▁선물	-11.5029
▁ᄀᆞᆯ갱이로	-11.503
▁아덜네	-11.503
▁끝나는	-11.503
▁짚	-11.5031
▁안덕	-11.5032
▁고비	-11.5033
다섯	-11.5034
▁구석에	-11.5035
▁ᄐᆞᆮ아근에	-11.504
▁뚜	-11.5042
▁씹어	-11.5043
▁송아지	-11.5044
▁떵	-11.5045
▁얼먹	-11.5048
▁아프민	-11.5051
▁친정에서	-11.5052
▁사상	-11.5052
▁밧덜	-11.5052
▁헤준	-11.5057
▁홍세함에	-11.5057
▁도와주	-11.5062
▁많아마씨	-11.5065
▁고지에	-11.5068
▁나는디	-11.5068
라노니까	-11.5069
▁ᄃᆞᆼ가	-11.5069
▁시어멍이	-11.5071
▁눌이	-11.5072
시난에	-11.5072
진다고	-11.5075
▁아니난	-11.5075
▁집만	-11.5075
오지	-11.5076
ᄒᆞ여근에	-11.5078
▁다져	-11.5078
▁ᄀᆞᆯ아다근에	-11.5079
지마는	-11.5079
▁양단	-11.5079
▁광목도	-11.5081
▁정당	-11.5081
▁색이	-11.5082
▁끈으로	-11.5085
▁안터레	-11.5088
▁해가민	-11.509
▁갈앗당	-11.509
▁ᄒᆞᆫ쪽에	-11.5091
▁스	-11.5094
▁사이가	-11.5094
▁헤당은에	-11.5097
▁뒤치	-11.5099
▁삐민	-11.5104
▁텅	-11.5104
▁보말국도	-11.5106
▁거둬	-11.5109
▁먹지예	-11.5117
▁ᄃᆞᆯ아가	-11.5118
▁하인	-11.5128
▁허여마씨	-11.5129
읍디가	-11.513
▁쏘으	-11.5131
신게마씨	-11.5133
허는데	-11.5134
▁ᄀᆞᆯ아신디	-11.5134
▁셔사	-11.5135
▁셧	-11.5137
▁악	-11.5139
▁아졍가	-11.5142
▁뿐이	-11.5143
▁누비	-11.5146
▁커근에	-11.5149
▁말허면	-11.515
▁가가민	-11.5158
▁엇어낫수다	-11.5159
▁콩씨는	-11.516
▁엿날에사	-11.5164
▁무시거꽈	-11.5165
▁끓이는	-11.5168
▁이제까지	-11.5171
▁꺼져	-11.5173
헌다고	-11.5174
▁놔놩	-11.5174
▁함덕에	-11.5178
왓는데	-11.5178
▁끓이면	-11.518
▁건조	-11.5181
▁ᄄᆞᆺᄄᆞᆺ	-11.5184
네까	-11.5185
▁소에	-11.5187
▁단이	-11.5192
▁디로	-11.5193
▁멍석도	-11.5195
▁창지	-11.5197
▁메당	-11.5201
▁정월덜	-11.5205
▁삼고	-11.5206
▁먹는데	-11.521
▁잡으면	-11.521
▁용으로	-11.5211
▁돌아가시면	-11.5211
▁입지는	-11.5212
▁경주	-11.5213
▁돔베	-11.5214
▁밀로	-11.5215
▁중이	-11.5226
▁바구니	-11.523
▁싸라	-11.5231
▁ᄃᆞᆷ는	-11.5232
▁바농질허	-11.5233
▁곱닥	-11.5236
▁해가지고	-11.5238
▁앗아가	-11.524
▁해봅디	-11.5241
▁피난	-11.5244
▁소금이	-11.5251
째	-11.5256
▁개영	-11.526
▁예펜	-11.5263
▁헤지는	-11.5264
▁길어	-11.527
어시	-11.527
▁꼬고	-11.5275
불카부덴	-11.5276
▁발아	-11.5276
▁초파일에	-11.5277
엥에	-11.5279
▁장으로	-11.5281
▁비멍	-11.5285
▁ᄉᆞᆷ는	-11.5287
앗주게	-11.529
지느냐	-11.5292
허거든	-11.5292
▁안허연	-11.5294
▁우리집이	-11.5296
▁디라	-11.5298
▁초가집이	-11.5298
▁칠성은	-11.53
뒤	-11.53
▁어디다	-11.5301
허라	-11.5303
▁식량	-11.5305
▁놓는다	-11.5306
▁만들어근엥	-11.5308
▁십이	-11.5311
▁토목이	-11.5312
▁놔둡	-11.5321
불엇어	-11.5325
ᄀᆞ룬	-11.5326
▁분은	-11.5329
▁바닷물	-11.5329
▁뒈어서	-11.5329
▁우시는	-11.5331
▁때랑	-11.5332
▁멜첫은	-11.5332
후젠	-11.5333
▁이자	-11.5333
▁데우	-11.5334
▁가지주	-11.5343
▁없어서	-11.5344
되	-11.5345
▁탕건은	-11.5346
헤낫주	-11.5347
이랏	-11.535
대기	-11.5352
▁방에서	-11.5353
▁장도	-11.5359
▁육지로	-11.5363
▁강칩이	-11.537
▁삭아	-11.5372
▁엇어나수	-11.5372
▁기곗방에	-11.5374
내는	-11.5382
▁요게	-11.5382
▁뒈질	-11.5387
▁구신이	-11.5387
불주	-11.5391
▁체가	-11.5392
랭이	-11.5392
오천	-11.5395
▁않으	-11.5395
▁인심	-11.5397
▁헤먹엇	-11.5398
▁북삭허	-11.54
▁입춘이	-11.5404
륵	-11.5414
▁때문	-11.5417
충	-11.5417
▁틀리지	-11.5419
찰	-11.5419
잘	-11.5423
굿	-11.5429
구덕	-11.5433
교	-11.5437
▁식이라	-11.5438
섬	-11.5442
▁분들	-11.5445
멕	-11.545
철	-11.5452
ᄃᆞ렌	-11.5452
겅	-11.5453
멧	-11.5454
▁갈아놩	-11.5456
▁남는	-11.5457
▁방서	-11.5472
▁구리	-11.5474
노면은	-11.5476
▁나누	-11.5477
▁뒈엇	-11.5478
▁그니깐	-11.5478
▁타기	-11.5479
주면	-11.5482
삼앙	-11.5483
▁줄어	-11.5487
▁이질	-11.5488
▁돌화리	-11.5488
▁나끄	-11.5489
엇지	-11.5489
▁ᄇᆞ려	-11.5493
ᄒᆞ주	-11.5494
▁일당	-11.5503
▁겡헹	-11.5505
▁파지	-11.5506
왓주게	-11.5509
▁정월달	-11.5511
▁나가게	-11.5512
▁어리	-11.5518
벢	-11.5519
▁요쪽	-11.5521
▁흰밥	-11.5528
▁바르는	-11.5528
▁ᄃᆞᆯ려	-11.5529
▁자리젓도	-11.5531
▁나이에	-11.5534
전이	-11.5538
▁아니우꽈게	-11.554
▁낫어	-11.5545
▁가보	-11.5548
▁춥	-11.555
허영은에	-11.5557
▁ᄄᆞᄄᆞᆺ	-11.5557
렵	-11.556
▁당이	-11.5561
▁힘들지	-11.5561
▁덩드렁마께	-11.5562
십서	-11.5564
▁엿날에도	-11.5568
▁육짓	-11.5571
끕	-11.5571
▁교육	-11.5572
둡	-11.5575
▁산디찍	-11.5577
▁삐엇	-11.5581
▁나이는	-11.5581
부시	-11.5584
켱	-11.5585
ᄎᆞ베기	-11.5585
▁넘패	-11.5587
▁넙페	-11.5588
븐	-11.5588
▁뒈겟다	-11.5588
마리	-11.5589
첸	-11.5589
▁맥주	-11.5589
▁ᄆᆞᆼ셍이	-11.5589
▁ᄒᆞᄁᆞᆷ	-11.5589
▁궂은	-11.5589
▁그렇고	-11.5589
▁금기사항	-11.5589
▁끙게	-11.5589
▁녹산듸	-11.5589
▁데쓸락	-11.5589
▁뭣산디	-11.5589
▁벋어	-11.5589
▁사금파리	-11.5589
▁삶앙	-11.5589
▁아녓주	-11.5589
▁않을	-11.5589
▁읏어	-11.5589
▁일제강점기	-11.5589
▁짧은	-11.5589
▁콥대산이	-11.5589
딀	-11.5589
붐	-11.5589
▁ᄏᆞᆨ	-11.5589
▁동치미	-11.5589
▁송에기떡	-11.5589
▁자전거	-11.5589
▁누르떠	-11.5589
▁문우장	-11.5589
▁댕우지	-11.559
▁밧거레	-11.559
▁헝겁	-11.559
ᄒᆞ으꽈	-11.559
▁복잡허	-11.559
▁종지대축	-11.559
▁뎅견	-11.559
▁ᄎᆞ마귀	-11.559
▁작굿떡	-11.559
▁매일반	-11.559
▁두두려	-11.559
▁ᄍᆞ끔	-11.559
▁양철	-11.559
▁ᄁᆞ딱	-11.559
▁교회	-11.559
▁벳칼	-11.559
▁바쪄	-11.559
▁어려워	-11.559
▁사농동산	-11.559
▁우믜	-11.559
▁독독	-11.5591
▁돗지름	-11.5591
▁대략	-11.5591
▁똑ᄀᆞ뜬	-11.5591
▁팔촌	-11.5591
▁족은눈	-11.5591
▁줄방석	-11.5591
▁셍복	-11.5591
▁구녕	-11.5592
▁젯국	-11.5592
▁좀호미	-11.5592
▁제주도말로	-11.5592
▁참나무	-11.5592
▁말해줍서	-11.5592
▁빵떡	-11.5593
▁흑굿	-11.5593
▁나록ᄊᆞᆯ	-11.5593
▁야학	-11.5593
▁줏엉	-11.5594
▁애기구덕	-11.5594
▁정술내	-11.5594
▁불곽	-11.5594
▁널착	-11.5594
▁땀	-11.5594
▁곡우	-11.5594
▁냇	-11.5595
▁정반	-11.5596
▁친제	-11.5596
끗듸	-11.5596
▁있으니까	-11.5596
▁뎅긴	-11.5597
▁커피	-11.5597
▁하셧	-11.5597
▁ᄉᆞᆯᄉᆞᆯ	-11.5597
▁부병	-11.5598
▁끼왕	-11.5598
▁보리밭	-11.5598
발로	-11.5598
▁불껑	-11.5599
▁시님	-11.5601
▁산모	-11.5601
▁머리창	-11.5601
▁소리허멍	-11.5601
▁게웃	-11.5602
▁제반	-11.5603
▁젭	-11.5603
▁ᄄᆞ랑	-11.5603
▁가시새	-11.5603
▁김장	-11.5604
▁ᄁᆞ지	-11.5604
▁베렝이	-11.5604
▁메느리	-11.5604
▁맨날	-11.5605
▁살아가난	-11.5605
▁열심	-11.5606
▁급	-11.5606
▁그전엔	-11.5607
▁부르기	-11.5608
▁어디로	-11.5608
▁허던데	-11.5608
▁진줄	-11.5608
▁맨발에	-11.5609
▁보미	-11.5609
▁베꼇디	-11.5611
▁일이라	-11.5611
▁벰	-11.5612
▁입구	-11.5613
▁안헴서	-11.5614
▁놀고	-11.5615
▁괴기	-11.5615
▁만세	-11.5616
▁지으멍	-11.5616
▁모른다	-11.5617
▁정동	-11.5617
▁ᄁᆞᆯ아근에	-11.5619
▁동쪽으로	-11.5619
▁둥그려	-11.562
▁헤줫	-11.562
▁죽엇어	-11.562
▁먹엇저	-11.5621
▁땡	-11.5621
▁알암신게	-11.5622
▁뒛저	-11.5623
▁모제	-11.5623
▁일허레	-11.5623
▁이번에는	-11.5623
▁재미나	-11.5624
▁불부	-11.5625
▁농사지어	-11.5626
▁놔둿다가	-11.5628
▁풀로	-11.5628
▁풀은	-11.5628
▁동글동글	-11.563
▁가져와	-11.5634
▁찝으로	-11.5635
▁목에	-11.5638
▁보신	-11.5639
▁고장	-11.564
▁물색	-11.564
▁영혼	-11.5644
▁들일	-11.5644
▁먹주만은	-11.5647
▁보리ᄊᆞᆯ이	-11.5649
▁안뒈여	-11.5649
▁무시건	-11.565
▁신으민	-11.5651
▁갈앗주	-11.5652
▁자식이	-11.5653
▁구장	-11.5655
▁그제	-11.5656
▁들여근에	-11.5658
▁돌아오민	-11.566
▁살아신디	-11.5662
▁헤낫는데	-11.5662
▁밀어근에	-11.5663
▁해마다	-11.5664
▁짓어근에	-11.5665
▁지전	-11.5667
▁넹국	-11.5668
▁유월달	-11.5668
▁작년에	-11.5669
▁그르에	-11.567
▁그레서	-11.567
▁소끄	-11.5673
▁가까이	-11.5676
▁케와	-11.5682
앗다	-11.5683
▁떨어지지	-11.5684
너풀	-11.5687
▁설레	-11.5689
▁상자	-11.5689
냐고	-11.5689
▁ᄇᆞᆯ라야	-11.569
▁ᄀᆞᆯ읍서	-11.5695
▁ᄀᆞᆯ아야	-11.5697
▁거름체	-11.5701
▁나가면	-11.5701
▁좋은데	-11.5703
▁자빠지	-11.5704
▁뎅기지	-11.5705
▁끓이고	-11.5709
▁어귀	-11.5711
기멍	-11.5711
▁둥그리	-11.5716
▁눈으로	-11.5717
▁허켄	-11.572
장시	-11.5721
▁영빈	-11.5723
▁삥	-11.5724
▁눌르	-11.5724
▁어울려	-11.5726
▁궤영	-11.5729
▁내비	-11.573
낭으로	-11.573
▁ᄌᆞᆷ녀들	-11.573
▁흑집	-11.5734
▁시집오	-11.5737
▁부자칩	-11.574
▁옌날에	-11.574
▁아프지	-11.5742
오렌	-11.5751
▁삼분	-11.5754
▁허주마씨	-11.5756
▁만드	-11.5757
▁페우	-11.5759
▁셍각이	-11.5759
▁잠대로	-11.5763
▁밥헤영	-11.5768
봐도	-11.5773
▁ᄒᆞ렌	-11.5775
▁이서수다	-11.5776
우지	-11.5776
▁토롱은	-11.5777
▁하르방들	-11.578
▁시장에	-11.5787
▁한다고	-11.5794
해난	-11.5796
▁뒈거든	-11.5798
▁소만	-11.5798
▁오그라지	-11.5801
비가	-11.5808
▁기곗방	-11.581
▁오는디	-11.5817
▁왓저	-11.5823
▁사람네	-11.5823
▁이십주	-11.5824
치메	-11.5828
▁열이	-11.5829
▁헤불어	-11.5829
▁물떡은	-11.5834
▁메멍	-11.5835
▁엇지예	-11.5835
▁알안	-11.5839
▁역은	-11.584
▁들어오게	-11.5841
▁돌레	-11.5848
▁여라이	-11.5854
▁조상들	-11.5855
▁삼을	-11.5855
시면은	-11.5859
졋주	-11.5859
▁살랑	-11.586
▁겅헨	-11.5861
▁얘기헌	-11.5863
▁이렁	-11.5865
▁두껍게	-11.5865
▁어디사	-11.5865
▁갈아도	-11.5869
▁알아서	-11.587
른덴	-11.5871
▁매여	-11.5872
▁뒈실	-11.5874
▁허여이	-11.5874
▁안허믄	-11.588
▁추억은	-11.5881
집이서	-11.5884
▁ᄒᆞ민은	-11.5885
▁기술	-11.5887
▁근처에	-11.5887
▁어드레	-11.5888
▁그러냐	-11.5891
▁감곡	-11.5892
▁널로	-11.5893
▁가젱	-11.5897
▁경로당	-11.5897
▁차도	-11.5905
끄레	-11.5905
▁수확헤	-11.5907
▁ᄂᆞ물도	-11.591
▁헤뒁	-11.5912
▁담지	-11.5914
▁일부	-11.5915
▁낭푼이	-11.5916
▁때리	-11.5919
읍디다	-11.5924
▁봐낫주	-11.5933
아덜	-11.5935
떼	-11.5936
가면서	-11.5939
▁해영	-11.5943
▁뿌리기	-11.5948
그랑	-11.5948
엇덴	-11.595
▁놓는디	-11.5954
▁불턱	-11.5955
▁말하	-11.5968
▁갓지	-11.597
버린	-11.5971
▁ᄏᆞ찡	-11.5972
▁셔서	-11.5976
▁따먹	-11.5979
▁나와서	-11.5992
▁낫다	-11.5992
겟네	-11.5993
▁당은	-11.6006
입디다	-11.6007
▁시면은	-11.6008
▁만히	-11.6016
▁ᄆᆞᆯ리우	-11.602
▁사먹	-11.6024
헤낫주게	-11.6025
▁불치로	-11.6032
봣자	-11.6033
▁콩죽에	-11.6035
▁못헨	-11.6037
팔	-11.604
물에	-11.6043
ᄒᆞᆸ니다	-11.6054
커리	-11.6059
▁내곡	-11.6061
▁ᄆᆞᆷ은	-11.6066
▁염	-11.6069
헤근엥에	-11.6069
▁오일장	-11.607
▁사와	-11.6073
▁창고에	-11.6079
▁목적	-11.608
▁도고리에	-11.6081
시키는	-11.6086
짚	-11.6092
▁먼문간	-11.6097
▁이제추룩	-11.6098
줍	-11.61
곱	-11.6101
껍	-11.6102
▁겅허고	-11.6107
▁시작하	-11.6109
앚	-11.6111
존	-11.6115
쭈	-11.6117
겸	-11.6117
▁걸리는	-11.6118
칭	-11.6118
▁먹어봐	-11.6119
▁지으면	-11.612
봄	-11.6122
▁줏	-11.6123
▁끄트머리	-11.6125
ᄀᆞ튼	-11.6125
▁들어간다	-11.6125
▁조케	-11.6126
▁띄	-11.6128
▁감저로	-11.6136
▁물엉	-11.6138
▁놓으	-11.6138
▁쉐고기	-11.6142
▁범벅이	-11.6145
▁사람이나	-11.6146
▁봐사	-11.6153
▁그런디	-11.6159
지라고	-11.616
▁고내리	-11.6162
▁가다	-11.6163
▁들어나	-11.6169
헷젠	-11.6172
으쿠다	-11.6173
▁남원	-11.6176
▁가져다	-11.6176
▁모냥이	-11.6183
딧	-11.6184
우는	-11.6185
루루	-11.6187
▁생기면	-11.6191
▁지으	-11.6193
▁치면	-11.6196
▁헤십주	-11.6197
수로	-11.6198
▁보리ᄊᆞᆯ도	-11.6199
▁ᄀᆞᆫᄊᆞᆯ	-11.62
▁노프게	-11.6203
빗주	-11.6205
▁자가	-11.6209
▁이용허	-11.6211
▁익으	-11.6221
▁모다들	-11.6221
▁버물	-11.6225
컨게	-11.623
▁허리에	-11.6242
웁니다	-11.6242
바로	-11.6244
▁못적	-11.6245
▁할마님	-11.6245
▁바눙	-11.625
깟	-11.6252
▁이문	-11.6253
▁동기간	-11.6255
휴	-11.6255
▁ᄀᆞ꾸	-11.6255
▁ᄆᆞᆯᄀᆞ랑	-11.6256
브	-11.6256
▁덩드렁	-11.6256
▁ᄄᆞ로ᄄᆞ로	-11.6256
▁강돌와리	-11.6256
▁갱죽	-11.6256
▁거룻굴	-11.6256
▁공일날	-11.6256
▁그믐날	-11.6256
▁대물동네	-11.6256
▁도새긴	-11.6256
▁뗑기	-11.6256
▁맞인	-11.6256
▁붕뎅이	-11.6256
▁붙여	-11.6256
▁수꾸락	-11.6256
▁쉐비늠	-11.6256
▁슥쉐	-11.6256
▁쒜비늠	-11.6256
▁않게	-11.6256
▁앞코지	-11.6256
▁얇게	-11.6256
▁익기	-11.6256
▁정월대보름	-11.6256
▁제충국	-11.6256
▁툭툭	-11.6256
▁트랑트랑	-11.6256
▁팬티	-11.6256
▁희린좁ᄊᆞᆯ	-11.6256
볍	-11.6256
▁빨갛	-11.6256
▁히린좁ᄊᆞᆯ	-11.6256
▁장탱이	-11.6256
▁거짓말	-11.6256
▁어러러	-11.6256
▁잊어불어졋저	-11.6256
▁코고리	-11.6256
▁고라ᄆᆞᆯ	-11.6256
▁암컷	-11.6256
▁주넹이보리	-11.6256
▁뒈야지고기	-11.6256
▁푸린콩	-11.6256
▁너페	-11.6256
▁씰뜨기	-11.6256
▁잣담	-11.6256
▁오좀	-11.6256
▁보냇	-11.6257
▁흐린조팝	-11.6257
▁뽕나무	-11.6257
▁용돈	-11.6257
▁길롸	-11.6257
▁산듸찝	-11.6257
▁ᄂᆞᄆᆞᆯ쿡	-11.6257
▁ᄑᆞᆯ암	-11.6257
▁우녁	-11.6257
▁유썹	-11.6257
▁오까리	-11.6257
▁영주산	-11.6258
▁똥그랑	-11.6258
▁모셩	-11.6258
▁흔적	-11.6258
▁원칙	-11.6258
▁바투	-11.6258
▁법화사	-11.6258
▁구릿	-11.6259
▁무김치	-11.6259
▁겡이젓	-11.6259
▁버금	-11.6259
▁화장	-11.6259
▁보리찦	-11.6259
▁설촌	-11.626
▁길들여	-11.626
▁점점	-11.626
▁새각	-11.626
▁지둘롸	-11.626
▁여껴	-11.626
▁우티레	-11.626
▁눈썹	-11.626
▁대구덕	-11.6261
▁장독	-11.6261
▁중복	-11.6261
▁조꼼	-11.6261
▁동그랑허게	-11.6262
▁지신	-11.6263
▁숫쉐	-11.6263
▁서당	-11.6263
▁도끼	-11.6263
▁동굴	-11.6264
▁나록씨	-11.6264
▁소걸름	-11.6264
▁가름	-11.6264
▁갈치국	-11.6264
▁받으레	-11.6264
▁산담	-11.6264
▁큰굿	-11.6265
▁배추도	-11.6265
▁안하고	-11.6265
▁수평	-11.6268
▁터베	-11.6268
▁동원	-11.6268
▁당케	-11.6269
▁윷	-11.6271
▁연철	-11.6271
▁장ᄉᆞ	-11.6271
▁걸름착	-11.6272
▁더덕	-11.6273
▁ᄀᆞ새로	-11.6273
▁행원	-11.6274
▁생기리	-11.6274
▁막살이	-11.6275
▁이거여	-11.6276
▁장막	-11.6276
▁땅이라	-11.6276
▁여하	-11.6277
▁질에	-11.6278
▁데우리	-11.6279
▁사발썩	-11.6279
▁바레기	-11.6281
다마는	-11.6281
▁ᄀᆞᆺ듸	-11.6281
▁빠졍	-11.6281
▁테왕	-11.6282
▁남으민	-11.6283
▁결혼헷	-11.6283
▁누구네	-11.6285
▁허난게	-11.6286
▁노릇	-11.6286
▁파란	-11.6286
▁짝에	-11.6288
▁네중에	-11.629
▁ᄆᆞᆷ치	-11.6291
▁얍	-11.6292
▁젼디	-11.6292
▁하원	-11.6293
▁승부	-11.6293
▁곡지	-11.6294
▁천상	-11.6294
▁가졍강	-11.6296
▁이불상	-11.6297
▁꼰	-11.63
▁다리미	-11.6302
▁비슷허게	-11.6302
▁토양	-11.6303
▁케우려	-11.6303
▁담으멍	-11.6304
▁촌에서	-11.6308
▁정리	-11.6308
▁서꺼그네	-11.6308
▁자갈	-11.6309
▁헤나실	-11.6311
▁뒤에는	-11.6313
▁목사	-11.6316
▁마지막으로	-11.6317
▁젓어근에	-11.6317
▁집어넣는	-11.6317
▁공간이	-11.6318
▁서서	-11.632
▁골미	-11.6321
져불어	-11.6322
▁없애	-11.6323
제기	-11.6323
▁살살	-11.6326
▁위치	-11.6326
▁치어	-11.6326
▁잇어낫수다	-11.6327
▁언제까지	-11.6328
▁영업	-11.6328
▁양념이	-11.6329
▁크니까	-11.6331
▁아프면	-11.6331
▁뒈켜	-11.6332
▁취	-11.6334
▁곽	-11.6336
▁션	-11.6338
▁낫저	-11.6344
▁듣는	-11.6346
▁할망덜이	-11.6348
▁추곡	-11.6348
▁ᄀᆞᇀ으	-11.6349
▁멍들	-11.635
▁살려	-11.6351
▁구들이	-11.6351
▁누룩낭	-11.6351
▁좋으면	-11.6352
▁곤데	-11.6353
시니	-11.6354
▁뎅기민	-11.6355
▁신으	-11.6359
▁수리대	-11.6361
▁떨	-11.6362
▁양제	-11.6362
넹이	-11.6362
▁흥	-11.6365
▁통물	-11.6366
▁잡젠	-11.6367
▁유월절이	-11.6367
▁고급으로	-11.6368
▁놧수	-11.6368
▁흐	-11.6369
▁셍각헤	-11.637
▁나건	-11.6371
▁때사	-11.6372
▁제물로	-11.6374
데다	-11.6375
▁정낭	-11.6377
▁ᄀᆞ는체	-11.6377
▁한장동	-11.6378
▁갓어	-11.6383
▁법에	-11.6383
▁엇어나고	-11.6385
▁옴	-11.6386
▁거꽝	-11.6388
▁중방은	-11.6388
▁널러	-11.6388
▁빠진	-11.639
▁성가	-11.6391
▁주서당	-11.6391
▁지지민	-11.6391
▁대통령	-11.6392
둥이	-11.6395
▁자치	-11.6396
랏수과	-11.6398
▁와사	-11.64
▁담갓당	-11.6401
▁제관이	-11.6402
▁ᄑᆞᆯ안	-11.6402
▁도새기도	-11.6403
▁ᄌᆞᆸ게	-11.6404
▁물웨도	-11.6405
▁ᄆᆞᆯ리는	-11.6407
▁째	-11.6407
▁못ᄒᆞ민	-11.6409
▁날만	-11.6417
▁그것사	-11.6418
▁힘으로	-11.6421
▁간수	-11.6421
▁나만	-11.6424
▁디만	-11.6426
▁손당	-11.6426
▁거면	-11.6429
▁맛잇고	-11.643
▁채취	-11.6431
▁일령	-11.6432
시키	-11.6433
▁사대	-11.6437
▁절허고	-11.6438
▁웬만	-11.6442
▁우잣에	-11.6442
▁잘리	-11.6445
▁아인	-11.6446
▁낭덜	-11.6452
▁이신가마씨	-11.6455
▁마차로	-11.6456
▁오메기술은	-11.6456
▁농협에	-11.6457
▁씨어멍이	-11.6458
▁물론	-11.646
▁지들	-11.646
▁두부는	-11.646
▁근래에	-11.6461
▁보리찍은	-11.6461
▁거왕대	-11.6463
▁셍기	-11.6463
▁ᄃᆞᆨ죽은	-11.6464
▁감저밥은	-11.6465
롭	-11.647
▁들어가근에	-11.6471
▁벌르	-11.6471
▁생각허	-11.6473
▁났	-11.6474
신고마씨	-11.6475
▁톳밥은	-11.6475
왓수과	-11.6476
▁피와	-11.6478
▁미역이	-11.648
허듯이	-11.6481
▁정해	-11.6482
▁ᄑᆞᆺ밥은	-11.6485
▁사름이난	-11.6485
▁돌아사	-11.6488
▁이집	-11.649
▁캐여	-11.6493
▁뎅겨서	-11.6493
▁놀곡	-11.6493
드락	-11.6494
▁사서	-11.6499
▁엇나	-11.65
▁넘어가고	-11.6503
그레	-11.6503
▁집이선	-11.6504
▁나가믄	-11.6506
레긴	-11.6511
▁잇어신디	-11.6512
▁베기	-11.6512
▁말려	-11.6513
▁풍속	-11.6513
▁셔난	-11.6514
▁일본놈덜	-11.652
▁한글	-11.6523
▁재료는	-11.6529
▁조심	-11.653
▁가난에	-11.6531
▁저듸	-11.6531
▁ᄌᆞᆯ고	-11.6536
▁간장에	-11.6539
▁말썩	-11.6539
▁우이로	-11.6542
▁신발은	-11.6552
▁ᄑᆞᆺ이나	-11.6553
▁우려	-11.6553
▁부서	-11.6554
▁왓어	-11.6554
▁분들이	-11.6556
▁살앗지	-11.6562
▁ᄆᆞᆯ방애	-11.6562
▁운반허	-11.6563
▁죽에	-11.6565
▁오난에	-11.6565
갖고	-11.6566
▁내분	-11.6569
▁오름이	-11.657
며	-11.6572
▁저녁에	-11.6573
▁신구간이	-11.6576
▁자리에	-11.6576
짝허게	-11.6576
나수다	-11.6577
▁둘르는	-11.6579
▁ᄄᆞᆯ덜	-11.6581
▁헴실	-11.6584
▁적져	-11.6586
▁갈라지	-11.659
▁베리	-11.6595
메긴	-11.6596
▁몰르는	-11.6598
▁가난헌	-11.66
▁들이치	-11.6601
미가	-11.6604
▁기억남	-11.6607
▁모양은	-11.6608
▁ᄒᆞ나로	-11.661
▁동이	-11.6611
▁소금으로	-11.6612
▁심어당	-11.6612
▁아명	-11.6613
▁오그라	-11.6621
▁부젯칩이	-11.6623
▁저을에	-11.6624
▁등어리	-11.6628
놈으	-11.6628
▁바당물	-11.663
▁어렵지	-11.6638
▁지언	-11.6639
▁예예예	-11.6646
▁도로	-11.6657
▁멩질이	-11.6658
▁본이	-11.666
▁줨	-11.6664
▁저고리에	-11.6669
늘	-11.667
▁남으로	-11.6673
짝으로	-11.6674
▁조합이	-11.6677
▁져다	-11.6678
▁썩어불	-11.6681
▁새각시가	-11.6684
▁짜서	-11.6685
▁고성에	-11.6686
▁쑤면	-11.6687
▁모멀로	-11.6687
▁분리	-11.6689
▁후리	-11.6689
펴	-11.669
려가지고	-11.6697
었다	-11.6698
▁잇엇지	-11.6704
▁내놔	-11.6704
▁싱것주	-11.6719
▁뭐허	-11.6723
치멍	-11.6732
▁산다	-11.6733
▁일체	-11.6737
헌데	-11.674
▁안허주	-11.6744
▁황에	-11.6745
▁양칩	-11.675
▁부인들	-11.6752
헙	-11.6756
▁아자	-11.6757
▁머냐	-11.6759
▁솟이	-11.6759
▁이년	-11.6761
▁각단이	-11.6763
큰	-11.6767
▁나끄는	-11.6768
밤	-11.6775
▁지름떡은	-11.6778
▁ᄃᆞᆫᄃᆞᆫ허	-11.6779
▁왔	-11.678
묘	-11.6794
▁놓던	-11.6796
▁함덕이	-11.6799
▁뒈나	-11.6802
뿐이	-11.6807
헤가민	-11.6808
밭	-11.681
▁돔	-11.6811
햇수다	-11.6816
▁ᄆᆞᆯ에	-11.6816
향	-11.6817
펑	-11.6819
썰	-11.6821
옴	-11.6822
▁부뜨는	-11.6823
▁좋앗주	-11.6823
멀	-11.6825
쒜	-11.6826
▁그림	-11.683
견	-11.6831
빌	-11.6831
싯	-11.6832
쉔	-11.6834
초등학교	-11.6835
ᄀᆞ뜬	-11.6836
▁둥그	-11.6836
▁시루에	-11.6836
할머니	-11.6837
미녕	-11.6838
바위	-11.6838
▁버리는	-11.684
놈이	-11.6841
▁호령창이	-11.6844
헴수과	-11.6849
▁벌려	-11.685
이라야	-11.6851
랑허게	-11.6852
▁벵이	-11.6855
▁통허	-11.6858
▁갈아낫주	-11.6861
젱인	-11.6864
오십	-11.6867
▁칩이	-11.6868
녁	-11.6868
▁거주마씨	-11.687
▁의원	-11.6872
더기	-11.6873
▁ᄌᆞ베기도	-11.6876
▁자르	-11.6884
헤신디	-11.6885
▁지둘	-11.6892
▁아까와	-11.6895
▁썹이	-11.6895
겠	-11.6901
▁ᄌᆞ손	-11.6903
▁울타리	-11.6904
▁공판	-11.6909
르곡	-11.691
▁케우	-11.6912
▁바쳐	-11.6914
▁의미	-11.6918
▁자손	-11.692
슷	-11.692
앗다가	-11.6925
▁일려	-11.6926
▁하이	-11.6928
▁기여	-11.6931
말이	-11.6931
▁우연	-11.6932
롸	-11.6935
▁어실	-11.6936
▁거니깐	-11.6939
▁어음	-11.6941
▁ᄄᆞ라	-11.6942
▁베여	-11.6942
▁운상	-11.6944
▁도리께	-11.6945
▁ᄏᆞ	-11.6946
▁차례	-11.6948
▁수확허는	-11.695
▁막끗	-11.6954
▁윤노리	-11.6954
▁엇구나	-11.6955
▁덥	-11.6957
▁남으면	-11.6957
쿡	-11.6958
▁부수	-11.6958
▁잇입	-11.6961
▁기둥이	-11.6963
▁결혼헌	-11.6964
걸랑	-11.6966
▁반찬도	-11.6966
랄	-11.6966
▁봉그	-11.6968
▁갈치도	-11.6968
▁ᄃᆞᆯ라	-11.6969
근네	-11.6969
▁ᄌᆞᆼ	-11.697
▁그전	-11.697
▁ᄃᆞᆨ세기	-11.697
▁맥타기	-11.697
▁바톼	-11.697
▁엮어	-11.697
▁익혀	-11.697
▁펀찍	-11.697
▁ᄌᆞ끗디	-11.697
▁ᄏᆞᄏᆞᆯ	-11.697
▁ᄒᆞ룻밤	-11.697
▁난드른	-11.697
▁돋아	-11.697
▁돌킹이	-11.697
▁동모커리	-11.697
▁디들팡	-11.697
▁말허자면	-11.697
▁맙서	-11.697
▁방엣귀	-11.697
▁사그마치	-11.697
▁소쿠리	-11.697
▁솜비줄	-11.697
▁아랫목	-11.697
▁어둑어	-11.697
▁젖지	-11.697
▁튀겨	-11.697
▁특작	-11.697
▁홈베기	-11.697
▁흑수물	-11.697
▁흙이	-11.697
겋	-11.697
쩔	-11.697
챈	-11.697
▁봉천수	-11.697
▁오합주	-11.697
▁족은한집	-11.697
▁메탁기	-11.697
▁보리농서	-11.697
▁토신쩨	-11.697
▁ᄑᆞᆷ	-11.6971
▁씨누이	-11.6971
▁결혼사진	-11.6971
▁벡ᄇᆞ름	-11.6971
▁발동기	-11.6971
▁다도테기	-11.6971
▁선흘곶	-11.6971
▁증명	-11.6971
▁도리버즘	-11.6971
▁ᄄᆞᆷ띠	-11.6971
▁공중이	-11.6971
▁햇빛	-11.6971
▁졸라매	-11.6971
▁어려웟	-11.6971
▁지러기	-11.6971
▁엣날	-11.6971
▁무끗물	-11.6971
▁ᄌᆞ냑	-11.6971
▁버릇	-11.6971
▁작뒤	-11.6971
▁홍에기	-11.6971
▁얼룩소	-11.6971
▁준자리	-11.6971
▁ᄎᆞᆯ구덕	-11.6971
▁보건소	-11.6971
▁솟뚜껑	-11.6971
▁금싱	-11.6971
▁쉐막살이	-11.6971
▁멜쳇	-11.6972
▁무서운	-11.6972
▁월급	-11.6972
▁찦신	-11.6972
▁황쉐	-11.6972
▁양철집	-11.6972
▁웃터레	-11.6972
▁쪼끼	-11.6972
▁칠백	-11.6972
▁가마오름	-11.6972
▁자돔	-11.6972
▁하얗	-11.6973
▁웃삼달리	-11.6973
▁기후	-11.6973
▁양웨	-11.6973
▁엇샤	-11.6973
▁감저ᄁᆞ루	-11.6973
▁속속	-11.6973
▁부텅	-11.6973
▁짝짝	-11.6973
▁진쿨	-11.6974
▁볼거리	-11.6974
▁열여섯	-11.6974
▁멩절	-11.6974
▁ᄀᆞᆽ인	-11.6974
▁받쳐	-11.6974
▁종달	-11.6974
▁미쳥	-11.6974
▁방애	-11.6974
▁벌립	-11.6974
▁메역이	-11.6974
▁모르큰게	-11.6975
▁지랄	-11.6975
▁망시리	-11.6975
▁기름떡	-11.6976
▁서터	-11.6976
▁까망	-11.6976
▁고젱이	-11.6976
▁봉강	-11.6976
▁고메기	-11.6976
▁푸대	-11.6976
▁조찝	-11.6976
▁갯것	-11.6976
▁꺼끈	-11.6976
▁쫑	-11.6977
▁독창	-11.6977
▁요웨	-11.6977
▁사업	-11.6977
▁묵은해	-11.6977
▁도량	-11.6978
▁무명실	-11.6978
▁ᄌᆞ물앙	-11.6978
▁엿새	-11.6978
▁정부에	-11.6978
▁반못	-11.6978
▁뀌엉	-11.6978
▁월정	-11.6979
▁테작	-11.6979
▁고산에	-11.6979
▁대정원	-11.6979
▁곱안	-11.6979
▁죽어불언	-11.6981
▁고손	-11.6981
▁대반상	-11.6981
▁숙전	-11.6981
▁보리짚	-11.6981
▁동천	-11.6982
▁피력	-11.6982
▁반추	-11.6982
▁베꼇듸	-11.6983
▁메밀죽	-11.6983
▁삼년상	-11.6984
▁당일제	-11.6984
▁엽	-11.6984
▁씰밥	-11.6984
▁노름	-11.6984
▁초제	-11.6985
▁빌어다근에	-11.6985
▁박죽	-11.6985
▁얘기하는	-11.6986
▁쉘	-11.6986
▁수세미	-11.6986
▁윤노리낭	-11.6987
▁상점	-11.6987
▁풀어져	-11.6987
▁국자로	-11.6987
▁질렁	-11.6988
▁임자	-11.6988
▁고쳐	-11.6988
▁셍긴	-11.6988
▁바른	-11.6989
▁고개	-11.699
▁지슬도	-11.699
▁들엇저	-11.6991
▁납작헌	-11.6991
▁보릿그르에	-11.6992
▁ᄉᆞᆱ당	-11.6992
▁갈암	-11.6992
▁굴메	-11.6992
▁공들어	-11.6994
▁거리레	-11.6995
▁봐봣수과	-11.6995
▁당연	-11.6995
▁일가에서	-11.6996
▁빌령	-11.6996
▁뒛는데	-11.6996
▁ᄐᆞᆯ레	-11.6996
▁뽑아내	-11.6998
허곡게	-11.6998
▁숫불	-11.6998
▁웨국	-11.6999
▁골로루	-11.6999
멩지	-11.6999
▁줄거리	-11.6999
▁베려보난	-11.7
▁모멀묵	-11.7
▁버무려근에	-11.7
▁나아	-11.7
▁지켜	-11.7001
▁항아리레	-11.7001
▁ᄆᆞᆯ리와근에	-11.7003
▁일생	-11.7004
▁요멘이	-11.7005
▁물싸	-11.7006
▁다들	-11.7007
▁딸리민	-11.7007
▁쫄	-11.7008
▁삐여근에	-11.7008
▁ᄄᆞᆯ라근에	-11.7012
▁헷겟다예	-11.7014
▁밀령	-11.7014
▁ᄀᆞ세로	-11.7015
▁ᄇᆞᆯ렷	-11.7015
▁잘못허민	-11.7016
▁전부터	-11.7016
▁각단으로	-11.7017
▁세금	-11.7018
▁전라도	-11.7019
▁좁ᄊᆞᆯ죽	-11.7019
▁줘불	-11.702
▁코에	-11.7022
▁횃불로	-11.7023
오난	-11.7023
란에	-11.7024
▁걷기	-11.7025
▁괜찮아	-11.7025
▁허듯	-11.7026
▁공장에서	-11.7027
▁자루	-11.7027
▁받젠	-11.7028
▁멩진	-11.7028
▁물옷	-11.7028
▁말인지	-11.7029
▁대해근에	-11.7029
직헌	-11.7029
▁번채	-11.7029
▁삼일장	-11.7029
▁이섯주	-11.7032
▁케우리	-11.7033
▁경헤낫어	-11.7034
▁동더레	-11.7036
▁올르민	-11.7036
▁오대	-11.7039
▁새미	-11.7042
▁넘어사	-11.7044
▁안허지	-11.7045
▁뜨민	-11.7046
▁막아사	-11.7047
세게	-11.7048
▁뽑으	-11.7048
▁얼멩이로	-11.705
▁받곡	-11.7052
▁상웨	-11.7053
▁부엌에서	-11.7054
▁태어나고	-11.7054
▁주라	-11.7054
ᄀᆞ치룩	-11.7054
▁씨고	-11.7054
▁살리	-11.7055
▁ᄉᆞᆱ고	-11.7057
▁냉장고에	-11.7057
▁가루로	-11.7061
▁깔고	-11.7061
▁무뚱에	-11.7064
▁헛간에	-11.7069
▁경헤부난	-11.707
▁정월달에	-11.7071
까지도	-11.7071
▁시원허	-11.7072
▁건드리	-11.7073
▁직시	-11.7075
▁이서낫수다	-11.7077
어져	-11.708
▁두드리민	-11.708
▁벗는	-11.7081
▁차려	-11.7088
▁지낸다	-11.7088
▁쒀야	-11.7089
▁못허주	-11.709
▁들어와서	-11.7092
▁들어신디	-11.7093
▁ᄎᆞᆷ물	-11.7094
▁비단	-11.7096
▁막대기	-11.71
▁손님덜	-11.71
▁ᄀᆞᆮ는디	-11.7101
▁떼여	-11.7103
▁사람만	-11.7106
▁밥허영	-11.7108
▁방안에	-11.7116
▁ᄇᆞᆯ라근에	-11.7116
▁초신이엔	-11.7117
▁정ᄀᆞ레에	-11.7119
▁드려	-11.7121
▁헤노난	-11.7122
▁걸어근에	-11.7123
▁논덴	-11.7126
▁불주게	-11.7133
▁하나로	-11.7136
▁오래여	-11.7138
▁인칙에	-11.7145
▁이착	-11.7147
▁자락	-11.7149
▁한씨	-11.7152
▁뼁	-11.7153
▁그치	-11.7157
▁곤썰로	-11.7157
▁올리기	-11.7158
▁받지	-11.716
▁시루	-11.7165
▁아녀봔	-11.7168
헷구나	-11.7168
▁놔둬야	-11.7169
▁ᄐᆞᆮ는	-11.717
▁거려놔	-11.717
▁엇엇지	-11.7172
리쳥	-11.7173
▁굿허	-11.7175
▁놀리	-11.7176
▁먹어봔	-11.7176
▁아는디	-11.7179
▁타작은	-11.718
▁부려	-11.718
▁살쯤	-11.7181
▁일일	-11.7182
놔사	-11.7182
▁컬	-11.7184
와야	-11.7189
▁조왕은	-11.7189
▁디선	-11.719
▁진짜로	-11.7192
▁끗에	-11.7193
▁줘근에	-11.7194
▁낭이라도	-11.7194
▁뒌장만	-11.7195
▁낭간	-11.7195
▁개광	-11.7197
▁안짜리	-11.7198
들끼리	-11.7203
우멍	-11.7208
▁초기	-11.721
▁헤진	-11.7218
▁피밥은	-11.7222
▁바람에	-11.7225
▁밥헤먹	-11.7227
▁밧일에	-11.7233
▁ᄀᆞ로	-11.7238
▁사온	-11.7241
▁아우	-11.7243
▁학생덜	-11.7247
▁돌라	-11.7247
▁만들아서	-11.725
리에서	-11.725
▁돌아온	-11.7252
▁숨어	-11.7254
▁전통	-11.7257
▁나옵	-11.7261
▁공출허	-11.7263
▁대신에	-11.7264
▁밥으로	-11.7269
▁디디	-11.727
놓면	-11.7271
▁예껴	-11.7271
▁합제	-11.7273
▁어쩌다	-11.7273
동네	-11.7277
▁말헌	-11.7284
▁알아야	-11.7284
▁난다고	-11.7295
▁가거든	-11.7298
▁읍	-11.73
▁돌아보	-11.7301
▁ᄌᆞᆺ아	-11.7302
▁마구	-11.7304
▁베게	-11.7306
▁그전이	-11.7307
▁거리곡	-11.7309
▁식구덜	-11.7309
▁대영	-11.731
▁곱을락은	-11.731
▁시키는	-11.7311
▁드난	-11.7314
▁이놈	-11.7316
▁포기	-11.7316
▁심엇	-11.7316
낫져	-11.732
▁남자들이	-11.7321
▁창문에	-11.7323
▁살까지	-11.7326
▁헤낫고	-11.7331
▁갈리	-11.7336
▁산이	-11.7339
데경	-11.7343
▁젼	-11.7346
▁펜펜	-11.7347
▁눌엇다	-11.7348
겟는데	-11.7349
▁쪼글락	-11.7351
▁이씨	-11.7351
▁미녕이나	-11.7354
▁고리에	-11.7358
▁그르	-11.7359
▁잇주기	-11.7359
▁요즘엔	-11.7362
▁화리에	-11.7373
떠	-11.7374
▁새끼도	-11.738
▁구멍에	-11.7388
▁쓴다	-11.7393
▁씨아방	-11.7396
▁여청덜	-11.7396
▁동산에	-11.7398
▁깡	-11.7399
이란게	-11.74
▁ᄎᆞᆽ아가	-11.7402
▁꼬는	-11.7403
▁예방	-11.7407
▁열리	-11.741
▁둰	-11.7413
▁우찍은	-11.7415
쪽더레	-11.7416
덜이영	-11.7418
랏주게	-11.7418
▁멩지가	-11.7421
▁상동	-11.743
▁뒛게	-11.7431
▁들어가지고	-11.7435
▁기려	-11.7438
▁순이	-11.7442
▁남신은	-11.7446
▁무지	-11.7447
▁가다가	-11.7448
▁ᄉᆞᆯ지	-11.7455
트멍	-11.7456
▁서꺼지	-11.7463
▁살은	-11.7466
헤영은에	-11.7468
▁결혼하	-11.7472
▁상웨떡이	-11.7472
들엉	-11.7473
▁아래서	-11.7474
▁골루	-11.748
▁곡식이	-11.748
▁솟두껭이	-11.7485
엉은에	-11.7487
▁시작ᄒᆞ	-11.7487
봐신디	-11.7488
▁ᄉᆞᆯ은	-11.7491
▁드릇	-11.7493
▁땐이	-11.7494
▁아니가게	-11.7498
▁뒌장으로	-11.7499
정이	-11.7503
▁피헤	-11.7507
▁기간이	-11.7522
▁닮으	-11.7524
▁절여	-11.7525
▁나가서	-11.7532
▁올른	-11.7534
▁성은	-11.7535
▁아무거	-11.7536
▁ᄌᆞᆷ녀	-11.7538
성이	-11.7539
보골	-11.754
▁헤와	-11.755
▁톨도	-11.7552
▁쉐로도	-11.7553
▁엇을	-11.7556
▁ᄊᆞ	-11.7556
▁헤먹는	-11.7558
▁헷엇	-11.7561
▁새서방이	-11.7561
▁ᄀᆞᆽ	-11.7565
▁ᄀᆞᆯ아진	-11.7567
리엔	-11.7568
갓주게	-11.7574
적삼	-11.7576
▁저울	-11.7579
▁사름이라	-11.7583
▁보리밥만	-11.7583
▁ᄆᆞᆯ덜	-11.7584
왔	-11.7586
눈	-11.7589
상으로	-11.759
ᄆᆞ루	-11.7591
▁칼국수도	-11.7591
▁관대	-11.7592
▁죽어분	-11.7593
쪄	-11.7596
넬	-11.7598
▁광목이	-11.7599
뚜	-11.76
외	-11.7601
물앙	-11.7602
ᄐᆞᆨ	-11.7603
▁따뜻	-11.7603
쭉	-11.7604
쎄	-11.7604
ᄋᆞ졍	-11.7604
국민학교	-11.7605
먼	-11.7605
조근	-11.7609
녜	-11.7614
▁칸이	-11.7618
▁가지를	-11.7622
▁안헷주	-11.7623
▁내에	-11.7624
▁세월	-11.7625
먹으레	-11.763
▁허여서	-11.7633
▁썩으	-11.7636
▁ᄉᆞ끄	-11.7638
▁대문이	-11.764
큰게예	-11.7645
▁토신	-11.7646
▁씹	-11.7654
▁새우	-11.7656
▁물러	-11.7661
생이	-11.7664
▁저저	-11.7664
ᆸ	-11.7677
▁새벡	-11.7678
▁공간	-11.768
▁속담이	-11.768
▁편이	-11.7685
▁나신	-11.7687
▁노인당	-11.7688
▁담으면	-11.7691
▁보건	-11.7694
▁ᄒᆞᆸ디	-11.7695
▁자민	-11.7699
▁청수에	-11.7699
▁내리는	-11.77
▁곤란	-11.7705
▁이월에	-11.7707
▁언제나	-11.771
므	-11.7713
▁미삐젱이	-11.7715
▁신언	-11.7717
▁질룹	-11.7719
슴	-11.772
▁단체	-11.7721
▁헤놧	-11.7723
▁세영	-11.7724
팝	-11.7727
▁겹	-11.7728
▁도둑	-11.773
능	-11.7736
▁맛있	-11.7736
옝	-11.7737
▁똥글락	-11.7739
▁들머귀	-11.7739
▁고네할미	-11.774
▁굳어	-11.774
▁끓인	-11.774
▁낚싯줄	-11.774
▁넉둥베기	-11.774
▁넘기	-11.774
▁넣으면	-11.774
▁동골동골	-11.774
▁두드러기	-11.774
▁두줄보리	-11.774
▁마릿널	-11.774
▁먼올레	-11.774
▁멋이	-11.774
▁목족지	-11.774
▁무등이왓	-11.774
▁뭔고	-11.774
▁뭣사	-11.774
▁박정희	-11.774
▁반자틀	-11.774
▁보글보글	-11.774
▁볼ᄆᆞ작	-11.774
▁뻬다귀	-11.774
▁세뱃돈	-11.774
▁솟뚜껭이	-11.774
▁씨어머니	-11.774
▁알아보쿠다	-11.774
▁암천복	-11.774
▁얇은	-11.774
▁옥양목	-11.774
▁와랑와랑	-11.774
▁유치름	-11.774
▁일가방상	-11.774
▁짇는	-11.774
▁천오백	-11.774
▁쳉명	-11.774
▁풍체작데기	-11.774
▁홈마리	-11.774
▁후르메	-11.774
▁훌근	-11.774
윈	-11.774
죠	-11.774
▁ᄂᆞᆽ	-11.774
▁깎아	-11.774
▁차반지	-11.774
▁기저귀	-11.774
▁메리치	-11.774
▁비치락	-11.774
▁오징에	-11.774
▁냄비	-11.774
▁삼간찝	-11.774
▁톡톡톡	-11.774
▁난산리	-11.774
▁읍사무소	-11.774
▁음료수	-11.774
▁니빨	-11.774
▁미나리	-11.774
▁같애	-11.774
▁북바리	-11.774
▁피부병	-11.774
▁금악	-11.774
▁ᄀᆞ렛	-11.774
▁마타살	-11.774
▁쪼곰	-11.774
▁이삼십	-11.774
▁요자기	-11.774
▁돌팡에	-11.774
▁키웟	-11.774
▁바퀴	-11.774
▁벙에	-11.774
▁봉투	-11.774
▁모멀ᄏᆞ루	-11.774
▁풍뎅이	-11.774
▁곡쉐	-11.774
▁낙천	-11.774
▁지들케	-11.774
▁방송	-11.774
▁뼁이치기	-11.7741
▁ᄆᆞᄆᆞᆯᄊᆞᆯ	-11.7741
▁가레기클	-11.7741
▁들러키	-11.7741
▁암놈	-11.7741
▁마리널	-11.7741
▁청춘	-11.7741
▁콩고질	-11.7741
▁감젓메	-11.7741
▁줴피	-11.7741
▁역ᄉᆞ	-11.7741
▁태어낫	-11.7741
▁셍손	-11.7741
▁공젱이	-11.7741
▁남평날	-11.7742
▁둥그령	-11.7742
▁끌립	-11.7742
▁활동	-11.7742
▁나룩ᄊᆞᆯ	-11.7742
▁쪼께	-11.7742
▁손톱	-11.7742
▁ᄎᆞ남	-11.7742
▁동태	-11.7743
▁ᄎᆞᆯ련	-11.7743
▁신천	-11.7743
▁누벼	-11.7743
▁고낸	-11.7743
▁무껀	-11.7744
▁약속	-11.7744
▁지믜	-11.7744
▁서답	-11.7744
▁더껏당	-11.7744
▁서설	-11.7744
▁간단하게	-11.7744
▁ᄀᆞᆯ앗지	-11.7744
▁모두왕	-11.7745
▁풀ᄂᆞ물	-11.7745
▁얼룩얼룩	-11.7745
▁톨채	-11.7745
▁ᄌᆞ무	-11.7745
▁베틀락	-11.7745
▁양파	-11.7745
▁가깝	-11.7746
▁만든다	-11.7746
▁호박적	-11.7746
▁잡체	-11.7746
▁웃적	-11.7746
▁장태	-11.7747
▁삼갑	-11.7747
▁감젓	-11.7747
▁윤	-11.7748
▁부쳥	-11.7748
▁부벼	-11.7748
개비	-11.7748
▁설피	-11.7749
▁조밭	-11.7749
▁인제	-11.7749
▁천초	-11.7749
▁호상옷	-11.7749
▁벌겨	-11.775
▁겁데기	-11.775
▁도감	-11.775
▁들엇수다	-11.775
▁축구	-11.775
▁스물두	-11.7751
▁ᄌᆞᆽ아	-11.7751
▁졸라메	-11.7751
▁천천	-11.7751
▁벡선	-11.7752
▁올라왕	-11.7752
▁동글락ᄒᆞ게	-11.7753
▁도원	-11.7754
▁클러	-11.7754
▁상덕	-11.7755
▁액	-11.7755
▁중메	-11.7755
▁심으레	-11.7756
▁모를	-11.7756
▁덫	-11.7757
▁포따리	-11.7757
▁쉐것	-11.7757
▁제피	-11.7757
▁끼와근에	-11.7758
▁ᄂᆞᄆᆞᆯ국	-11.7758
▁서귀	-11.7759
▁판데기	-11.7759
▁중신	-11.7759
▁주성	-11.7759
▁골름	-11.7759
▁파래	-11.776
▁밧농사	-11.776
▁자골	-11.776
▁시체	-11.776
▁축산	-11.776
▁놧어	-11.776
▁대추	-11.7761
▁ᄀᆞᆯ아라	-11.7762
▁ᄒᆞᆨ질	-11.7762
▁골방	-11.7763
▁그루후	-11.7764
▁ᄆᆞᆯ류민	-11.7765
▁단체로	-11.7768
▁빠루	-11.7768
▁홉	-11.7768
▁겅헤도	-11.7769
▁모멀ᄀᆞ루	-11.7769
▁ᄀᆞ자	-11.777
▁겡국	-11.7772
▁죽엇저	-11.7772
▁설러불고	-11.7773
▁이간집	-11.7774
▁데와근에	-11.7775
▁미음	-11.7775
▁어룹	-11.7775
▁못헌다	-11.7776
▁틔우	-11.7778
▁안허나	-11.7779
▁장아치	-11.7779
▁구실	-11.778
▁낫아	-11.7781
▁물려	-11.7781
탁탁탁	-11.7781
▁바메기	-11.7782
▁시집이서	-11.7782
▁일어난	-11.7784
▁절물	-11.7784
저레	-11.7786
▁오염뒈	-11.7787
▁안헤수과	-11.7787
▁뎅겨낫저	-11.7788
▁뒈엿	-11.7789
▁서쪽으로	-11.779
▁것베끠	-11.779
▁멩지도	-11.7791
져불	-11.7791
▁대비	-11.7792
▁여든	-11.7793
▁씨원	-11.7794
▁직장	-11.7794
▁버리지	-11.7794
온다	-11.7794
▁뎅겻수다	-11.7795
▁들음	-11.7797
▁ᄆᆞ물ᄏᆞ루로	-11.7797
▁상산	-11.7797
▁끓이민	-11.7803
▁까끄	-11.7803
헴주	-11.7803
▁노프	-11.7806
▁년생	-11.7808
▁빨강헌	-11.7808
▁어부	-11.7808
▁꿰죽	-11.7809
▁피를	-11.781
▁일렁	-11.781
▁아이덜이영	-11.7811
▁데껴불어	-11.7811
▁이북	-11.7816
▁할망네	-11.7817
▁석어	-11.7818
▁뒈느냐	-11.7819
▁ᄀᆞᆯ아냐	-11.7819
▁끈어근에	-11.782
▁지세	-11.782
▁벌여	-11.7822
▁알아저	-11.7822
▁기다리	-11.7826
▁ᄉᆞᆯ앙	-11.7828
▁미녕실	-11.7829
▁구미	-11.7829
▁짚은	-11.783
▁쉬고	-11.7833
▁보일	-11.7835
▁맬	-11.7835
▁이선게	-11.7836
▁서끄민	-11.7837
▁지도	-11.7838
고말고	-11.7839
▁좋아서	-11.7841
▁시작허난	-11.7841
▁나오렌	-11.7841
룽헌	-11.7841
▁가두	-11.7842
▁들이곡	-11.7843
▁ᄀᆞ져당	-11.7843
▁담안	-11.7844
▁따라근에	-11.7846
▁처리	-11.7846
▁살르	-11.7847
▁끗나민	-11.7848
▁지프	-11.7851
▁동그락	-11.7852
▁조떡	-11.7854
▁ᄇᆞ르는	-11.7855
▁국시	-11.7857
▁ᄒᆞᆨ교에	-11.7857
▁성당	-11.7857
지주	-11.7858
▁ᄃᆞᆨ날	-11.7859
▁눌어근에	-11.786
▁이삭	-11.7864
▁잇인고	-11.7864
▁썰어그네	-11.7866
▁빌려주	-11.7867
▁지게로	-11.7867
▁쇠	-11.7868
▁놧단	-11.7869
▁아닐	-11.787
▁집안이	-11.7872
▁생각허는	-11.7872
▁들어봣수	-11.7873
거찌	-11.7873
▁솟듸서	-11.7875
▁이것을	-11.7884
▁성씨는	-11.7885
▁고고	-11.7885
▁몰를	-11.7885
▁만들엇주	-11.7887
▁패밥은	-11.789
▁거펴	-11.7893
▁북쪽	-11.7893
▁넘으	-11.7894
▁걸멩	-11.7895
▁호박입국은	-11.7895
▁받아근에	-11.7898
▁번차	-11.7901
▁어듸	-11.7904
▁심곡	-11.7905
▁놈덜이	-11.7907
김친	-11.7909
▁잇엇수	-11.7912
▁전까지	-11.7912
▁연발	-11.7912
▁중매로	-11.7913
▁ᄌᆞᆽ게	-11.7915
▁갓수다	-11.7919
▁무시거고	-11.792
▁영영영	-11.7923
중에	-11.7926
▁파내	-11.7926
▁싯주게	-11.7927
▁멩이	-11.7928
▁성이	-11.7929
▁하거든	-11.7929
▁개발	-11.793
▁뒈주만은	-11.7931
▁이서부난	-11.7931
▁일헤	-11.7931
▁거우다게	-11.7932
▁귀헌	-11.7933
▁할당	-11.7935
▁머라	-11.7942
▁길러	-11.7943
▁올라갓	-11.7944
▁담급	-11.7945
▁닮고	-11.7945
▁돌아가민	-11.7946
▁뽑고	-11.7949
▁오주	-11.795
▁자리에서	-11.7951
▁깃	-11.7952
▁헤싸지	-11.7952
▁꾹	-11.7955
▁사용하	-11.7961
ᄒᆞ면은	-11.7962
▁베틀에	-11.7966
▁비지	-11.7967
두곡	-11.7969
▁파멍	-11.7969
▁앞이서	-11.7972
▁하루에	-11.7974
허켜	-11.7975
▁문에	-11.7976
▁내려왓	-11.7979
한다	-11.7984
▁냉국도	-11.7986
▁내창에	-11.7987
▁헤벤이	-11.7988
▁제주도에서는	-11.7988
▁ᄆᆞᆷ국은	-11.799
▁고량에	-11.7992
▁시카	-11.7993
▁둔	-11.7995
▁앞에서	-11.7998
▁따까	-11.8
▁불카부덴	-11.8001
▁들어보지	-11.8004
▁결혼시키	-11.8008
▁ᄒᆞᆫ쪽	-11.8008
▁세우면	-11.801
자귀	-11.8014
▁솔잎도	-11.8016
▁부어	-11.8017
▁고치장도	-11.8018
▁비슷하	-11.8018
▁헤싸져	-11.8025
▁부러	-11.8029
▁가버리	-11.8031
▁때부떠	-11.8032
▁커야	-11.8032
▁북심	-11.8033
▁짓곡	-11.8034
▁꼭같	-11.8035
엇고	-11.8039
▁설기떡은	-11.804
▁실어	-11.804
▁삐고	-11.8041
▁상웨떡도	-11.8042
▁일르	-11.8042
▁조정	-11.8043
▁낫수다	-11.8044
▁줄자	-11.8046
▁성복제는	-11.8046
▁심심	-11.8047
▁쳣	-11.8049
▁잡아난	-11.8056
▁이름들	-11.8058
▁청년	-11.8059
월달에	-11.806
▁모사	-11.8065
▁목산	-11.8069
▁엇주기	-11.8074
▁설러불	-11.8087
▁마나	-11.809
▁산양	-11.8091
▁학교는	-11.8093
▁불어야	-11.8098
▁동쪽에	-11.8102
▁불어서	-11.8105
▁사름신디	-11.8105
▁백만	-11.8106
▁살아야	-11.8107
▁밧거리에	-11.8111
놧다	-11.8112
▁곤죽은	-11.8114
▁앚은	-11.8117
▁쿠	-11.8119
▁ᄊᆞᆯᄀᆞ루	-11.8124
▁때여	-11.8128
▁떼나	-11.8129
▁모르겠	-11.8129
▁부산에	-11.813
▁물팡이	-11.8131
▁긋	-11.8133
▁먹줄	-11.8139
▁눈물	-11.8146
▁파도	-11.8146
▁지멍	-11.8149
▁우에다	-11.815
▁길에	-11.8153
▁계로	-11.8153
▁해먹	-11.8156
▁차곡	-11.8156
▁없주	-11.8163
▁괜찮	-11.8165
▁허데	-11.8171
▁누룩에	-11.8175
▁차롱에	-11.8176
▁일허	-11.8178
▁산물	-11.8183
▁어디꽈	-11.8188
▁상강이	-11.8189
▁치기	-11.8192
▁안방이	-11.8197
▁베영	-11.8197
▁소곰이	-11.8197
▁친족덜	-11.8201
▁넘어오	-11.8201
▁동안은	-11.8204
▁모리	-11.8205
▁강칩	-11.8207
▁공기도	-11.8209
▁속에서	-11.8209
▁ᄋᆢ라이	-11.8209
▁지경에	-11.821
▁늘어	-11.8215
▁모시로	-11.822
▁튀어나	-11.8222
▁엇어졋	-11.8223
▁질메에	-11.8225
▁돔베에	-11.8226
▁감아지	-11.823
낫다고	-11.8233
▁비어난	-11.8235
▁상젠	-11.8245
▁틀립	-11.8247
▁비슷비슷	-11.8251
▁그축	-11.8272
봐야	-11.8274
▁추억이	-11.828
▁지름이	-11.8288
▁해줘	-11.8291
▁ᄇᆞᆯ려야	-11.8295
▁ᄀᆞᆷ으	-11.8296
치민	-11.8303
자락	-11.8307
▁부모덜	-11.8308
▁재게	-11.8312
▁가을에는	-11.8312
▁적어	-11.8318
▁자랏	-11.8318
▁대한에	-11.8319
▁말해	-11.832
▁해주	-11.8324
▁서쪽에	-11.8328
▁ᄀᆞᆯ아져	-11.8329
▁멘들앗주	-11.8335
▁써야	-11.8337
▁헤나신고	-11.8342
라마는	-11.8344
▁주위	-11.8347
▁먹대	-11.8348
▁곱은	-11.8348
▁이제라도	-11.8351
식이	-11.8354
만인	-11.8364
▁이것만	-11.8365
▁장기	-11.8371
▁무신것	-11.8372
뒈쌍	-11.8372
앗던	-11.8381
▁나멍	-11.8386
▁조팝만	-11.8398
▁쏘곱	-11.8398
뒈민	-11.8398
잡	-11.8401
ᄒᆞ면	-11.8403
▁국물이	-11.8404
뒈여	-11.8405
아리	-11.8406
▁물기	-11.8406
▁세어	-11.841
▁도리는	-11.8414
▁헤봣주	-11.8415
▁마농도	-11.8421
▁들엇다	-11.8421
릇	-11.8422
▁비슷헤	-11.8423
▁한장동에	-11.8423
쑤	-11.8426
▁ᄀᆞ져	-11.8427
학년	-11.8429
환	-11.8429
르르	-11.843
흥	-11.843
뽀	-11.8432
갔	-11.8433
떨	-11.8433
송	-11.8434
▁산두	-11.8434
쇠	-11.8435
삐	-11.8436
탈	-11.8436
몽	-11.8436
값	-11.8436
압	-11.8436
닷	-11.8437
휘	-11.8437
▁하시	-11.8438
ᄃᆞ리	-11.8438
헙디가	-11.8438
핸	-11.8438
ᄀᆞᆯ	-11.8438
딸	-11.8439
ᄌᆞ베기	-11.8439
후제	-11.8439
바농	-11.8439
여섯	-11.8441
▁농사지으	-11.8442
▁말헤	-11.8443
▁정성이	-11.8443
▁동네사름	-11.8444
▁한동에	-11.845
거름	-11.8459
▁ᄃᆞᆷ으	-11.8461
▁동안에	-11.8469
▁방식	-11.8471
▁운전	-11.8476
내가	-11.8476
▁셍각허	-11.8482
▁비슷ᄒᆞ	-11.8482
▁돌아가셨	-11.8484
▁드셔	-11.8486
드르	-11.8491
▁이루어	-11.8493
▁짓기	-11.8493
▁그네뛰기	-11.8493
▁만헤	-11.8497
▁올라오면	-11.8497
▁새벽	-11.8498
섹	-11.8498
▁삼구	-11.8499
▁뽄이	-11.8502
사위	-11.8503
▁앚으	-11.8508
▁농사지을	-11.8511
▁좋안	-11.8513
▁허드라	-11.8515
▁민속촌	-11.8516
▁녹듸죽	-11.8516
▁기관이	-11.8517
따로	-11.852
▁대구	-11.8523
▁미녕에	-11.8524
▁끝나면	-11.8524
▁호강	-11.8529
▁쌉	-11.8534
판에	-11.8536
▁테역	-11.8536
▁오레비	-11.8537
▁조영	-11.854
▁뜰	-11.8541
▁끈어지	-11.8545
▁짓엇	-11.8548
▁담아당	-11.8549
례	-11.8549
▁일흔	-11.8549
▁제줏말	-11.855
▁소덜	-11.8552
셨	-11.8552
닙	-11.8553
▁반에	-11.8558
▁뭐허지	-11.8561
ᆺ	-11.8564
믜	-11.8567
칫	-11.8568
▁소곰에	-11.8571
▁서촌	-11.8572
▁우티	-11.8572
벙	-11.8572
▁ᄒᆞᆨ사돈	-11.8573
▁끝이	-11.8573
▁넘엇	-11.8573
▁땅따먹기	-11.8573
▁숭눙	-11.8573
▁쉡씨	-11.8573
▁쌓앗	-11.8573
▁쏙에	-11.8573
▁연자매	-11.8573
▁찹ᄊᆞᆯ	-11.8573
▁혈압	-11.8573
규	-11.8573
뻘	-11.8573
펀	-11.8573
▁ᄆᆞᆯ켓낭	-11.8573
▁ᄏᆞᆯ락	-11.8573
▁고춧가루	-11.8573
▁곶자왈	-11.8573
▁구시월	-11.8573
▁굵어	-11.8573
▁긁엉	-11.8573
▁깊으	-11.8573
▁낚싯대	-11.8573
▁넓은	-11.8573
▁대막뎅이	-11.8573
▁메살룸	-11.8573
▁무꾸럭	-11.8573
▁무쉐솟	-11.8573
▁문입젱이	-11.8573
▁뭉쳐	-11.8573
▁믿는	-11.8573
▁별미로	-11.8573
▁부시럼	-11.8573
▁붙엉	-11.8573
▁뻐꾹새	-11.8573
▁산물이멩이	-11.8573
▁서모커리	-11.8573
▁석상베	-11.8573
▁쓰레뜨	-11.8573
▁아닛과	-11.8573
▁암첨복	-11.8573
▁앞서	-11.8573
▁양짓머리	-11.8573
▁옥영목	-11.8573
▁지슬감저	-11.8573
▁짇으	-11.8573
▁찌꺼기	-11.8573
▁트랙터	-11.8573
▁패마눙	-11.8573
▁호열자	-11.8573
굘	-11.8573
댜	-11.8573
▁두꺼운	-11.8573
▁안팟거리	-11.8573
▁이칸집	-11.8573
▁바농쌍지	-11.8573
▁송아기	-11.8573
▁얄룹게	-11.8573
▁서화리	-11.8573
▁임대료	-11.8573
▁컴질	-11.8573
▁배술기	-11.8573
▁머구낭	-11.8573
▁부드러	-11.8573
▁빈네쿨	-11.8573
▁던드렁	-11.8573
▁옹기	-11.8573
▁쫙쫙	-11.8573
▁ᄆᆞᆯ테우리	-11.8573
▁옥광목	-11.8573
▁꾹꾹	-11.8573
▁드릇ᄂᆞ물	-11.8573
▁퐁낭	-11.8573
▁수아주	-11.8573
▁새마을	-11.8573
▁데오리	-11.8573
▁지에집	-11.8573
▁솔닙	-11.8573
▁ᄌᆞᆷ진체로	-11.8573
▁이연발	-11.8574
▁마ᄇᆞ름	-11.8574
▁함에	-11.8574
▁그담엔	-11.8574
▁적다ᄆᆞᆯ	-11.8574
▁꿩마농짐치	-11.8574
▁고들게	-11.8574
▁대표	-11.8574
▁셍겻	-11.8574
▁받침	-11.8574
▁벤또	-11.8574
▁가리석	-11.8574
▁만디떡	-11.8574
▁물속에	-11.8574
▁경찰관	-11.8574
▁방찰락	-11.8574
▁통치메	-11.8574
▁우퉁	-11.8574
▁풍조	-11.8575
▁열사흘날	-11.8575
▁고등어젓	-11.8575
▁모멀ᄀᆞ르	-11.8575
▁초승	-11.8575
▁후리메	-11.8575
▁삿바	-11.8575
▁ᄉᆞᆯ우리	-11.8575
▁버쳥	-11.8575
▁봉초	-11.8575
▁ᄍᆞ른줄	-11.8575
▁보시떡	-11.8575
▁웨곱	-11.8575
▁줏으레	-11.8575
▁나록찍	-11.8575
▁구웟	-11.8575
▁는쟁이	-11.8575
▁없었	-11.8576
▁똑ᄀᆞ튼	-11.8576
▁경ᄒᆞ여도	-11.8576
▁ᄎᆞᆽ안	-11.8576
▁ᄂᆞᆷ삐김치	-11.8576
▁ᄇᆞᆯ림	-11.8576
▁셍기리	-11.8576
▁ᄉᆞ태	-11.8576
▁상제옷	-11.8576
▁ᄑᆞ레밥	-11.8576
▁밤새	-11.8576
▁아녈	-11.8576
▁셍선국	-11.8577
▁정기떡	-11.8577
▁임신	-11.8577
▁도둑놈	-11.8577
▁여름철	-11.8577
▁쉐터럭	-11.8577
▁갓다왓다	-11.8577
▁모자반	-11.8577
▁셍펜	-11.8577
▁올렛	-11.8577
▁걷으레	-11.8577
▁ᄇᆞ디집	-11.8577
▁데멩이	-11.8577
▁선ᄆᆞᆯ	-11.8577
▁무클	-11.8578
▁ᄆᆞ멀ᄊᆞᆯ	-11.8578
▁도리깨질	-11.8578
▁춘분	-11.8578
▁개인적으로	-11.8578
▁비슷한	-11.8578
▁ᄑᆞ레국	-11.8578
▁집알이	-11.8579
▁솔레기국	-11.8579
▁궤팡	-11.8579
▁한원리	-11.8579
▁천평	-11.8579
▁등짐으로	-11.8579
허켄	-11.8579
▁젤벤	-11.858
렷당	-11.858
▁도리께질	-11.858
▁저고린	-11.858
▁원료	-11.858
▁벨미로	-11.8581
▁큰어멍	-11.8581
▁팔월절	-11.8581
▁메역쉐	-11.8581
▁다르잖아예	-11.8581
▁세불ᄁᆞ지	-11.8581
▁새끼회	-11.8581
▁뀌여근에	-11.8581
▁마탕	-11.8582
▁젯상	-11.8582
▁궁물	-11.8582
▁데깍	-11.8582
▁벽장	-11.8582
▁큰눈	-11.8582
▁사또	-11.8582
▁쉬워	-11.8582
▁양테	-11.8583
▁ᄀᆞᆺ세	-11.8583
▁경해도	-11.8583
▁큰큰	-11.8583
▁보름떡	-11.8583
▁만들었	-11.8583
▁여끼	-11.8583
▁ᄉᆞ끼	-11.8583
▁산파	-11.8583
▁조짚	-11.8584
▁가슴	-11.8584
▁인부	-11.8584
▁셋문	-11.8585
▁가늘	-11.8585
▁더듬	-11.8585
▁먼문	-11.8585
▁오랑코	-11.8586
▁이십년	-11.8586
▁팔월배	-11.8586
▁지지미	-11.8586
▁간전이	-11.8587
▁소득	-11.8587
▁던저	-11.8587
▁퉤	-11.8587
▁뜯어당	-11.8588
▁여꺼근에	-11.8588
▁돗제	-11.8588
▁당원	-11.8588
▁헤엿	-11.8588
▁식으민	-11.8588
▁말젯	-11.8589
▁어섯수과	-11.8589
▁좌씨	-11.859
▁이만큼씩	-11.8591
▁언물	-11.8591
▁자굴	-11.8591
▁뇌	-11.8591
▁멩전	-11.8591
▁감저눌	-11.8592
▁이웃	-11.8592
▁열쉐	-11.8592
▁형제간	-11.8592
▁휘여	-11.8593
▁발창	-11.8593
▁산디찍으로	-11.8594
▁차조	-11.8594
▁맞이레	-11.8594
▁똥떡	-11.8594
▁궂이	-11.8594
▁썰멍	-11.8594
▁숭어	-11.8594
▁막끗데	-11.8595
▁정당으로	-11.8595
▁판단	-11.8595
▁벌겅케	-11.8596
▁살앗는데	-11.8596
▁도비	-11.8596
▁판자	-11.8596
▁나라에서	-11.8597
▁살앗수게	-11.8598
▁ᄆᆞᆯ리와그네	-11.8599
▁비추	-11.86
▁썰어근엥	-11.8601
▁저지리	-11.8601
▁물어보젠	-11.8601
▁온돌방	-11.8602
▁데리	-11.8602
▁선왕	-11.8603
▁찌엉	-11.8603
▁삘	-11.8604
▁꿴	-11.8604
▁걸쳥	-11.8604
▁시겨	-11.8605
▁남죽으로	-11.8605
▁먹읍니다	-11.8605
▁수정이	-11.8605
▁끌여근에	-11.8606
져부난	-11.8608
▁것보단	-11.8609
▁잇으민	-11.8609
▁ᄎᆞ레	-11.861
▁허든지	-11.861
▁덩드렁마께로	-11.861
▁지원	-11.8612
▁먹으나	-11.8612
칩니다	-11.8612
▁겅허난	-11.8613
▁지직	-11.8614
▁행정	-11.8614
▁표준말로	-11.8615
▁도새기집	-11.8616
▁엄마	-11.8616
▁데가리	-11.8616
▁단장	-11.8616
▁먹어근에	-11.8616
▁차츰	-11.8617
▁진동	-11.8617
▁뎅구리	-11.8617
▁토끼	-11.8617
▁ᄀᆞᆮ듯이	-11.8617
▁ᄉᆞᆱ곡	-11.8617
▁먹어봐서	-11.8618
▁추분	-11.862
▁연대	-11.8622
▁ᄌᆞ들	-11.8622
▁ᄀᆞ늘게	-11.8622
▁관광지	-11.8624
▁걸명	-11.8624
▁먹거나	-11.8625
▁불채	-11.8626
▁다운	-11.8626
▁방문	-11.8626
▁차롱착에	-11.8627
▁산뒤ᄊᆞᆯ로	-11.863
▁돌려근에	-11.8632
▁춥지	-11.8633
▁이월덜	-11.8634
▁요만치	-11.8634
▁궁	-11.8636
▁엇어노난	-11.8639
▁역불	-11.8641
▁헤나부난	-11.8642
▁먼디	-11.8645
▁논에	-11.8645
▁고통	-11.8647
▁의미가	-11.8647
▁못치기	-11.8648
으셧	-11.8648
▁요걸로	-11.8649
▁일허는	-11.8649
▁가지만	-11.8651
▁시월덜	-11.8651
▁한치	-11.8652
▁잇어신고예	-11.8652
▁드릇ᄂᆞᄆᆞᆯ	-11.8652
▁피죽	-11.8654
▁구린	-11.8655
▁싱거근에	-11.8655
▁우리집	-11.8655
▁가까우	-11.8656
▁파리	-11.8657
▁ᄉᆞ히	-11.8658
▁경ᄒᆞ연	-11.8659
▁당번제	-11.8659
▁덜어	-11.866
▁손보	-11.8661
▁봐져	-11.8662
▁감저떡	-11.8662
▁기와	-11.8663
헷는디	-11.8664
▁달믄	-11.8664
▁ᄊᆞᆷ지	-11.8665
▁뎃	-11.8665
▁ᄀᆞᆯ지	-11.8665
▁중간이	-11.8668
▁공비	-11.8668
▁가닥	-11.867
▁거둬들	-11.8673
▁헤수꽈	-11.8674
▁삼신	-11.8675
▁푼	-11.8676
▁크곡	-11.8676
▁ᄆᆞᆯ려근에	-11.8678
▁헴저	-11.8681
▁담갓	-11.8682
▁먹어사	-11.8682
▁헤낫수게	-11.8684
▁이야기를	-11.8684
▁마레	-11.8685
▁담아야	-11.8685
방울	-11.8689
▁먹는다고	-11.869
▁물감	-11.8691
▁도와	-11.8691
께로	-11.8692
▁ᄎᆞᆸᄊᆞᆯ로	-11.8693
▁장방	-11.8694
▁ᄀᆞᆯ으난	-11.8694
▁느나	-11.8695
▁펜펜허	-11.8696
▁모날	-11.8696
▁돗통시에	-11.8699
▁역사가	-11.8701
▁범	-11.8701
▁섶	-11.8702
▁신낭	-11.8702
▁말ᄒᆞ민	-11.8705
▁우물	-11.8706
▁상방에	-11.8707
▁포장	-11.8707
▁물박	-11.8709
▁허다근에	-11.871
▁세와근에	-11.8714
▁뒙니다게	-11.8717
▁갈르는	-11.8718
▁뿌리곡	-11.8718
▁사오민	-11.8722
▁보관허는	-11.8724
▁식사	-11.8727
▁중간에야	-11.8732
▁ᄒᆞᆫ다리	-11.8732
▁없어가지고	-11.8733
▁삼시	-11.8733
▁많다	-11.8738
▁놀멍	-11.874
▁조선	-11.874
▁싯는	-11.8742
▁ᄃᆞᆯ아오	-11.8742
▁살앗다	-11.8744
때기	-11.8745
떼기	-11.8745
▁골은	-11.8746
▁겸	-11.8751
▁뒈도록	-11.8751
젠ᄒᆞ민	-11.8751
▁안헙니다	-11.8753
▁부주로	-11.8753
▁겨을	-11.8754
▁혼서	-11.8756
▁앚고	-11.8757
▁굴리	-11.8758
▁쉐가죽	-11.8762
▁모이는	-11.8763
▁늦어	-11.8765
▁ᄆᆞᆽ아	-11.8766
▁ᄎᆞᆽ는	-11.877
▁촐만	-11.8771
▁승	-11.8775
▁고지기	-11.8776
하젠	-11.8776
▁설치	-11.8777
▁보리밧에	-11.8778
▁용ᄉᆞ	-11.8778
시로	-11.8779
▁팔월덜	-11.8779
▁빼어	-11.8781
▁ᄃᆞᆯ리	-11.8781
때는	-11.8782
▁아들들	-11.8786
왓디	-11.8791
▁장게가	-11.8791
▁내고	-11.8793
▁이해	-11.8793
▁메젠	-11.8795
엿당	-11.8796
▁목욕은	-11.8797
발이	-11.8797
▁잇엇수다	-11.8799
▁산간에	-11.88
▁월령리	-11.8807
▁널곡	-11.8808
▁시니	-11.8811
헤낫수다	-11.8816
▁기름이	-11.8817
▁헤놔	-11.882
▁무신건	-11.8824
▁해수과	-11.8824
▁장개가	-11.8827
▁끌리주	-11.8828
▁헤낫주기	-11.8834
▁시월달	-11.8836
▁창자	-11.8838
▁지관이	-11.8838
헤헤헤	-11.8839
▁깝이	-11.8839
▁ᄃᆞᆯ아메여	-11.884
▁받치	-11.8841
▁잇어실	-11.8842
▁마트	-11.8843
▁갖다가	-11.8843
▁기라	-11.8844
▁와시난	-11.8846
▁먹어보지	-11.8846
▁짜난	-11.8847
▁메사	-11.8847
▁만디	-11.8848
▁거냐	-11.885
▁열시	-11.885
▁ᄆᆞᆷ이	-11.8858
엇젠	-11.8859
▁장날	-11.886
▁방법도	-11.886
▁까만	-11.8864
▁세미떡은	-11.8865
▁뎅기난	-11.8868
▁ᄀᆞᆯ아낫저	-11.8869
▁끈으	-11.8869
▁지둥이	-11.8871
▁푸는	-11.8871
▁그데로	-11.8872
▁무끕니	-11.8873
▁사난에	-11.8877
▁식구들	-11.8877
▁잇엇다	-11.8881
통이	-11.8881
▁헴신고	-11.8881
오면	-11.8884
▁새끼덜	-11.8886
주실	-11.8891
▁고양	-11.8896
▁다르지	-11.8898
▁사름썩	-11.8903
▁엥	-11.8904
▁고산이	-11.8907
▁해봐	-11.8907
▁잘살	-11.8909
허니깐	-11.8911
▁여물은	-11.8912
▁족은아방	-11.8917
▁매곡	-11.8925
▁십만	-11.8929
▁무너	-11.893
나신지	-11.8932
▁지대	-11.8936
▁무시거옌	-11.8941
▁끈어당	-11.8946
▁송펜은	-11.8957
통으로	-11.8958
▁해치	-11.8965
▁장마에	-11.8966
▁빠르	-11.8966
▁죽여불	-11.8968
▁잇엇던	-11.8972
▁ᄆᆞᆯ망은	-11.8974
▁죽영	-11.8976
▁일본놈	-11.8987
▁그거나	-11.8989
져시냐	-11.899
▁맛잇는	-11.8991
▁전의는	-11.8992
▁아기덜은	-11.8992
먹어보고	-11.8995
▁포수	-11.8996
▁지짐이는	-11.8999
▁멩글앗	-11.9004
찔	-11.9005
▁ᄎᆞᆯ레라	-11.9008
▁채는	-11.901
▁ᄌᆞᆺ는	-11.9021
죽으로	-11.9024
것ᄀᆞ라	-11.9033
▁구멍이	-11.9035
신더레	-11.9036
▁볼목리에	-11.9037
▁마을엔	-11.9037
▁어디라	-11.9039
▁기억남수	-11.9043
단추	-11.9043
▁들으면	-11.9047
럼	-11.9048
▁관은	-11.9052
▁ᄃᆞᆯ앗	-11.9058
▁입도	-11.9064
갑니께	-11.9064
▁우영	-11.9066
▁동서	-11.9066
▁것들을	-11.9067
▁ᄋᆢᇁ에	-11.9075
▁체헷	-11.9076
▁잘랑	-11.9078
▁통이	-11.9087
왓닥	-11.9092
▁눌왓	-11.9094
실테주	-11.9095
▁녹남봉	-11.9098
▁ᄉᆞᆱ앗	-11.9099
▁나왐	-11.9108
▁죽어부	-11.9108
▁나물	-11.9111
▁굽어	-11.9112
▁멍석을	-11.9132
▁지여	-11.9134
▁신양	-11.9135
▁쉐들	-11.9135
▁막앙	-11.915
밥이엔	-11.916
▁답답	-11.9162
▁ᄑᆞᆺ만	-11.917
▁굽지	-11.9171
▁지달	-11.9172
▁사야	-11.918
▁앚진	-11.918
▁나거든	-11.9181
▁병원이	-11.9187
▁밀을	-11.9188
▁부제칩	-11.9194
▁박은	-11.9197
▁다르주	-11.921
▁우는	-11.9212
으렌	-11.9213
실거라	-11.9213
불어사	-11.9214
장으로	-11.9215
▁사용헤	-11.9215
▁씨와	-11.9216
수장	-11.9217
▁죽어불엇	-11.922
▁있을	-11.9222
▁하늘에	-11.9228
▁어기	-11.923
▁메역국도	-11.9232
▁부르	-11.924
▁밧에서	-11.9242
▁딸이	-11.9242
▁나그네	-11.9242
▁허켜	-11.9243
엿주게	-11.9246
▁시치	-11.9246
▁멘들주	-11.9251
▁ᄑᆞᆯ아도	-11.9256
▁친구들	-11.9258
▁동생들	-11.926
▁왓주	-11.9265
▁오월에	-11.9271
▁남쪽	-11.9282
▁고치도	-11.9286
컨	-11.9286
봣저	-11.9289
▁ᄌᆞᆽ이	-11.9289
▁두드	-11.9301
▁돌아가션	-11.9305
▁족대	-11.9311
▁무게	-11.9313
▁헤싸	-11.9313
▁빙허게	-11.9314
꿀	-11.9315
▁돌ᄏᆞ레	-11.9316
벅	-11.9316
드리	-11.9319
▁종류를	-11.9322
섶	-11.9331
김	-11.9337
▁뗑겨	-11.9338
패	-11.9338
손가락	-11.9339
▁구뎅이에	-11.9339
범	-11.9342
칼	-11.9343
ᄂᆞ	-11.9343
뜻	-11.9343
널	-11.9344
▁나가근에	-11.9344
몰	-11.9344
버렷	-11.9345
층	-11.9345
짱	-11.9345
몬	-11.9347
▁무싱걸	-11.9347
삽	-11.9347
흑	-11.9348
▁통게	-11.9349
산듸	-11.935
쟈	-11.9352
콤	-11.9352
▁막아지	-11.9353
▁남방에에	-11.9353
광목	-11.9355
헙디다	-11.9357
모자	-11.9358
헤당	-11.936
념	-11.9361
우린	-11.9361
왐주게	-11.9364
▁친정이	-11.9366
▁일들	-11.9368
보자	-11.9368
▁콩죽이	-11.9368
▁손자	-11.9369
▁보이게	-11.9373
재기	-11.9375
▁안경	-11.9375
▁털이	-11.9384
▁전체적으	-11.9384
▁눌민	-11.9388
근데	-11.9392
▁약이라	-11.9394
퉁	-11.9394
▁시절이	-11.9398
▁시제	-11.94
공장	-11.9401
▁흔들	-11.9402
▁ᄒᆞ여서	-11.9405
▁떠다	-11.9407
▁생각ᄒᆞ	-11.9412
▁조왕이	-11.9414
▁ᄑᆞᆺ으로	-11.9414
▁엇어근에	-11.9416
▁당그	-11.9417
우면	-11.9421
▁친족이	-11.9424
▁멜젓이	-11.9426
▁오기	-11.9431
▁가매	-11.9432
▁급허	-11.9433
▁나머	-11.9434
▁둘에	-11.9435
▁일정	-11.9436
▁껍데	-11.9437
▁양이	-11.9444
▁셔나	-11.9448
▁칸에	-11.9448
▁옮기	-11.945
욱	-11.9454
▁볶아	-11.9454
것도	-11.9456
▁본향이	-11.9457
▁초집이	-11.946
▁무시걸	-11.9461
▁집의는	-11.9462
▁신엇주	-11.9462
▁새서방칩이	-11.9463
▁연세	-11.9463
뎌	-11.9469
턴	-11.9472
▁버슬	-11.9472
▁ᄑᆞᆫ	-11.9473
▁회장	-11.9474
▁큰ᄄᆞᆯ이	-11.9476
협	-11.9476
▁진진허게	-11.9477
쩡	-11.9479
▁필요하	-11.948
▁열사흘	-11.948
▁수눌어	-11.9481
▁나중	-11.9481
▁토벌	-11.9481
ᄅᆞᆷ	-11.9482
텡	-11.9482
▁나풀나풀	-11.9482
▁넓어	-11.9482
▁마갈땅값	-11.9482
▁목쩨비	-11.9482
▁샛ᄇᆞ름	-11.9482
▁셋슨당	-11.9482
▁싯깅이	-11.9482
▁ᄆᆞ멀ᄏᆞ르	-11.9482
▁가문잔칫날	-11.9482
▁굶어	-11.9482
▁귓돌	-11.9482
▁깊은	-11.9482
▁깜부기	-11.9482
▁꽹과리	-11.9482
▁낭토막	-11.9482
▁낮에	-11.9482
▁넘언	-11.9482
▁넝쿨	-11.9482
▁넣으민	-11.9482
▁녹낭	-11.9482
▁녹대	-11.9482
▁녹으	-11.9482
▁다녓주	-11.9482
▁닭죽	-11.9482
▁등망머리	-11.9482
▁마갇이	-11.9482
▁멜망텡이	-11.9482
▁무르줴	-11.9482
▁뭉게	-11.9482
▁민간요법	-11.9482
▁바꼇디	-11.9482
▁뱅뱅뱅	-11.9482
▁보리끄르	-11.9482
▁사모님	-11.9482
▁손바닥	-11.9482
▁수왕수왕	-11.9482
▁수천복	-11.9482
▁어럭쉐	-11.9482
▁엉덩이	-11.9482
▁올토미	-11.9482
▁우체국	-11.9482
▁울퉁불퉁	-11.9482
▁움직여	-11.9482
▁웃슨당	-11.9482
▁웨냉국	-11.9482
▁읏인	-11.9482
▁젖어	-11.9482
▁젱ᄀᆞ레	-11.9482
▁조개송펜	-11.9482
▁조막단지	-11.9482
▁조크루	-11.9482
▁족은메누리	-11.9482
▁좋암직	-11.9482
▁중산간	-11.9482
▁초가지붕	-11.9482
▁최소한	-11.9482
▁텍일	-11.9482
▁해바레기	-11.9482
▁호랑겡이	-11.9482
▁훌터	-11.9482
▁휏바르	-11.9482
넥	-11.9482
툰	-11.9482
폰	-11.9482
휀	-11.9482
▁ᄌᆞ베낭	-11.9482
▁농기구	-11.9482
▁도꼬내	-11.9482
▁동짓덜	-11.9482
▁쓰레트	-11.9482
▁아버님	-11.9482
▁열나흘	-11.9482
▁자릿도새기	-11.9482
▁거욱대	-11.9482
▁깡통차기	-11.9482
▁모읜좁ᄊᆞᆯ	-11.9482
▁문지팡	-11.9482
▁윳가락	-11.9482
▁태어난	-11.9482
▁한남리	-11.9482
▁답례품	-11.9482
▁부스럼	-11.9482
▁ᄀᆞ는ᄀᆞ는	-11.9482
▁징뀌	-11.9482
사각형	-11.9482
▁뚜드려	-11.9482
▁두서너	-11.9482
▁멘듦	-11.9482
▁식혜	-11.9482
▁콩깍지	-11.9482
▁엿새미녕	-11.9482
▁ᄉᆞ간집	-11.9482
▁ᄌᆞᆷᄌᆞᆷ	-11.9482
▁사라얼	-11.9482
▁그신새	-11.9482
▁살림살이	-11.9482
▁솟단지	-11.9482
▁엉덕	-11.9482
▁초등ᄒᆞᆨ교	-11.9482
▁몽둥이	-11.9482
▁똑ᄀᆞ타	-11.9482
▁습진	-11.9482
▁뎅가리	-11.9482
▁데강이	-11.9482
▁불살라	-11.9482
▁아무래도	-11.9482
▁유잎	-11.9482
▁손의로	-11.9482
▁증조	-11.9482
▁하늘쿨	-11.9483
▁두들팡	-11.9483
▁쳇대기	-11.9483
▁스님	-11.9483
▁고비끼리	-11.9483
▁가마솟	-11.9483
▁육학년	-11.9483
▁목걸이	-11.9483
▁니껍	-11.9483
▁총칼	-11.9483
▁둥그렁	-11.9483
▁천구백	-11.9483
▁센티	-11.9483
▁조메떡	-11.9483
▁속중의	-11.9483
▁솔똥	-11.9483
▁소게바지	-11.9483
▁빙애기	-11.9483
▁화덕	-11.9483
▁싱싱	-11.9483
▁본명일	-11.9483
▁들꿰	-11.9483
▁바릇	-11.9483
▁축항	-11.9483
▁않으냐	-11.9484
▁육촌	-11.9484
▁치료헷수과	-11.9484
▁깍치메	-11.9484
▁ᄂᆞ물쿡	-11.9484
▁자빠져	-11.9484
▁사둔칩이	-11.9484
▁ᄑᆞ래	-11.9484
▁몰르키여	-11.9484
▁장례	-11.9484
▁치메저고리	-11.9484
▁뒷가지	-11.9484
▁양태판	-11.9484
▁쌀보리	-11.9484
▁장례식	-11.9485
▁누웡	-11.9485
▁코젱이	-11.9485
▁퉤비	-11.9485
▁팟죽	-11.9485
▁섯내	-11.9485
▁나이롱	-11.9485
▁갈치젓	-11.9485
▁올리면	-11.9485
▁제주돈	-11.9485
▁미릿	-11.9485
▁푸지게	-11.9485
▁유지름	-11.9485
▁이모네	-11.9485
▁전업	-11.9485
▁치메깍	-11.9486
▁조찦	-11.9486
▁짐녕	-11.9486
▁구월절	-11.9486
▁목초	-11.9486
▁셍겨	-11.9486
▁쓰무날	-11.9486
▁부제칩인	-11.9486
▁맛싯	-11.9486
▁씨아버지	-11.9486
▁비바리	-11.9486
▁봉덕불	-11.9486
▁감쥐	-11.9487
▁동솟	-11.9487
▁바구리	-11.9487
▁얼룩	-11.9487
▁메주콩	-11.9487
송에기	-11.9487
▁잔칠	-11.9487
▁마음대로	-11.9487
▁충분	-11.9487
▁지붕이기	-11.9488
▁모셧	-11.9488
▁버짝	-11.9488
▁도움	-11.9488
▁바가지	-11.9488
▁몽뎅이	-11.9488
▁잡혀	-11.9488
▁구둘	-11.9488
▁세벽	-11.9488
▁복부르기	-11.9489
▁곱으레	-11.9489
▁세화리	-11.9489
▁ᄀᆞ꾸레	-11.9489
▁정각	-11.9489
▁ᄎᆞᆷ겡이	-11.949
▁색동	-11.949
▁밀풀	-11.949
▁문대방	-11.949
▁과세	-11.949
▁ᄂᆞᆯ채	-11.9491
▁당오름	-11.9491
▁씨우는	-11.9492
▁생전	-11.9492
▁들어갑니다	-11.9492
▁버물영	-11.9492
▁분명	-11.9493
▁올라갈	-11.9493
ᄆᆞᆼ	-11.9493
▁좋주마는	-11.9494
▁굴렁	-11.9494
▁ᄆᆞᆯ렷당	-11.9495
▁이사ᄒᆞ는	-11.9495
▁내용	-11.9495
▁중시리	-11.9496
▁보쿠다	-11.9497
▁구름	-11.9497
▁누에치기	-11.9498
▁봐봅디가	-11.9499
▁교장	-11.9499
▁뀌영	-11.9499
▁미깡낭	-11.9499
▁벨떡	-11.9499
▁받으멍	-11.9499
▁박수	-11.9499
▁가름팟	-11.95
▁본적	-11.95
▁누까	-11.95
▁발달	-11.9501
▁비벼	-11.9501
▁냉중에	-11.9501
▁토성	-11.9502
▁좋아노난	-11.9503
집의서	-11.9503
▁실프	-11.9503
▁지냅니	-11.9503
▁지렝이	-11.9504
▁상자리	-11.9504
▁부께	-11.9504
▁장지까지	-11.9504
▁댕	-11.9504
▁원님	-11.9505
▁칠일날	-11.9505
▁표	-11.9506
▁여는	-11.9506
▁서북풍	-11.9506
▁놔둰	-11.9506
▁둘루	-11.9506
▁틔와근에	-11.9507
▁좁니다	-11.9507
▁모작	-11.9507
▁발래	-11.9507
▁사탕	-11.9508
▁산뒤찝으로	-11.9508
▁먹어봣수다	-11.9508
▁마드레	-11.9508
▁맞춰근에	-11.9509
▁박씨	-11.951
▁광어	-11.951
▁김치가	-11.9511
▁우두	-11.9511
▁실렁	-11.9511
▁디밀	-11.9512
▁무수국	-11.9512
▁되어	-11.9513
▁사돈칩이	-11.9513
▁행경	-11.9513
▁걸러근에	-11.9514
▁공동장	-11.9514
▁올린다	-11.9515
▁신체	-11.9515
▁정살	-11.9515
▁샌	-11.9516
▁장도리	-11.9516
▁산소	-11.9516
▁ᄌᆞᆯ레	-11.9516
▁물르레	-11.9517
▁채취허	-11.9517
▁변허	-11.9517
▁ᄒᆞ끔씩	-11.9518
▁닮수다	-11.9518
▁멘들앗수다	-11.9519
▁네귀	-11.9519
▁잊어불어	-11.9519
▁ᄂᆞᆯ낭	-11.9519
▁구물어	-11.952
▁불런	-11.952
▁실밥	-11.9521
▁일번	-11.9522
오야	-11.9522
▁팔일	-11.9522
▁뒈쿠다	-11.9522
▁잔디	-11.9523
▁해안	-11.9524
▁심은	-11.9524
▁가벼	-11.9524
▁잇엇는디	-11.9524
▁만허여	-11.9525
놔서	-11.9525
▁말덜	-11.9532
헤나민	-11.9532
▁한다리	-11.9532
▁경헷당	-11.9534
▁말축	-11.9534
▁잔디밧	-11.9535
▁주문	-11.9536
▁못하니까	-11.9536
▁잠녀들	-11.9537
▁오년	-11.9538
▁부르고	-11.9542
▁밀장	-11.9543
▁ᄉᆞᆷ젠	-11.9544
▁너네	-11.9544
끄멍	-11.9544
▁신도에서	-11.9544
▁민속촌에	-11.9545
▁집채	-11.9546
▁비온	-11.9547
▁옷들	-11.9548
▁상관엇고	-11.9548
▁사용허	-11.9549
▁올라오라	-11.9551
▁의지	-11.9551
▁나오란	-11.9551
십데다	-11.9552
▁도구들	-11.9552
▁말제라	-11.9552
▁질롸난	-11.9554
▁지둘르	-11.9555
▁힘들주	-11.9557
▁테도	-11.9557
▁종낭	-11.9557
▁엇어낫주	-11.9558
▁신사라로	-11.956
▁백중날	-11.956
▁방향으로	-11.9561
▁훼장	-11.9562
이랏주	-11.9562
▁참여	-11.9564
▁엄	-11.9564
▁놓믄	-11.9567
▁떠근에	-11.9568
▁울타리에	-11.9568
▁처냑	-11.9569
▁장국	-11.957
▁못헷어	-11.9573
▁넹기	-11.9573
▁끓여근에	-11.9573
▁가불언	-11.9574
▁잠데로	-11.9574
▁소곰물에	-11.9574
▁한식이	-11.9576
▁죽으난	-11.9577
▁열두시	-11.9577
▁안커리	-11.9578
▁살라	-11.9578
▁도구리에	-11.9579
뒈어	-11.958
▁낫당	-11.9581
▁발르	-11.9583
▁너비	-11.9584
▁ᄉᆞ이	-11.9584
▁먹어불어	-11.9584
▁섬비로	-11.9585
▁업서	-11.9585
▁비루	-11.9586
▁장구	-11.959
▁때라부난	-11.959
▁상대	-11.959
▁집어넣어	-11.9591
▁끝나면은	-11.9591
▁저걸	-11.9592
▁무끄주	-11.9593
▁ᄎᆞᆷ말	-11.9595
▁들어가난	-11.9596
중읜	-11.9596
▁헤낫는디	-11.9598
▁뒈불어	-11.9598
▁동광리	-11.9605
▁까시	-11.9605
▁복작	-11.9606
▁ᄇᆞᆯ르젠	-11.9606
▁빠지게	-11.9606
▁나감	-11.9607
▁이등	-11.9607
▁아지방	-11.9608
▁사용허고	-11.9613
▁뎅경	-11.9613
▁편지	-11.9613
▁옵니	-11.9614
▁세울	-11.9614
▁찍고	-11.9616
▁이쪽에서	-11.9617
▁호야	-11.9617
▁끌렷	-11.962
▁지레기	-11.962
▁놧던	-11.9623
▁주켄	-11.9623
▁베와주	-11.9625
▁헤나수	-11.9627
▁꼬짝	-11.9628
▁총체	-11.9629
▁헤엄	-11.963
▁환	-11.9633
▁검어	-11.9633
▁그릇이	-11.9635
▁해보	-11.9635
▁거뿐이주	-11.9635
▁초에	-11.9637
▁육지에서	-11.9638
▁열앙	-11.964
▁장테	-11.964
▁구진	-11.9641
▁들어오곡	-11.9642
▁시아	-11.9642
▁죽일	-11.9647
▁보리떡	-11.9651
▁발강	-11.9655
▁아젱이	-11.966
▁싫어	-11.9661
읍네다	-11.9661
▁헙	-11.9664
▁불쌍	-11.9665
▁뭐헤마씨	-11.9666
▁입단	-11.9666
▁밭에	-11.9666
▁가락	-11.9666
▁가불곡	-11.9667
▁지어난	-11.9669
▁질루고	-11.9669
▁니귀반득허게	-11.9669
지중	-11.9669
▁ᄆᆞᆯ리지	-11.967
▁보리ᄊᆞᆯ로는	-11.9671
▁헙주게	-11.9673
▁지금부터	-11.9673
시켜예	-11.9675
▁갑디다	-11.9676
▁미삐쟁이	-11.9676
▁ᄇᆞᆯ르주	-11.9676
▁쭈	-11.9676
▁고데	-11.9681
처근에	-11.9682
▁저쪽으로	-11.9682
▁동네라	-11.9683
어멍	-11.9683
▁돌앙	-11.9683
부럿주	-11.9683
▁털어진	-11.9683
▁ᄀᆞᆯ르	-11.9684
▁먹여	-11.9686
▁소나이	-11.9686
리젠	-11.9693
▁ᄆᆞᆯ르지	-11.9695
▁하님이	-11.9696
▁담그고	-11.9696
▁생기는	-11.9697
▁ᄀᆞᆯ젠	-11.9697
붑	-11.9697
▁ᄀᆞᆯ체에	-11.9699
▁모릅니	-11.9702
▁일구	-11.9703
▁놔둬도	-11.9703
▁처근에	-11.9706
▁짓엇주	-11.971
▁눈치	-11.971
▁심언	-11.9711
▁곳에	-11.9716
▁구루마로	-11.9716
▁ᄆᆞᆯ뱅이	-11.972
▁복삭허	-11.9725
▁틀리주	-11.9725
▁쓰면	-11.9726
▁질왓	-11.973
헴수게	-11.9732
▁가져가고	-11.9733
▁동세가	-11.9734
▁거껑	-11.9738
▁질루지	-11.9738
▁위해	-11.9738
자랑	-11.974
헷주만은	-11.9741
▁언마	-11.9742
갓주	-11.9744
▁ᄃᆞᆮ는	-11.975
▁조케덜	-11.9757
▁떡이라	-11.9758
부로	-11.9761
▁ᄉᆞᆷ지	-11.9766
▁할망상은	-11.9769
▁소까	-11.9771
▁들어가사	-11.9771
▁ᄆᆞᆯ방에서	-11.9772
▁ᄄᆞᆯ르	-11.9772
치면	-11.9773
▁말짜	-11.9773
▁갑서	-11.9781
▁끄시	-11.9784
▁잇어낫수	-11.9789
▁보리범벅	-11.9793
▁제숙은	-11.9797
▁한자	-11.9799
▁떨어지면	-11.9799
▁농산	-11.9801
▁장통	-11.9802
▁벌엉	-11.9812
▁벳겨진	-11.9813
구젱	-11.9813
▁상식은	-11.9817
▁시작허여	-11.9817
▁지우	-11.9819
▁ᄃᆞᆷ가	-11.9824
름에	-11.9824
▁유지	-11.9825
▁검질메고	-11.9827
▁방울이	-11.983
▁좋아낫저	-11.983
▁찍신은	-11.983
▁펜펜ᄒᆞ	-11.9832
▁하하하하하	-11.9834
▁호우	-11.9835
▁가실	-11.9837
▁내부난	-11.9843
▁가마에	-11.9857
▁고치를	-11.9859
낫수	-11.986
▁시꺼와	-11.9861
▁기다	-11.9862
▁들려	-11.9862
▁친척들	-11.9867
▁받아서	-11.9871
▁베라	-11.9872
쑤다	-11.9873
▁막음	-11.9874
▁말하면	-11.9876
▁친정에는	-11.988
▁밥허민	-11.9882
▁헤사주게	-11.9883
▁주재소	-11.9885
▁올라가지	-11.9887
▁ᄌᆞ배기도	-11.989
▁더우	-11.9894
▁ᄒᆞ듯	-11.9896
▁후로	-11.9896
▁따는	-11.9899
▁ᄇᆞᆲ는	-11.9906
▁사월에	-11.9907
▁모지	-11.9907
▁먹기가	-11.9907
▁허염	-11.9908
▁짓이라	-11.9911
▁마련헤	-11.9911
▁속은	-11.9914
▁올리주	-11.9916
▁장아찌는	-11.9921
▁빼여	-11.9925
시린	-11.993
▁양발	-11.993
▁놈덜	-11.9932
리나	-11.9935
▁그러지	-11.9943
▁뭇은	-11.9945
▁조용	-11.9948
▁한쪽에	-11.9951
▁다친	-11.9952
▁안목	-11.9957
▁사멍	-11.9957
▁비자	-11.9958
▁이름으로	-11.9964
▁조밧에	-11.9965
▁입춘은	-11.9966
▁털어지지	-11.9967
▁ᄎᆞᆯ레는	-11.9969
▁때쯤	-11.9974
▁때ᄁᆞ장	-11.9974
릅니다	-11.9974
▁쉬민	-11.9975
▁ᄃᆞ시	-11.9978
▁가낫주	-11.9978
사신디	-11.998
▁하난에	-11.9982
▁ᄐᆞ나지	-11.9988
수룩	-11.9989
▁말들이	-11.9991
옥	-11.9995
먹곡	-12
▁비슷허	-12.0008
▁족으	-12.0008
▁우리말	-12.0012
▁교대	-12.0019
▁먹어봣주	-12.0024
▁못헤서	-12.0027
▁만들어난	-12.0028
▁놔두지	-12.0034
▁불려나	-12.0038
▁동지에	-12.004
긴디	-12.0041
▁달아	-12.0044
▁입으	-12.0046
▁영허멍	-12.005
▁대여	-12.0051
▁납작허게	-12.006
▁놔부난	-12.0061
▁곱을	-12.0061
▁뒈었	-12.0063
비엉	-12.0066
▁봉가오	-12.0069
▁밀민	-12.0072
▁두껍	-12.0073
▁부럿	-12.0083
▁지름도	-12.0087
체로	-12.0088
▁무서	-12.009
▁ᄌᆞᆯ르	-12.0091
▁벌리	-12.0093
나마	-12.0096
▁비리	-12.0096
▁심심허	-12.0099
▁바구니에	-12.0102
엇는디	-12.0103
▁가긴	-12.0116
▁잇언게	-12.0124
▁메역만	-12.0127
▁단오에	-12.0141
▁뜨뜻허	-12.0143
▁소랑소랑	-12.0145
▁갈멍	-12.0155
끌락	-12.0156
▁조낭	-12.0158
▁어떵허	-12.016
▁피고	-12.0161
▁벌초허	-12.0166
▁날려	-12.017
▁이발	-12.0172
들이나	-12.0173
▁딴딴	-12.0173
▁춘이	-12.0174
준다	-12.0175
▁반장이	-12.0175
▁밧이난	-12.0178
▁조름	-12.0185
▁절기에	-12.0185
ᄒᆞᆨ교	-12.0189
▁만씩	-12.0189
▁산으로	-12.019
▁성질이	-12.0193
▁ᄆᆞᆯ벵이	-12.0193
▁외도	-12.0197
▁좋아사	-12.0198
뒈니까	-12.0199
▁시에서	-12.0207
잇는	-12.0211
랏주	-12.0212
후	-12.0216
▁고구마를	-12.022
겟지	-12.0236
▁어려왓	-12.0236
와근엥	-12.0238
▁멘딱	-12.0238
▁대우	-12.0247
앗주	-12.0249
▁줍디	-12.0256
▁쓰다	-12.0257
▁받아야	-12.026
▁구해	-12.0263
▁삿갓도	-12.0264
▁후제는	-12.0265
척	-12.0267
▁우미는	-12.0271
▁집어넣	-12.0272
묵	-12.0273
택	-12.0273
▁ᄆᆞᆯ르면	-12.0275
없	-12.0276
시대	-12.0278
우고	-12.028
보라	-12.0294
뭐	-12.03
▁흘러	-12.0307
범벅도	-12.031
▁일러불	-12.0313
찝	-12.0313
깨	-12.0315
떵	-12.0316
▁부잣집이	-12.0321
▁ᄇᆞᆰ으	-12.0328
▁담갓다	-12.0328
▁떡허고	-12.0332
턱	-12.0333
칸	-12.0333
돔	-12.0334
지듯	-12.0337
촐	-12.0338
뎅경	-12.0338
꽃	-12.0339
아젼	-12.0339
셋	-12.034
댓	-12.0343
함	-12.0344
송아지	-12.0346
책	-12.0346
뗀	-12.0346
반찬	-12.0347
붓	-12.0347
▁똑ᄀᆞ	-12.0347
갠	-12.0347
헙니께	-12.0347
▁구완	-12.0351
그르	-12.0355
엿어	-12.0357
스레	-12.0359
아지고	-12.0363
▁아들도	-12.037
바진	-12.037
▁아녀서	-12.0372
헙서	-12.0375
거튼	-12.0375
▁가정에	-12.0376
▁베클에	-12.0378
각으로	-12.038
▁딸리는	-12.0383
부락	-12.0383
나십주	-12.0383
▁건드리면	-12.0385
이로구나	-12.039
▁죽만	-12.0391
▁거기를	-12.0394
▁시철	-12.0397
군데	-12.04
▁저짝	-12.0402
▁허트	-12.0403
바리	-12.0404
▁멕엿	-12.0406
▁놔둿다	-12.041
▁베우	-12.0412
▁시나	-12.0413
들영	-12.0415
▁싸와	-12.0417
없이	-12.0417
겟습니다	-12.0419
▁무신거여	-12.042
▁벌기	-12.0421
▁ᄀᆞ뜨게	-12.0422
▁엇어저	-12.0422
▁돗베	-12.0423
▁ᄀᆞ늘	-12.0424
▁탁허게	-12.0426
어본	-12.0438
상처	-12.0438
▁올려놔	-12.0439
▁괴	-12.0439
처베	-12.0441
▁끗나면	-12.0444
▁멕인	-12.0446
엇구나	-12.0446
▁도리깨	-12.0447
▁ᄉᆞ레비	-12.0448
럿	-12.0454
▁ᄂᆞ람	-12.0454
▁넴	-12.0457
▁절벤본	-12.0457
▁많앗주	-12.0461
▁ᄋᆢᆷ	-12.0462
우레	-12.0462
▁와난	-12.0463
ᆷ	-12.0465
▁곤ᄊᆞᆯ에	-12.0466
잖	-12.0467
되는	-12.0467
▁해낫수다	-12.0469
▁등덜펭	-12.0473
▁비린	-12.0475
팟듸	-12.0475
▁ᄊᆞᆱ아	-12.0475
율	-12.0477
▁ᄒᆞ엿주	-12.0479
춰	-12.0479
뭄	-12.0481
▁안허면	-12.0481
잖우과	-12.0481
빛	-12.0482
칵	-12.0482
▁너패	-12.0482
팬	-12.0482
▁ᄂᆞ래미	-12.0482
▁ᄌᆞᆸ아뎅기	-12.0482
▁ᄎᆞᆷ제완지	-12.0482
▁가위바위보	-12.0482
▁개윗지둥	-12.0482
▁고맙수다	-12.0482
▁공짜로	-12.0482
▁궁둥ᄌᆞ베기	-12.0482
▁그렇다	-12.0482
▁낚베	-12.0482
▁넉둥배기	-12.0482
▁넙작	-12.0482
▁닫아	-12.0482
▁당ᄄᆞ르	-12.0482
▁대거름체	-12.0482
▁댕유지	-12.0482
▁돌포말	-12.0482
▁동백동산	-12.0482
▁두르마기	-12.0482
▁뒙주	-12.0482
▁땅뺏기	-12.0482
▁마늘장아찌	-12.0482
▁마리귀클	-12.0482
▁멘네ᄃᆞ레	-12.0482
▁묶음	-12.0482
▁미륵당	-12.0482
▁베넷머리	-12.0482
▁베또롱줄	-12.0482
▁베롱베롱	-12.0482
▁봇딋적삼	-12.0482
▁뺑이치기	-12.0482
▁서문통	-12.0482
▁쉐뿔ᄂᆞᆷ삐	-12.0482
▁싣거	-12.0482
▁않어	-12.0482
▁암ᄏᆞ	-12.0482
▁어랑어랑	-12.0482
▁오재미	-12.0482
▁웨걍목	-12.0482
▁웬보말	-12.0482
▁잘락잘락	-12.0482
▁저렇게	-12.0482
▁정당벌립	-12.0482
▁정짓방석	-12.0482
▁조컴질	-12.0482
▁주근깨	-12.0482
▁지겟문	-12.0482
▁짇엉	-12.0482
▁케파장	-12.0482
▁코ᄐᆞ데기	-12.0482
▁태성벡이	-12.0482
▁확허게	-12.0482
▁훍고	-12.0482
▁흉년	-12.0482
렐	-12.0482
슈	-12.0482
읫	-12.0482
▁가당오당	-12.0482
▁고래시	-12.0482
▁능력	-12.0482
▁대소간	-12.0482
▁돌쩌귀	-12.0482
▁메옹기	-12.0482
▁미투리	-12.0482
▁보따리	-12.0482
▁숫토리	-12.0482
▁앞섶	-12.0482
▁인절민	-12.0482
▁촛불	-12.0482
▁하우스	-12.0482
▁홅아	-12.0482
▁갈장귀	-12.0482
▁다래끼	-12.0482
▁문다닥지	-12.0482
▁유센지	-12.0482
▁잇잖으냐	-12.0482
▁정월보름	-12.0482
▁큰아ᄃᆞᆯ	-12.0482
▁흑벙에	-12.0482
▁불림질	-12.0482
▁초ᄒᆞ를	-12.0482
▁능와	-12.0482
▁닮안게	-12.0482
▁신풍리	-12.0482
▁안ᄒᆞ우꽈	-12.0482
▁엿기름	-12.0482
▁젯그릇	-12.0482
▁도르기	-12.0482
▁쉐스랑	-12.0482
▁못뻬기	-12.0482
▁칠팔월	-12.0482
▁튼내지	-12.0482
거들랑	-12.0482
▁밀주시	-12.0482
▁도야지고기	-12.0482
▁알게미젓	-12.0482
▁군버짐	-12.0482
▁재미있	-12.0482
▁여쭤보쿠다	-12.0482
▁저물떡	-12.0482
▁빙원에	-12.0482
▁니벳떼기	-12.0482
▁도깨아덜	-12.0482
▁부추김치	-12.0482
▁평소에	-12.0482
▁냇겡이	-12.0482
▁ᄑᆞᆸ	-12.0482
▁군벗	-12.0482
▁저바당	-12.0482
▁보릿ᄀᆞ르	-12.0482
▁솔가리	-12.0482
▁찰찰	-12.0482
▁시나노	-12.0482
▁ᄀᆞᄋᆞᆯ	-12.0482
▁좁팝	-12.0482
▁하여간	-12.0482
▁굴중이	-12.0482
▁앙토	-12.0482
▁가파도	-12.0483
▁새우젓	-12.0483
▁고칫ᄀᆞ루	-12.0483
▁권복	-12.0483
▁뚜꺼운	-12.0483
▁어지렁	-12.0483
▁윳판	-12.0483
▁화북	-12.0483
▁바나나	-12.0483
▁총각짐치	-12.0483
▁갯ᄂᆞ물짐치	-12.0483
▁뒤칙이	-12.0483
▁소랑중	-12.0483
▁군대환	-12.0483
▁ᄉᆞᆷ빡	-12.0483
▁화재	-12.0483
▁ᄌᆞᆫ베설	-12.0483
▁빙에기	-12.0483
▁족은아들	-12.0483
▁몰람	-12.0483
▁굴뚝	-12.0483
졸졸졸	-12.0483
▁운동화	-12.0483
▁치마저고리	-12.0483
▁모르키여	-12.0483
▁꼴렝이	-12.0483
▁벤자리	-12.0483
▁가문반	-12.0483
▁납읍	-12.0483
▁너패국	-12.0483
▁초불검질	-12.0483
▁노내기	-12.0484
▁우렁메	-12.0484
▁키웁	-12.0484
▁일정하게	-12.0484
▁찝뎅이	-12.0484
▁적감밧	-12.0484
▁푸께낭	-12.0484
▁가르쳐	-12.0484
▁쭉쭉	-12.0484
▁벽치기	-12.0484
▁귀자귀	-12.0484
▁털멩이	-12.0484
▁무지려	-12.0484
▁히린	-12.0484
▁오단	-12.0484
▁유족	-12.0484
▁강원도	-12.0484
▁웅메	-12.0485
▁웡이	-12.0485
▁코셍이	-12.0485
▁히히	-12.0485
▁콩찦	-12.0485
▁어딧수과	-12.0485
▁쑤무	-12.0485
▁복젱이	-12.0485
▁쓸모	-12.0485
▁동김치	-12.0485
▁엽전	-12.0485
▁동셍	-12.0485
▁가시리풀	-12.0486
▁머리빡	-12.0486
▁숨통	-12.0486
▁쪼개	-12.0486
▁수컷	-12.0486
▁키원	-12.0486
▁황소	-12.0486
▁콩ᄁᆞ루	-12.0486
▁골보리	-12.0486
▁고넹이	-12.0486
▁대섶	-12.0487
▁질문할	-12.0487
▁비율	-12.0487
▁칠월절	-12.0487
▁ᄃᆞᆷ그	-12.0487
▁목감	-12.0487
▁ᄆᆞᆯ빵	-12.0487
▁유체	-12.0488
▁잘살아	-12.0488
▁곳간	-12.0488
▁큰아버지	-12.0488
▁틀립니다	-12.0488
▁잇잖여	-12.0488
▁선반	-12.0488
뚜룩	-12.0488
▁망울	-12.0489
▁백반	-12.0489
▁ᄀᆞᆯ게기	-12.0489
▁벵작	-12.0489
▁올라올	-12.0489
▁데페	-12.0489
▁엇입니다	-12.0489
▁환자	-12.049
▁테워	-12.049
▁통채	-12.049
▁ᄃᆞᆯ메기	-12.049
▁명주실	-12.049
▁조왕신	-12.049
▁뼈	-12.049
▁즐	-12.049
실거여	-12.0491
▁콩밭	-12.0491
▁손가락떡	-12.0491
▁외국	-12.0491
▁설립	-12.0491
▁보선창	-12.0491
▁얼매	-12.0492
▁전반	-12.0492
▁ᄀᆞᇀ아	-12.0492
▁멘들암	-12.0492
▁ᄆᆞᆯ그랑	-12.0492
▁ᄊᆞᆱ아근에	-12.0493
▁집례	-12.0493
넷수과	-12.0493
▁고렴	-12.0494
▁천막	-12.0494
▁목시물	-12.0494
▁술잔	-12.0494
▁들여놔	-12.0494
▁ᄀᆞᆷ앙	-12.0494
▁줄보리	-12.0494
▁빠다	-12.0495
▁신촌	-12.0495
▁얼먹어	-12.0495
▁내려왕	-12.0495
▁콩쿨	-12.0495
▁부르멍	-12.0495
▁버슬언	-12.0496
▁쪼꼼씩	-12.0496
▁주먹	-12.0496
▁우렁	-12.0496
▁터배	-12.0496
▁고소	-12.0496
▁노끈	-12.0496
▁ᄀᆞᆯ앗주만은	-12.0497
▁심글	-12.0498
▁정새	-12.0498
▁동남	-12.0499
▁쉐왕간	-12.0499
▁잇입니다	-12.0499
▁오리양	-12.05
▁밧고지	-12.05
▁장군	-12.0501
▁재건	-12.0502
▁무청	-12.0502
▁산림	-12.0502
▁어섯수다	-12.0502
▁올련	-12.0502
▁방돌	-12.0502
▁ᄀᆞᆫ물	-12.0503
▁모멀떡	-12.0503
▁만원	-12.0503
▁콩농사	-12.0503
▁대중	-12.0503
▁서알	-12.0504
우까	-12.0504
▁노인당에서	-12.0505
▁햇거든	-12.0505
▁삼ᄉᆞ	-12.0505
▁뒈나마나	-12.0506
▁체경	-12.0507
▁들러지	-12.0507
▁속떡	-12.0507
▁없거든	-12.0507
▁동지죽	-12.0507
▁장화	-12.0507
▁파랑헌	-12.0508
▁ᄈᆞ사	-12.0508
▁권	-12.0508
▁요만큼썩	-12.0509
▁곱음	-12.051
▁연결시키	-12.051
▁텃	-12.051
▁갯	-12.051
▁하르버지네	-12.051
▁고친	-12.0511
▁밥풀	-12.0511
▁유죽	-12.0511
▁ᄊᆞᆯ죽	-12.0512
▁깅이죽	-12.0512
▁들어봣어	-12.0512
▁터졍	-12.0512
▁물황	-12.0513
▁요즘처럼	-12.0513
▁캐레	-12.0513
▁잘잘	-12.0513
▁여산	-12.0514
▁ᄊᆞᆯ망	-12.0514
▁씨앗	-12.0514
▁장귀	-12.0514
▁알아지는디	-12.0515
▁보켄	-12.0515
▁ᄌᆞᆷ지롱	-12.0515
▁내민	-12.0516
▁ᄆᆞᆫ직	-12.0518
▁어멍넨	-12.0518
▁놀아난	-12.0518
▁용수	-12.0519
▁먹어본	-12.052
▁호텔	-12.052
▁목욕허	-12.0521
▁희여	-12.0521
트로	-12.0521
▁죽창	-12.0522
▁황당	-12.0523
▁철사	-12.0523
▁끗뎅이	-12.0523
▁껌	-12.0523
▁ᄂᆞᄆᆞᆯ이	-12.0524
▁들어왓젠	-12.0524
▁ᄃᆞᆯ아졍	-12.0524
▁유명허	-12.0526
▁지쳐	-12.0526
▁캐영	-12.0526
▁좋아마씀	-12.0526
▁메누리덜	-12.0527
▁매운	-12.0528
드렌	-12.0529
▁가정에서	-12.053
▁애기덜이	-12.053
▁방향이	-12.053
▁못헙니다	-12.0534
▁낭이라	-12.0534
▁폐	-12.0534
▁걸렸	-12.0535
▁탐	-12.0535
▁소리낭	-12.0535
▁운동장	-12.0536
▁ᄑᆞᆯ아불	-12.0536
▁먹엇다	-12.0536
▁집가지	-12.0536
▁고마	-12.0536
▁썻어	-12.0537
▁차두	-12.0538
▁연구	-12.0539
▁눈치기	-12.054
▁불공	-12.0541
▁무릉	-12.0542
▁아념	-12.0543
▁쉐석	-12.0543
▁우비	-12.0545
▁멕인다	-12.0545
▁나록이	-12.0545
시킬	-12.0545
▁연령	-12.0545
▁조레기	-12.0546
▁잡히	-12.0547
▁제비	-12.0548
▁부끄지	-12.0548
▁찦	-12.0548
▁피부	-12.0548
▁다꽝	-12.0548
▁밴	-12.0549
▁여저들	-12.0549
▁짐작으로	-12.055
▁ᄃᆞᆯ아져	-12.055
▁국제	-12.0551
▁머세	-12.0551
▁헤먹곡	-12.0552
▁할망신디	-12.0553
▁겁디다	-12.0553
▁뿔어	-12.0554
▁감젠	-12.0554
▁좋안게	-12.0555
▁결	-12.0557
▁누리	-12.0557
▁보니	-12.0558
ᄀᆞ렌	-12.0559
▁연실	-12.0562
▁쏠	-12.0563
▁만일	-12.0563
▁무꺼져	-12.0564
▁다음부터	-12.0564
분들은	-12.0564
▁근은대	-12.0565
▁보리채	-12.0565
▁녹듸죽은	-12.0566
▁낭불	-12.0566
▁말목	-12.0566
▁뒈젠	-12.0566
▁수망리에서	-12.0568
▁사우	-12.0568
▁상관엇	-12.0571
▁쓰물	-12.0572
▁키와근에	-12.0575
▁벌레기	-12.0576
리왕	-12.0577
▁먹거든	-12.0577
▁허제	-12.0579
▁ᄒᆞ여난	-12.0579
▁구엉	-12.0579
▁짜지	-12.0579
▁죽어불민	-12.058
▁무룩	-12.058
▁ᄆᆞ사	-12.058
▁이섯수다	-12.058
▁ᄒᆞᆫ줌	-12.0581
▁수메	-12.0583
▁이후에	-12.0583
▁ᄌᆞ손덜	-12.0583
▁셋복	-12.0584
▁올라가면	-12.0585
▁사람안티	-12.0586
▁놈들이	-12.0587
▁위험허	-12.0587
▁섬비를	-12.0588
▁가스	-12.0589
▁시까지	-12.0589
▁내령	-12.059
▁흐린좁ᄊᆞᆯ로	-12.0592
▁국자	-12.0592
▁끊어져	-12.0593
▁셀	-12.0595
▁둥지	-12.0596
▁ᄄᆞ라가	-12.0597
▁ᄉᆞᆼ키로	-12.0597
▁그듸서	-12.0597
▁남원이	-12.0598
▁불러난	-12.0598
▁감저범벅	-12.0599
▁탕건도	-12.0601
▁지물	-12.0602
▁묻어근에	-12.0603
▁늘어나	-12.0603
▁신구	-12.0606
▁조크르	-12.0608
▁제거	-12.061
▁왜정시대에	-12.061
▁시내	-12.0611
▁죽엇다	-12.0612
▁다니곡	-12.0613
▁섯ᄃᆞᆯ에	-12.0616
▁아무상	-12.0616
▁멧밥	-12.0616
▁뭣이엔	-12.0621
▁놔둬근에	-12.0624
▁상대방이	-12.0626
▁봅디	-12.0634
내고	-12.0638
▁알기로	-12.0639
▁굴에	-12.0644
▁원미	-12.0645
미로	-12.0646
▁절간에서	-12.0647
▁겅헤영	-12.0648
▁봐저	-12.065
경에	-12.0652
▁지금ᄁᆞ지	-12.0654
▁소용	-12.0655
▁비어근엥	-12.0661
▁미녕옷	-12.0664
▁ᄃᆞᆺ으	-12.0665
▁기정	-12.0667
▁원씩	-12.0668
▁혼수는	-12.0669
▁ᄃᆞᆼ갓	-12.0671
▁맞추기	-12.0671
▁산듸밥	-12.0672
▁맞으면	-12.0674
▁너르	-12.0676
허카부덴	-12.0678
▁후엔	-12.0678
▁마마	-12.068
둬서	-12.068
▁새각시상	-12.0681
▁사용헷주	-12.0685
▁비와근에	-12.0691
▁돌테	-12.0693
▁정자	-12.0694
▁소원	-12.0695
▁벨거	-12.0695
▁연싸움은	-12.0698
▁쉐촐로	-12.0698
▁파레	-12.0699
▁갈라진	-12.0704
허우다	-12.0705
▁들어오라	-12.0705
▁광목이나	-12.0706
꼬박	-12.0707
▁일정허게	-12.0708
▁ᄂᆞᆷ들	-12.0708
왓수다	-12.0711
▁동물	-12.0714
▁공들이	-12.0716
▁잘헤여	-12.0718
▁더끄민	-12.0719
▁사십팔	-12.0721
미엔	-12.0722
▁민짝	-12.0724
▁빌어서	-12.0724
▁초상덜	-12.0724
▁거청	-12.0725
▁주난에	-12.0732
▁밀멍	-12.0734
▁싯나	-12.0734
▁운가	-12.0735
롸근에	-12.0737
▁들기	-12.0737
▁인칙이	-12.0738
▁삼각	-12.074
▁가불어	-12.074
▁ᄆᆞ믈로	-12.0744
▁귀하	-12.0745
▁왕대로	-12.0746
▁십니다	-12.0746
▁생각으로	-12.0746
▁가운데로	-12.075
▁톨밥은	-12.075
▁초불에	-12.0754
▁양념으로	-12.0756
▁이거야	-12.0756
▁속곳만	-12.0758
▁함덕서	-12.076
▁들어갓다	-12.0761
▁나나민	-12.0762
다시	-12.0764
와가민	-12.0764
▁절변은	-12.0765
▁상주덜	-12.0766
▁질메엔	-12.0766
▁우스	-12.0766
▁잇어나신고	-12.0769
▁이녁네	-12.077
▁ᄀᆞᆯ안게	-12.0772
▁허냐	-12.0773
▁무신거옌	-12.0774
▁재로	-12.0779
리왓당	-12.078
▁어섯	-12.0783
다닥	-12.0784
▁옵디	-12.0786
▁놓면서	-12.0787
▁깨끗허	-12.0789
펭이	-12.0801
▁흐린좁ᄊᆞᆯ은	-12.0803
▁걸음	-12.0806
▁헤나면	-12.081
▁심어야	-12.0811
려뒁	-12.0811
▁아까왕	-12.0812
▁돌아서	-12.0812
신가마씸	-12.0815
▁보리썰에	-12.0818
▁고디	-12.0818
▁절루	-12.0822
▁입춘에	-12.0822
▁돌덜	-12.0824
▁메밀로	-12.0827
▁막상	-12.0829
▁수수	-12.0831
▁내년에	-12.0836
수매	-12.0844
▁홍역이	-12.0845
▁일들이	-12.0845
▁나뒁	-12.0849
▁때꺼지	-12.085
▁뒌디	-12.0866
▁하부난	-12.0868
▁제ᄉᆞ에	-12.0868
▁ᄂᆞ리와	-12.0871
▁아ᄃᆞᆯ	-12.0882
불엄주	-12.0882
▁소허고	-12.0885
▁선수	-12.089
▁파야	-12.0894
▁뎅기기	-12.0902
십육	-12.0906
▁떡이옌	-12.0906
▁태풍	-12.0906
▁우엔	-12.0909
▁사시	-12.0912
▁봉우	-12.0917
▁바닷물에	-12.0924
둡니까	-12.0924
가난에	-12.0925
▁지질	-12.0925
▁말씩	-12.0927
▁풍선이	-12.0931
▁수리	-12.0933
▁통차	-12.0934
▁재주	-12.0934
▁버리면	-12.094
▁후라이판에	-12.0947
▁박세기에	-12.0947
▁물어봐	-12.095
거꽈	-12.095
▁해수다	-12.0951
▁한장	-12.0954
보면	-12.0955
▁폭도덜	-12.0955
▁노나	-12.0958
▁방아	-12.0969
▁갈레	-12.0977
▁풀리	-12.098
▁신구간은	-12.0982
▁궨당이	-12.0984
께미	-12.0989
▁포적이	-12.0995
▁아침은	-12.1
▁멩지에	-12.1001
▁이미	-12.1002
▁뜯어다	-12.1011
두리	-12.1014
▁차지	-12.102
옷으로	-12.1024
▁잇어수과	-12.1028
▁하질	-12.1029
▁미만	-12.1031
▁등바	-12.1031
▁놈들	-12.1033
▁가의	-12.104
▁ᄆᆞᆯ아당	-12.1046
▁기분이	-12.1051
▁멕엿주	-12.1051
▁포구	-12.1057
▁돌리고	-12.1063
▁질들	-12.1063
▁ᄃᆞᆨ죽도	-12.1066
오기	-12.1073
▁근처	-12.1074
칙이	-12.1075
▁똥글랑	-12.1078
월ᄃᆞᆯ에	-12.1078
▁어깨에	-12.1082
▁경허지	-12.1083
▁페와지	-12.1088
▁일수	-12.1093
▁길들이는	-12.1094
▁상제들	-12.1094
개로	-12.1095
▁시라	-12.1105
▁말한	-12.1106
▁테왁은	-12.1107
▁만서	-12.1108
부리민	-12.1112
▁뎅겨보	-12.1112
▁연장들	-12.1113
불엇구나	-12.1122
▁남쪽에	-12.1125
와당	-12.1127
▁무껏	-12.1129
▁뒈엄	-12.1134
▁무너지	-12.1135
▁약헤	-12.1142
▁뛰어가	-12.1145
육년	-12.115
허듯	-12.1152
시라	-12.1156
▁보리하고	-12.1157
▁안헤난	-12.116
어주고	-12.1161
▁봐수다	-12.1168
▁소식	-12.1171
▁섭섬	-12.1171
▁라면	-12.1172
▁주서다	-12.1179
▁바당물에	-12.1183
▁불어나	-12.1188
▁앚앗	-12.1191
▁거려다	-12.1197
놀	-12.1199
▁살아져	-12.1201
▁ᄉᆞᆱ아서	-12.1213
▁같은디	-12.1216
▁건강허	-12.1217
▁엇입	-12.1222
▁군인덜이	-12.1222
▁넘어나	-12.1223
▁둘르	-12.1228
▁보관헷	-12.1234
▁어쩌	-12.1241
겡	-12.1241
▁냥으로	-12.1243
▁길들이	-12.1245
▁꺼꺼지	-12.125
▁사름이라도	-12.1251
▁쉰다	-12.1253
▁지들커는	-12.1254
▁살짝	-12.1257
▁ᄎᆞᆷ낭	-12.1266
사람들	-12.1269
▁찬물	-12.127
▁고구마로	-12.1271
▁흐르	-12.1276
▁ᄐᆞᆫᄐᆞᆫ허	-12.1279
▁허기는	-12.128
▁낫게	-12.1283
▁벗겨	-12.1287
우리	-12.1287
▁찍언	-12.1288
▁쓰러	-12.1288
▁갯ᄀᆞᆺ	-12.1289
▁구식	-12.1291
▁구뎅	-12.1291
▁비로	-12.1311
▁준비해	-12.1311
▁필이	-12.1312
▁밤인	-12.1315
▁갑디	-12.1316
▁껍질이	-12.1317
▁젓지	-12.132
▁듼	-12.1322
▁고라	-12.1326
▁봣지	-12.1327
▁길쭉	-12.1345
▁장담	-12.1347
▁이마	-12.1348
▁후손	-12.1349
▁동골락	-12.135
왁	-12.1353
엿구나	-12.1354
▁설러불엇	-12.1357
나물	-12.136
▁구허	-12.136
▁가져오는	-12.1366
▁잇이면	-12.1369
자면	-12.1371
▁궤어	-12.1374
트레	-12.1374
▁박아져	-12.1377
▁손지들	-12.138
▁ᄆᆞᆯ롸	-12.1381
▁삿주	-12.1382
징	-12.1388
▁택	-12.1389
웃	-12.1391
▁공들	-12.1393
▁올랏	-12.1393
주켄	-12.1393
▁질로	-12.1395
▁겡헤	-12.1407
햄	-12.1409
집에서	-12.141
▁지낸	-12.1418
목장이	-12.1421
션	-12.1431
▁도장	-12.1433
▁잊어불엇	-12.1435
삼춘	-12.1443
참	-12.1445
곽	-12.1446
흔	-12.1448
푼	-12.145
▁떡이나	-12.145
꼭	-12.1451
컷	-12.1451
▁조직	-12.1451
솔	-12.1452
▁아녀주	-12.1452
늬	-12.1453
▁모살이	-12.1453
셩	-12.1453
져신가	-12.1454
취	-12.1454
찻	-12.1454
웬	-12.1454
▁ᄀᆞᆯ아낫	-12.1454
맬	-12.1454
일뤠	-12.1455
첫	-12.1455
▁폭도들	-12.1455
줏	-12.1455
홍	-12.1455
있	-12.1456
넹국	-12.1456
밋	-12.1456
숨	-12.1458
꼽	-12.1459
지짐이	-12.1459
그렇게	-12.1459
지카	-12.1459
종류	-12.146
잔치	-12.146
▁살아보	-12.1464
빌레	-12.1466
도고리	-12.1468
탕건	-12.1469
▁꺽	-12.1472
어머닌	-12.1472
▁쪼꼴락	-12.1477
하동	-12.1477
▁일본시대	-12.1478
자꾸	-12.1478
▁박삭	-12.1479
▁아이꽈	-12.148
▁고내봉	-12.1482
뒈면은	-12.1483
▁하근	-12.1487
▁가낫저	-12.1488
앗저	-12.1489
▁나무나	-12.1493
누인	-12.1494
쪄근에	-12.1495
직허게	-12.1501
간장	-12.1506
아래	-12.1508
▁언주	-12.1509
▁막장	-12.1514
▁고동이	-12.1518
▁둥굴	-12.1521
▁논밧	-12.1525
▁여깃	-12.1531
▁쳉멩	-12.1534
▁먹읍디	-12.1534
▁베꼇	-12.1536
▁오수	-12.1537
헷고	-12.1542
▁멘글	-12.1549
▁허더라	-12.1553
▁던드렁마께	-12.1559
적인	-12.1563
▁사람이라	-12.1567
▁흐린좁썰	-12.1569
▁밖	-12.1571
▁비석이	-12.1573
▁ᄀᆞ새	-12.1573
룻	-12.1576
▁헝겊	-12.1577
꼼	-12.158
▁설탕이	-12.1584
냄	-12.1586
▁ᄊᆞᆱ	-12.1586
▁면사무소	-12.1587
꼇	-12.1588
▁숫굿	-12.1588
느녜	-12.1589
켯	-12.159
뤄	-12.1591
뚝	-12.1592
쌈	-12.1592
측	-12.1592
▁시부모	-12.1593
즈	-12.1593
쳉	-12.1593
▁몽ᄏᆞ레	-12.1593
▁빗자루	-12.1593
▁튿엉	-12.1593
▁할으부지	-12.1593
균	-12.1593
멤	-12.1593
퇴	-12.1593
ᄄᆞᆨ	-12.1593
▁ᄀᆞ는대구덕	-12.1593
▁ᄀᆞ세ᄂᆞ멀	-12.1593
▁ᄆᆞᆼ생이	-12.1593
▁ᄉᆞ밋부리	-12.1593
▁ᄌᆞᆨ앙	-12.1593
▁ᄍᆞᆫ물	-12.1593
▁ᄎᆞᆸ쌀	-12.1593
▁감저뻿데기	-12.1593
▁강태공	-12.1593
▁고니풀	-12.1593
▁고분뎃밧물	-12.1593
▁골동품	-12.1593
▁관광버스	-12.1593
▁까맣게	-12.1593
▁깍치마	-12.1593
▁끓어	-12.1593
▁낳아	-12.1593
▁넉동베기	-12.1593
▁넘피	-12.1593
▁넙죽넙죽	-12.1593
▁네귀방장	-12.1593
▁녹나무	-12.1593
▁늿껍	-12.1593
▁도독질	-12.1593
▁도레미ᄊᆞᆯ	-12.1593
▁도채비	-12.1593
▁독다님	-12.1593
▁돌차귀	-12.1593
▁둑지	-12.1593
▁뒙디다	-12.1593
▁등절미	-12.1593
▁마흐레	-12.1593
▁맞히	-12.1593
▁먼안튀	-12.1593
▁몸빼	-12.1593
▁몸제	-12.1593
▁무스거	-12.1593
▁문전코시	-12.1593
▁묻혀	-12.1593
▁뭣엔	-12.1593
▁뭣인	-12.1593
▁반두어리	-12.1593
▁뱃속	-12.1593
▁벡종날	-12.1593
▁북삭북삭	-12.1593
▁불칫막	-12.1593
▁빠찌치기	-12.1593
▁살락살락	-12.1593
▁삼형제	-12.1593
▁섞엉	-12.1593
▁세비낭가시	-12.1593
▁수ᄏᆞ	-12.1593
▁수돗물	-12.1593
▁수첨복	-12.1593
▁쉐앗배	-12.1593
▁쉐테우리	-12.1593
▁스물아홉	-12.1593
▁아녑니까	-12.1593
▁안튀에	-12.1593
▁앞다리	-12.1593
▁양배추	-12.1593
▁양줏머리	-12.1593
▁오분자기	-12.1593
▁오적돌	-12.1593
▁옹포	-12.1593
▁와둥구릴락	-12.1593
▁왓다갓다	-12.1593
▁원두막	-12.1593
▁이간막살이	-12.1593
▁익엇	-12.1593
▁익히	-12.1593
▁일폿제	-12.1593
▁정젯방석	-12.1593
▁제멋대로	-12.1593
▁좇아	-12.1593
▁주물러	-12.1593
▁지글지글	-12.1593
▁짇젠	-12.1593
▁짝글르게	-12.1593
▁쪼끄만	-12.1593
▁쯧쯧쯧	-12.1593
▁쳇데귀	-12.1593
▁초하루	-12.1593
▁충혈	-12.1593
▁콩개역	-12.1593
▁태흥리	-12.1593
▁파삭파삭	-12.1593
▁파출소	-12.1593
▁하늬ᄂᆞ릇	-12.1593
▁고들개	-12.1593
▁고칫가루	-12.1593
▁꼬부라	-12.1593
▁돌래떡	-12.1593
▁메루치	-12.1593
▁숟구락	-12.1593
▁측량	-12.1593
▁ᄁᆞ늘게	-12.1593
▁나비적	-12.1593
▁아닛꽈	-12.1593
▁총사발	-12.1593
▁골감주	-12.1593
▁모동장	-12.1593
▁물안경	-12.1593
▁관광객	-12.1593
▁구덩이	-12.1593
▁배고파	-12.1593
▁사기그릇	-12.1593
▁적꼬지	-12.1593
▁조랑말	-12.1593
▁ᄇᆞᆺ적삼	-12.1593
▁간이ᄒᆞᆨ교	-12.1593
▁물수건	-12.1593
▁바뀌	-12.1593
▁곱음제기	-12.1593
▁안넷상	-12.1593
▁객지	-12.1593
▁뎅깁	-12.1593
▁금숭	-12.1593
▁십일월ᄃᆞᆯ에	-12.1593
▁석상비ᄊᆞᆯ	-12.1593
▁안덕초등학교	-12.1593
▁웃지시	-12.1593
▁셋가시	-12.1593
▁삼사일	-12.1593
▁맹물	-12.1593
▁땅속에	-12.1593
▁널판대기	-12.1593
▁이승만	-12.1593
▁빳지치기	-12.1593
▁땀띠	-12.1593
▁지혜	-12.1593
▁모물ᄏᆞ루	-12.1594
▁지들팡	-12.1594
▁ᄌᆞᆸ제기	-12.1594
▁목욕시키	-12.1594
▁노인회장	-12.1594
▁ᄂᆞᆺ	-12.1594
▁객주리연	-12.1594
▁예식장	-12.1594
▁알아듣	-12.1594
▁도청에	-12.1594
▁똑같애	-12.1594
▁바농ᄊᆞᆷ	-12.1594
▁당췌	-12.1594
▁종내기	-12.1594
▁성산포	-12.1594
▁몽크	-12.1594
▁방어훼	-12.1594
▁불부찌	-12.1594
▁글후제	-12.1594
▁뜨겁	-12.1594
▁무명씰	-12.1594
▁망동산	-12.1594
▁제삿날	-12.1594
▁민작	-12.1594
▁ᄎᆞᆷ버짐	-12.1594
▁종제기	-12.1594
▁밭벼	-12.1594
▁지둥굽	-12.1594
▁돗가레착	-12.1594
▁참외	-12.1594
▁중ᄆᆞ루	-12.1594
▁건지뿔	-12.1594
▁알앗습니다	-12.1594
▁아사내	-12.1595
▁합격	-12.1595
▁성함	-12.1595
▁낙배	-12.1595
▁모르커라	-12.1595
▁자녀분들	-12.1595
▁근치룩	-12.1595
▁소분밧	-12.1595
▁밀상웨	-12.1595
▁스무남은	-12.1595
▁누넹이	-12.1595
▁요멘씩	-12.1595
▁둘째	-12.1595
▁소낭밧디	-12.1595
▁문고리	-12.1595
▁동지김치	-12.1595
▁순찰	-12.1595
▁엉장	-12.1595
▁각각	-12.1595
▁박물관에	-12.1595
▁오매기	-12.1595
▁흐려	-12.1596
▁ᄃᆞᆯ아멧	-12.1596
▁토렴	-12.1596
▁멩긴골	-12.1596
▁가리쳐	-12.1596
▁서슬노	-12.1596
▁암반	-12.1596
▁수월산	-12.1596
▁넘패국	-12.1596
▁사마귀	-12.1596
▁고추ᄀᆞ루	-12.1596
▁족은손가락	-12.1596
▁새꼴	-12.1596
▁총소리	-12.1596
▁돗항	-12.1596
▁초벌	-12.1596
▁미터	-12.1596
▁밀팝	-12.1596
▁올라타	-12.1596
▁무수김치	-12.1596
▁ᄑᆞᆯ띠	-12.1596
▁해결	-12.1596
▁갈ᄇᆞ름	-12.1596
▁서숙	-12.1596
▁흰쌀	-12.1597
▁초약	-12.1597
▁돌아다니면서	-12.1597
▁선소리	-12.1597
▁기르면서	-12.1597
▁야개기	-12.1597
▁ᄎᆞᆽ이레	-12.1597
꿀로	-12.1597
▁곡간	-12.1597
▁ᄆᆞᆫ직아	-12.1598
▁씰페	-12.1598
▁잇섯	-12.1598
▁지냄	-12.1598
▁뒤판	-12.1598
▁허느녜	-12.1598
▁구갑	-12.1598
▁ᄌᆞ순	-12.1598
▁남태	-12.1598
▁비참	-12.1598
▁꼬딱	-12.1598
▁바쿠	-12.1598
▁중순	-12.1598
▁돗다리	-12.1598
▁셍성	-12.1598
불로	-12.1598
▁늙어부난	-12.1598
▁비옥	-12.1599
▁암소	-12.1599
▁잡풀	-12.1599
▁주식이	-12.1599
▁동촌	-12.1599
▁재량	-12.1599
▁멕엿저	-12.1599
▁끌레기	-12.1599
▁몰래	-12.1599
▁끌련	-12.1599
▁노랑쉐	-12.1599
▁더운물	-12.1599
▁열굿	-12.1599
▁멕인덴	-12.1599
▁실퍼	-12.16
▁뒈는구나	-12.16
▁익으믄	-12.16
▁무셍이	-12.16
▁보낸다	-12.16
▁보쿨	-12.16
▁이만치	-12.16
듬상	-12.16
▁집어놩	-12.16
▁제사상에	-12.16
▁ᄊᆞᆯᄀᆞ르	-12.16
▁구술	-12.16
▁삭망제	-12.16
▁허멀	-12.16
▁우유	-12.1601
▁외방	-12.1601
▁산터	-12.1601
▁도포	-12.1601
▁ᄐᆞᆮ으멍	-12.1601
▁성님	-12.1601
▁뒛박	-12.1601
▁없잖아	-12.1601
▁좁썰죽	-12.1601
▁ᄊᆞᆯ보리	-12.1601
▁설명헤	-12.1601
▁총무	-12.1601
▁이바지날	-12.1601
▁ᄆᆞ멀죽	-12.1601
▁ᄌᆞ매	-12.1602
▁허리끈	-12.1602
▁비양도	-12.1602
▁남잔	-12.1602
▁유래	-12.1602
▁뀌여	-12.1602
▁가시남	-12.1602
▁골목길	-12.1602
▁잇잔	-12.1602
▁인방	-12.1602
▁못살아	-12.1603
▁할려면	-12.1603
▁거트면	-12.1603
▁뻘겅헌	-12.1603
▁소고기국	-12.1603
직ᄒᆞ다	-12.1603
▁성귀	-12.1604
▁적쉐	-12.1604
▁쉐우리	-12.1604
▁등개	-12.1604
▁물ᄀᆞᆷ	-12.1604
▁오촌	-12.1604
▁노력	-12.1604
▁상태	-12.1604
▁글씨	-12.1605
▁관심	-12.1605
▁닷세	-12.1605
▁모임	-12.1605
▁ᄆᆞ멀범벅	-12.1605
▁일학년	-12.1605
▁펜대	-12.1606
▁정착	-12.1606
▁오소리	-12.1606
▁오랜	-12.1606
▁가라스	-12.1606
▁모잔	-12.1606
▁결혼허기	-12.1607
▁걸름콩	-12.1607
▁우엣	-12.1607
▁보벼	-12.1607
▁오람	-12.1607
▁회의	-12.1608
▁호적	-12.1609
▁치멘	-12.1609
▁정초	-12.1609
▁어른덜안티	-12.161
▁지침	-12.161
▁내노렌	-12.161
▁입원	-12.161
▁남박	-12.161
▁귀허니까	-12.161
▁낭썹	-12.161
▁농촌에서	-12.1611
▁구하	-12.1611
▁호박국	-12.1611
▁ᄉᆞ망	-12.1611
▁ᄇᆞ든	-12.1611
▁뒤집엉	-12.1612
▁본전이	-12.1612
▁밀체	-12.1612
▁중앙	-12.1612
▁보리ᄎᆞ베기	-12.1612
▁빗물	-12.1612
▁떨어질	-12.1612
▁먹어낫수게	-12.1613
▁아파가민	-12.1613
▁질목	-12.1613
▁알아집니다	-12.1613
▁모힌	-12.1613
▁페왕	-12.1614
▁벡중	-12.1614
껏듸	-12.1614
▁나록메	-12.1614
▁ᄂᆞᆯ아뎅기	-12.1614
▁파초	-12.1614
▁족앙	-12.1615
▁엇엇거든	-12.1615
▁수덕	-12.1615
ᄒᆞᆸ	-12.1615
▁잔치집이	-12.1615
▁도름	-12.1616
▁헴신가	-12.1616
▁서너니	-12.1616
▁허베기	-12.1616
▁실프민	-12.1617
▁요기까지	-12.1617
▁줴인	-12.1617
▁백시리	-12.1617
▁내창이	-12.1618
▁밥쌀	-12.1619
▁듣젠	-12.1619
▁국민ᄒᆞᆨ교	-12.1619
▁보기에	-12.1619
▁온천	-12.1619
▁오십구	-12.162
▁고남	-12.1621
▁ᄌᆞᆸ아놩	-12.1621
▁산감	-12.1621
▁뚤	-12.1622
▁놧저	-12.1623
▁원치기	-12.1623
▁박아놩	-12.1624
▁삼춘님	-12.1624
▁통대	-12.1625
▁낭허레	-12.1625
▁수끼	-12.1626
▁궤기국	-12.1627
▁데겨	-12.1627
▁보리왓	-12.1629
▁신엄	-12.1629
▁자쳐	-12.1629
▁신기허	-12.1629
▁ᄉᆞᆱ으멍	-12.163
▁맛좋덴	-12.163
▁지형	-12.163
▁뒈엇저	-12.163
▁할아버지네	-12.1631
▁뻿	-12.1631
▁ᄀᆞᆯ라	-12.1631
▁호령	-12.1632
▁늦엉	-12.1632
▁놔둡서	-12.1633
▁신돌	-12.1633
▁무싱것	-12.1634
▁여간	-12.1635
▁복치마는	-12.1635
▁헤달라	-12.1635
▁작데기	-12.1636
▁노콕	-12.1636
헌티	-12.1637
▁얼마니	-12.1637
▁ᄆᆞᆫ짝	-12.1637
▁보리눌	-12.1637
▁허고말고	-12.1637
먹엇수과	-12.1637
▁아녀보고	-12.1638
▁베록	-12.1638
▁이십일	-12.1639
▁하낫주	-12.164
▁저희	-12.164
▁헤봣저	-12.1641
▁햇어	-12.1641
▁폭이	-12.1641
▁입으난	-12.1641
▁털어가	-12.1641
▁ᄌᆞᆷ녀덜	-12.1641
▁허카	-12.1642
▁큰옷	-12.1642
▁흘르	-12.1642
▁잇엇거든	-12.1642
▁날리고	-12.1643
▁세화	-12.1643
▁기계방에	-12.1643
▁달루	-12.1643
▁ᄉᆞ건	-12.1644
▁불타	-12.1646
▁ᄆᆞᆯ막	-12.1646
▁다니다	-12.1646
ᄏᆞ루	-12.1647
▁좋으난	-12.1648
▁들이치민	-12.1649
▁정ᄀᆞ레에서	-12.1649
▁질루멍	-12.1649
▁가까운디	-12.1651
▁써낫어	-12.1652
▁싯수과	-12.1654
▁군대에서	-12.1654
▁서끄멍	-12.1655
▁제주에서	-12.1655
▁가봔	-12.1656
▁부부	-12.1658
▁살아나난	-12.1658
▁아깝	-12.1659
▁여깃말	-12.166
▁양식으로	-12.166
▁봄나	-12.1661
▁ᄆᆞ멀묵	-12.1664
▁구워근에	-12.1665
▁하인이	-12.1665
▁물싹	-12.1667
▁펜안허게	-12.1668
▁부트지	-12.1669
▁조금만	-12.1669
▁조채	-12.1669
▁작지	-12.167
▁ᄎᆞᆯ렷	-12.167
▁껌은	-12.1671
▁모날에	-12.1671
▁물풀	-12.1672
▁우트	-12.1672
▁가심	-12.1673
▁가르치	-12.1675
▁기구	-12.1676
▁실지	-12.1678
▁먹어신고예	-12.1678
▁냅	-12.168
▁기운	-12.1682
▁올해	-12.1682
▁삼일날	-12.1684
▁낭푼에	-12.1685
▁경찰서	-12.1685
▁번데기	-12.1685
▁똘	-12.1686
▁빔	-12.1686
▁모르컨	-12.1687
▁삼월덜	-12.1689
▁가보민	-12.1689
▁헷져	-12.169
▁먹줄은	-12.1691
▁ᄍᆞᆯ라근에	-12.1692
▁불려근에	-12.1695
▁감저씨	-12.1695
퉁이	-12.1696
▁갓던	-12.1697
▁개ᄆᆞᆺ	-12.1697
▁와근엥	-12.1697
▁강술	-12.1698
▁빌어야	-12.1699
▁화로	-12.17
▁태우	-12.1701
▁ᄌᆞᆯ곡	-12.1702
주마	-12.1702
▁졍허민	-12.1702
▁ᄉᆞᆷ곡	-12.1703
▁멍청허	-12.1703
▁맞으면은	-12.1708
허느니	-12.1708
세긴	-12.1709
▁사이로	-12.1711
▁비비	-12.1712
▁살암수다	-12.1712
놔두	-12.1716
▁가보난	-12.1717
느니게	-12.1717
▁핫주게	-12.1718
▁극	-12.172
▁말아근에	-12.172
▁베치	-12.1721
▁감테	-12.1721
▁어웍으로	-12.1722
▁시철에	-12.1722
▁잇다근에	-12.1725
▁베미가	-12.1725
인들이	-12.1727
▁바레여	-12.1727
▁ᄇᆞᆯ롸	-12.1727
▁밀ᄀᆞ루로	-12.1727
▁성장	-12.1727
▁빌어단	-12.1728
▁토신에	-12.1729
▁촐왓이	-12.173
▁허곤	-12.1731
꾸나	-12.1731
▁서울서	-12.1733
▁평당	-12.1734
▁촐단	-12.1734
▁싱건	-12.1736
▁디물	-12.1741
▁기술적	-12.1741
▁ᄆᆞ쉬로	-12.1741
불엇수다	-12.1742
▁알아질	-12.1743
코지	-12.1745
▁머시	-12.1746
▁속담에	-12.1747
▁붓어	-12.175
▁쑤듯	-12.1751
ᄒᆞ기	-12.1753
▁밟으	-12.1753
▁좋으민	-12.1756
▁소낭으로	-12.1758
▁헤신고마씨	-12.1759
▁웃트	-12.176
▁중간으로	-12.176
▁절영	-12.1762
▁심어간	-12.1764
곡말곡	-12.1766
▁시대엔	-12.1766
붑서	-12.1766
▁올라가곡	-12.1767
▁송당서	-12.1768
▁복친은	-12.1769
▁산듸ᄊᆞᆯ로	-12.1769
산지	-12.1771
똥물	-12.1771
▁곱곡	-12.1772
▁시켜야	-12.1773
▁ᄉᆞᆱ앙은에	-12.1774
시메	-12.1777
▁보리쌀로	-12.1779
▁주엉	-12.178
▁빈지	-12.1782
▁씻지	-12.1782
▁세월이	-12.1783
▁무슨거	-12.1787
▁양식이	-12.1787
▁여ᄌᆞ덜	-12.1789
▁겡헨	-12.179
▁보아	-12.1791
▁무싱거여	-12.1791
▁요라	-12.1792
▁밤중	-12.1799
▁줄대	-12.1799
▁문제라	-12.1799
▁발효뒈	-12.18
▁담가마씨	-12.1801
▁맛잇주게	-12.1801
▁이섯주게	-12.1802
▁이서신디	-12.1805
▁먹는거	-12.1807
▁내의	-12.1808
▁물에서	-12.181
▁밖에서	-12.181
▁ᄃᆞᆯ랑	-12.1811
▁망건은	-12.1811
▁안덕면	-12.1811
▁꼬지	-12.1811
▁목시덜	-12.1811
오랏주	-12.1813
▁시면	-12.1815
ᄀᆞ루로	-12.1816
▁궤야	-12.1819
▁ᄆᆞ루	-12.1821
▁밀ᄏᆞ루로	-12.1822
▁펴	-12.1822
▁조메	-12.1824
▁남테로	-12.1825
▁메면	-12.1825
▁풀풀허	-12.1825
▁아무데	-12.1827
▁군산에	-12.1829
▁살부터	-12.183
치지	-12.1832
▁열한	-12.1833
▁말ᄒᆞ면	-12.1834
▁대톱은	-12.1835
▁세루	-12.1838
▁사고로	-12.1839
▁아팟	-12.184
▁겔혼	-12.184
▁빙떡에	-12.1843
▁차가운	-12.1844
▁변화	-12.1845
▁ᄇᆞᆯ라난	-12.1845
▁귀양	-12.1845
▁감아진	-12.1847
▁쪄근엥	-12.1847
▁문작허	-12.1851
▁노인들	-12.1851
▁사이다	-12.1851
▁학교에서	-12.1852
▁어우러지	-12.1853
▁ᄃᆞᆯ아난	-12.1853
▁요기서	-12.1853
▁촌에는	-12.1856
▁무거와	-12.1858
▁일어사	-12.186
▁왓단	-12.1861
▁개떡	-12.1862
▁나완에	-12.1862
▁헤주곡	-12.1867
▁안헷수다	-12.1869
데기로	-12.1871
▁떡이영	-12.1872
▁낫다고	-12.1873
▁ᄀᆞᆷ고	-12.1873
뒈지	-12.1874
▁ᄄᆞ나게	-12.1874
▁헤보지	-12.1875
▁후제사	-12.1877
▁알아지지	-12.1877
▁정월ᄃᆞᆯ	-12.188
▁이모	-12.1881
갓당	-12.1882
▁지실로	-12.1886
▁어떵해	-12.1888
▁부족	-12.1888
▁것까지	-12.1888
▁하동	-12.189
▁줴여	-12.1891
▁구경허	-12.1894
축제	-12.1894
▁헤수다	-12.1896
▁멩심헤	-12.1899
▁뽑아야	-12.1901
▁불여	-12.1901
▁거기까지	-12.1907
두령	-12.1908
▁장인	-12.1908
▁아니구나	-12.1909
▁신어낫주	-12.1912
▁경찰이	-12.1915
▁잔칫집	-12.1916
▁갈아낫저	-12.1919
▁잇다는	-12.1926
▁ᄆᆞᆯ벵이에	-12.1934
▁ᄃᆞ신	-12.1935
헷냐	-12.1936
▁모르주만	-12.1937
▁부섭은	-12.1937
▁어렝이도	-12.1937
▁마늘지	-12.1939
▁ᄌᆞᆷ질아	-12.1939
▁졸아	-12.1957
▁불르고	-12.1958
▁낫고	-12.1968
▁짝수	-12.1968
▁끌고	-12.197
▁ᄀᆞᆯ아낫주	-12.1975
▁ᄆᆞᆯ랴	-12.1976
▁박고	-12.1976
▁버른	-12.1977
▁사릅에	-12.198
▁바리라	-12.1981
▁ᄆᆞᆯ렷	-12.1984
거우다	-12.1991
숙	-12.1993
▁알면은	-12.1994
▁맛수다	-12.1996
▁겅허는	-12.1996
▁가졍오	-12.1999
▁파종허는	-12.2005
할아버진	-12.2006
▁내리면	-12.2008
▁곤란헤	-12.2009
▁주춧돌은	-12.2013
▁먹이고	-12.2015
▁수망리에	-12.2017
▁연날	-12.2017
▁검질매	-12.2021
▁다와근에	-12.2023
롱헌	-12.2025
▁양짝	-12.2025
▁상군덜	-12.2029
또록	-12.2031
새가	-12.2032
▁호박단	-12.2035
▁물짐치는	-12.2036
▁돔박낭이	-12.2036
내기	-12.2038
려당	-12.2039
▁나무에서	-12.2044
▁세대에	-12.2045
▁마음에	-12.2046
▁뒌장허고	-12.2048
▁뀌어근	-12.2049
▁엎어지	-12.2054
▁ᄌᆞᆽ으	-12.2059
▁원레	-12.206
▁고냥이	-12.2067
▁겅해	-12.2067
▁이름덜	-12.2075
▁색깔로	-12.2083
▁개똥	-12.2096
실락	-12.2096
져불민	-12.2096
▁범벅허고	-12.2098
▁썻수	-12.2103
▁맞추고	-12.2107
▁딸리면	-12.211
▁안거리에	-12.2111
▁보관은	-12.2114
들엇젠	-12.212
▁숫으로	-12.2121
▁아녀근에	-12.2124
▁한식은	-12.2125
▁똑같고	-12.2127
▁테기	-12.2129
▁얻어먹어	-12.2132
▁꺼풀이	-12.2142
▁고동은	-12.2148
셍이라	-12.215
▁명칭덜	-12.215
▁속앗	-12.2154
▁목이	-12.2157
드령	-12.2161
펭	-12.2161
▁산자	-12.2169
▁기리	-12.2175
▁손주	-12.2177
▁집덜은	-12.2183
▁뎅침허	-12.2187
▁ᄊᆞᆯ밥이	-12.219
팔년	-12.2192
▁뒈부난	-12.2197
▁박아지	-12.2199
▁어허	-12.2199
▁동산이	-12.22
▁입어서	-12.2203
메영	-12.2204
▁ᄆᆞ음이	-12.2214
비영	-12.2214
▁펜안허	-12.2217
▁빌리	-12.2218
▁베짝허	-12.222
▁ᄈᆞᆺ으	-12.2223
▁펭지	-12.2224
헤근	-12.2225
▁ᄆᆞᆯ리우는	-12.2226
▁ᄒᆞ엿	-12.2226
▁뒈지마	-12.2227
▁안거리고	-12.2231
헤실	-12.2235
▁조팝에	-12.2235
▁남저덜이	-12.2246
▁기분	-12.2247
▁포적	-12.2248
▁지내어	-12.225
용이	-12.2252
▁짓지	-12.2254
앗수다	-12.2272
▁그릇덜	-12.2274
드렁	-12.2278
엇잖아예	-12.228
▁사데	-12.2281
▁여까	-12.2282
▁멕입	-12.2288
▁잡아보	-12.229
▁질르는	-12.229
▁놧다근엥	-12.2292
▁거풀	-12.2293
▁거평	-12.2307
▁고찌	-12.2314
▁졸라	-12.2315
하는데	-12.2316
▁만허	-12.2323
▁곱으	-12.2323
뒌다	-12.2324
메와근에	-12.2324
▁아니난에	-12.2324
▁후려	-12.2326
노라	-12.2327
▁뽑아당	-12.2331
▁죽어버리	-12.2331
▁끓여먹	-12.2338
▁따지	-12.2341
▁멘도롱	-12.2354
▁말쯤	-12.2356
▁제서에	-12.2357
▁접어	-12.2361
▁더꺼져	-12.2361
▁쉐왕에	-12.2363
▁기억헤	-12.2367
▁편하	-12.2367
▁북심이	-12.2375
덥	-12.2375
꺼진	-12.2378
▁길들	-12.238
▁기계화	-12.2388
▁재어	-12.2395
▁바우로	-12.2396
▁짚이	-12.2397
긴데	-12.2398
벵이	-12.2404
허느냐	-12.2404
▁고치지	-12.2405
▁초담에	-12.2408
▁ᄀᆞᆯ아입	-12.2411
▁시작헷주	-12.2416
시멍	-12.2417
묵은	-12.2428
▁받아오	-12.243
끕니다	-12.2437
왓거든	-12.244
▁여저덜이	-12.2442
롭게	-12.2443
▁ᄉᆞᆱ으면	-12.2445
▁중방이	-12.2449
▁달만	-12.2449
▁ᄀᆞᆯ앗수	-12.2458
▁터우	-12.2458
▁컷다	-12.2459
아이덜	-12.2461
▁얘기해	-12.2462
▁알아지주	-12.2462
▁카지	-12.2463
▁청명에	-12.2475
▁잠대에	-12.2478
▁ᄇᆞᆯ리주	-12.2487
▁시난에	-12.2491
▁알리	-12.2493
철이	-12.2495
▁뻘겅	-12.2496
▁멘듭	-12.2497
하션마씨	-12.2497
▁웃드	-12.2503
로록	-12.2504
▁ᄒᆞᆯ트	-12.2526
▁젱	-12.2535
▁뎅기면	-12.2537
하믄	-12.2538
▁동네사람	-12.2543
▁고등	-12.2549
엇거든	-12.2557
▁본인	-12.2562
요일날	-12.2572
▁담주	-12.2573
▁대통령이	-12.2585
▁하님	-12.2589
▁두터	-12.259
▁순경이	-12.2591
▁잔칫집이	-12.2592
▁모르지만	-12.26
▁윗목	-12.2603
듭니다	-12.261
뒈연	-12.2611
▁산듸로	-12.2614
▁하신	-12.2621
깝	-12.2622
▁잡아야	-12.2635
▁조각	-12.2655
희	-12.2656
▁송당에	-12.2657
▁나듯	-12.2662
▁상관	-12.2665
▁뒈도록이	-12.2666
▁공부허	-12.267
▁놔줘	-12.2675
벽	-12.2682
▁왜정시대	-12.2684
졸	-12.2687
▁사사	-12.2689
꼿	-12.2693
▁그것들	-12.2693
빵	-12.2696
상웨	-12.2696
극	-12.2699
ᄂᆞᆯ	-12.2701
▁잡아먹어	-12.2701
검	-12.2702
셀	-12.2702
싼	-12.2703
뎃	-12.2704
껌	-12.2704
바람	-12.2704
ᄃᆞᆨ	-12.2705
조록	-12.2706
얼	-12.2706
바드렝이	-12.2707
땡	-12.2707
멥	-12.2707
믓	-12.2707
ᄒᆞᆷ	-12.2708
딴	-12.2708
꽉	-12.2708
모ᄌᆞ	-12.2708
마농	-12.2708
ᄆᆞ쉬	-12.2708
헛	-12.2708
솜	-12.2709
빼	-12.2709
쓸	-12.2709
중학교	-12.2709
일곱	-12.2711
럴	-12.2712
놔야	-12.2713
▁공장이	-12.2713
무명	-12.2714
파니	-12.2717
▁끊어지	-12.2727
▁냉국에	-12.2727
▁잔칫	-12.273
▁들어갑	-12.2732
▁놔낫주	-12.2732
려와	-12.2737
아녀	-12.2738
▁말들	-12.274
▁귀ᄀᆞᆽ	-12.2741
▁가불엇	-12.2742
▁ᄆᆞᆯ덜이	-12.2744
말앙	-12.2747
▁벌러져	-12.2749
▁심방덜	-12.2761
데레	-12.2761
으곡	-12.2768
▁콥데산이	-12.277
렝인	-12.2771
▁팥죽	-12.2773
▁딱딱허게	-12.2777
▁봤	-12.2778
▁메밀ᄀᆞ루	-12.2779
▁표현	-12.2787
▁오염	-12.279
냑	-12.279
▁동메	-12.2796
낫지양	-12.2805
▁그러니	-12.2807
▁위에다	-12.2821
주머	-12.2821
▁않앗	-12.2822
▁입어야	-12.2825
▁신문지	-12.2825
말라	-12.2828
▁산디찝	-12.2829
마께	-12.283
듭	-12.283
▁보관헤	-12.2831
▁둣	-12.2832
▁쉬웁	-12.2836
▁고장중	-12.284
뚱	-12.284
▁훈들	-12.2841
▁도토리	-12.2841
잖우꽈	-12.2842
▁졸졸	-12.2842
▁호박잎	-12.2842
▁생이족박	-12.2843
▁ᄆᆞ진단추	-12.2843
▁말씀이	-12.2843
▁빻아	-12.2843
▁앞두	-12.2843
▁우럭조림	-12.2843
▁질ᄉᆞ미	-12.2843
▁폴폴	-12.2843
▁한청단장	-12.2843
슥	-12.2843
▁ᄀᆞᆨ쒜	-12.2843
▁ᄎᆞ례ᄎᆞ례	-12.2843
▁고맙습니	-12.2843
▁고망우럭	-12.2843
▁고춧ᄀᆞ루	-12.2843
▁곧장	-12.2843
▁공싯간	-12.2843
▁까꾸리	-12.2843
▁나눠주	-12.2843
▁남펭날	-12.2843
▁느렁대축	-12.2843
▁대물동산	-12.2843
▁도벌목	-12.2843
▁도비상귀	-12.2843
▁도틀굴	-12.2843
▁동글락동글락	-12.2843
▁동등권	-12.2843
▁둔지오름	-12.2843
▁듸딜팡	-12.2843
▁뗄ᄀᆞᆷ	-12.2843
▁뗌마	-12.2843
▁뗑경	-12.2843
▁뚝뚝	-12.2843
▁마눙지	-12.2843
▁맞앗	-12.2843
▁멋지	-12.2843
▁메투리	-12.2843
▁모커린	-12.2843
▁문얼굴	-12.2843
▁미우젱이	-12.2843
▁믿지	-12.2843
▁밑엔	-12.2843
▁바눙쌍지	-12.2843
▁바락바락	-12.2843
▁뱅이왕	-12.2843
▁벳속머리	-12.2843
▁볏짚	-12.2843
▁보리개역	-12.2843
▁부림패	-12.2843
▁붙잡	-12.2843
▁빕니다	-12.2843
▁뽀족뽀족	-12.2843
▁삼성할망이	-12.2843
▁삼싱할망	-12.2843
▁셍손앓이	-12.2843
▁소름소름	-12.2843
▁아녓수가	-12.2843
▁얌전	-12.2843
▁열여덥	-12.2843
▁오남매	-12.2843
▁오이냉국	-12.2843
▁온장벡이	-12.2843
▁웬경밧디	-12.2843
▁유름줄	-12.2843
▁의귀리	-12.2843
▁절간감저	-12.2843
▁정충메	-12.2843
▁젖으	-12.2843
▁주정공장	-12.2843
▁중ᄇᆞᆯ레기	-12.2843
▁천주교	-12.2843
▁체육관	-12.2843
▁초수렴	-12.2843
▁촉촉	-12.2843
▁추물락	-12.2843
▁특징	-12.2843
▁하원마을	-12.2843
▁할아부지	-12.2843
▁훤ᄒᆞ	-12.2843
▁히마바라	-12.2843
딋	-12.2843
▁겡지솟	-12.2843
▁국멩질	-12.2843
▁꿩사농	-12.2843
▁남동생	-12.2843
▁대천동	-12.2843
▁동달리	-12.2843
▁뚜러메	-12.2843
▁메르치	-12.2843
▁보곰지	-12.2843
▁사무실	-12.2843
▁세깍신	-12.2843
▁알순당	-12.2843
▁양주머리	-12.2843
▁왼쪽	-12.2843
▁제완제	-12.2843
▁진또리	-12.2843
▁짓바데	-12.2843
▁태어낭	-12.2843
▁호박이파리	-12.2843
▁고시락	-12.2843
▁또꼬망	-12.2843
▁선풍기	-12.2843
▁윷가락	-12.2843
▁나리역	-12.2843
▁바위꼬지	-12.2843
▁연자메	-12.2843
▁흑받기	-12.2843
▁모힌좁ᄊᆞᆯ	-12.2843
▁미지근	-12.2843
▁알맹이	-12.2843
▁문중벌초	-12.2843
▁명도암	-12.2843
▁생명지	-12.2843
▁갈독지	-12.2843
▁개꽝낭	-12.2843
▁호룽이	-12.2843
▁동이본향	-12.2843
▁궨찮	-12.2843
▁갯것고기	-12.2843
▁정구지	-12.2843
▁문화재	-12.2843
▁뽕남썹	-12.2843
▁삼밧동	-12.2843
▁견뎌	-12.2843
▁꼬부려	-12.2843
▁소방서	-12.2843
▁지세독	-12.2843
▁막댕이	-12.2843
▁요번이	-12.2843
▁풀고치	-12.2843
▁창굼	-12.2843
▁추접허	-12.2843
▁궁합	-12.2843
▁반상기	-12.2843
▁워러러러	-12.2843
▁섯동네	-12.2843
▁쪼가리	-12.2843
▁처갓집	-12.2843
▁ᄒᆞᆸ서	-12.2843
▁잊어버렷	-12.2843
▁청결	-12.2843
▁오매기술	-12.2843
▁사대소리	-12.2844
▁헙네다	-12.2844
▁상향식	-12.2844
▁ᄆᆞᄆᆞᆯᄀᆞ르	-12.2844
▁발가락	-12.2844
▁헤끄만	-12.2844
▁맛도로기	-12.2844
▁벳ᄐᆞᆯ레	-12.2844
▁저슬살이	-12.2844
▁셋아방	-12.2844
▁지하수	-12.2844
▁ᄆᆞ멀로	-12.2844
▁ᄉᆞᆼ키구덕	-12.2844
▁노가리	-12.2844
▁들러퀴	-12.2844
▁무산고	-12.2844
▁주둔소	-12.2844
▁얄룬	-12.2844
▁ᄌᆞᆷ진탕건	-12.2844
▁못허크라	-12.2844
▁나룩찝	-12.2844
▁스물일곱	-12.2844
▁텔레비전	-12.2844
▁귓가시낭	-12.2844
▁중ᄆᆞ르	-12.2844
▁흘습	-12.2844
▁히린조	-12.2844
▁발표	-12.2844
▁배치짐치	-12.2844
▁보릿눌	-12.2844
▁뒤트레	-12.2844
▁연장꿰	-12.2844
▁데도롱	-12.2844
▁혀뜩	-12.2844
▁혼례	-12.2844
▁겹쳐	-12.2844
▁첵명	-12.2844
▁바쁜	-12.2844
▁길쌈	-12.2844
▁길럿	-12.2844
▁상관없	-12.2844
▁털모자	-12.2844
▁이외에	-12.2844
▁어려웁	-12.2844
▁빠찡	-12.2844
▁돗거름	-12.2844
▁바닷일	-12.2845
▁똥그락	-12.2845
▁둘럿	-12.2845
▁뚜께	-12.2845
▁몰르큰게	-12.2845
▁땡겨	-12.2845
▁거멍케	-12.2845
▁푸께	-12.2845
▁윤디판	-12.2845
▁청콩	-12.2845
▁멕이주	-12.2845
▁야학소	-12.2845
▁농ᄉᆞ짓	-12.2845
▁옷ᄀᆞ슴	-12.2845
▁노린쉐	-12.2845
▁해ᄉᆞᆷ	-12.2845
▁놈삐	-12.2845
▁분홍	-12.2845
▁셋ᄄᆞᆯ	-12.2845
▁여덥	-12.2845
▁적고지	-12.2845
▁씰패	-12.2845
▁근본	-12.2845
▁웨넹국	-12.2845
▁웨삼춘	-12.2845
그넹	-12.2845
▁어거지	-12.2845
▁이장님	-12.2845
▁추웡	-12.2845
▁업써	-12.2845
▁낙베	-12.2845
▁의무	-12.2846
▁ᄋᆢ습	-12.2846
엄저	-12.2846
▁다행이	-12.2846
▁인삼	-12.2846
▁조칵메기	-12.2846
▁검피	-12.2846
▁감춰	-12.2846
▁곽난이	-12.2846
▁가족끼리	-12.2846
▁결실	-12.2846
▁삼갑신	-12.2846
▁꿩고기	-12.2846
▁모물ᄊᆞᆯ	-12.2846
▁ᄊᆞᆱ앙	-12.2846
▁이천년	-12.2846
▁긁으레	-12.2846
▁정의원	-12.2847
▁잇걸랑	-12.2847
▁쟁년	-12.2847
▁멩담	-12.2847
▁송씨	-12.2847
▁받암	-12.2847
▁법당에	-12.2847
▁삼남네	-12.2847
▁끄스	-12.2847
▁죽엿다	-12.2847
▁뒌장쿡	-12.2847
▁모물죽	-12.2847
▁돗걸름착	-12.2847
▁마주막	-12.2847
▁얄루	-12.2847
▁종순	-12.2847
▁누엘	-12.2847
▁속바지	-12.2847
▁오리발	-12.2847
▁두드릴	-12.2847
▁펭이채	-12.2848
▁토막	-12.2848
▁벡훼	-12.2848
▁황토	-12.2848
▁골충	-12.2848
▁연필	-12.2848
▁화전	-12.2848
▁재판	-12.2848
▁목거리	-12.2848
▁까깡	-12.2848
▁중군	-12.2848
▁늘근	-12.2848
▁보리농ᄉᆞ	-12.2848
▁보멀	-12.2848
▁새콤	-12.2848
▁ᄂᆞᆷ삐지이	-12.2848
▁상퉁이	-12.2848
▁말인고	-12.2848
▁머리털	-12.2848
▁습기	-12.2849
▁신부칩이	-12.2849
▁멘듭니다	-12.2849
▁보제기	-12.2849
▁보충	-12.2849
▁검은콩	-12.2849
▁모ᄆᆞᆯ채	-12.2849
▁맛존	-12.2849
▁후회	-12.2849
▁통나무	-12.285
▁웨솟	-12.285
▁중석	-12.285
▁등테	-12.285
▁유식	-12.285
크메	-12.285
▁ᄋᆢ라가지	-12.285
▁갓짐치	-12.285
허주만은	-12.285
▁순번	-12.285
▁ᄈᆞ상	-12.2851
▁우잇	-12.2851
▁ᄌᆞᆷ박	-12.2851
▁지숙	-12.2851
▁알멩이	-12.2851
▁잡암	-12.2851
▁소중기	-12.2851
▁감제줄	-12.2851
▁시하르방	-12.2851
▁헤ᄉᆞᆷ	-12.2851
▁통량	-12.2851
▁곱새	-12.2851
▁두드림	-12.2851
▁뒤엣	-12.2851
▁ᄀᆞᆯ읍디다	-12.2851
▁마고지	-12.2852
▁다울리	-12.2852
▁뒤치개	-12.2852
▁ᄌᆞ록	-12.2852
▁모두와	-12.2852
▁절반	-12.2852
▁검정	-12.2852
▁팡돌	-12.2853
▁실겁	-12.2853
▁ᄒᆞ엿수다	-12.2853
▁머릿	-12.2853
▁구감	-12.2853
▁햄수과	-12.2854
▁소고기적	-12.2854
▁합동	-12.2854
▁쉐멍에	-12.2854
▁무짐치	-12.2854
▁신혼	-12.2854
▁잡초	-12.2854
▁서껀	-12.2854
▁생멩주	-12.2854
▁당ᄆᆞᆯ	-12.2854
▁어서부난	-12.2854
▁상ᄆᆞ로	-12.2854
▁울산	-12.2855
▁베치메	-12.2855
▁졸국	-12.2855
▁벌금	-12.2855
▁초사흘날	-12.2855
▁피농사	-12.2856
▁분량	-12.2856
▁남손	-12.2856
▁놔둿다근에	-12.2856
▁육십년	-12.2857
▁멘적	-12.2857
▁저실에	-12.2857
▁ᄃᆞᆯ아멘	-12.2858
▁요마니	-12.2858
▁천추	-12.2858
▁않앗주게	-12.2858
▁사촌	-12.2859
▁헷습니다	-12.2859
▁영장칩이	-12.2859
▁콩ᄀᆞ를	-12.2859
▁토신젠	-12.2859
▁다듬아그네	-12.2859
▁족으난	-12.2859
▁들어옵	-12.2859
▁과거	-12.286
▁대변	-12.286
▁찔레	-12.286
▁표선면	-12.286
▁오춘	-12.286
▁바래	-12.2861
▁짐새	-12.2861
▁속박	-12.2861
▁앗엉	-12.2861
▁무수로	-12.2861
▁버문	-12.2862
▁죽어불엉	-12.2862
▁가옴	-12.2862
▁각장	-12.2862
▁뽑으멍	-12.2862
▁거시긴	-12.2862
▁자유	-12.2862
▁ᄆᆞᆯ방아	-12.2862
▁조곰	-12.2862
▁비등	-12.2862
▁다듬이질	-12.2863
▁오십년	-12.2863
▁일굽	-12.2864
▁ᄂᆞ실	-12.2864
▁기역	-12.2864
▁흰떡	-12.2864
▁장궤	-12.2865
▁북한	-12.2865
▁목장제	-12.2865
▁ᄆᆞ리썩	-12.2866
▁콩ᄂᆞ물국	-12.2866
▁우민	-12.2867
▁줏어다가	-12.2867
▁나옵디다	-12.2868
▁보리왓디	-12.2868
▁현미	-12.2868
▁밀창	-12.2869
▁ᄃᆞᆯ아매엉	-12.2869
▁놔놘	-12.2869
▁꺼내영	-12.287
▁문딱	-12.287
▁ᄆᆞᆫ착	-12.287
비눔	-12.287
▁산듸씨	-12.2871
▁삼나무	-12.2871
▁체소	-12.2872
▁가까운데	-12.2872
▁이서낫잖아예	-12.2872
▁무르	-12.2872
▁헝	-12.2872
▁돌아강	-12.2872
▁띤	-12.2872
▁꼴랑지	-12.2872
▁너른	-12.2873
▁비옷	-12.2873
▁메달	-12.2875
▁치전	-12.2875
▁책임자	-12.2875
▁더우니까	-12.2875
▁백마	-12.2876
▁떠내	-12.2876
▁뜰려	-12.2876
▁갈앗다가	-12.2876
▁봣인디	-12.2876
▁ᄂᆞᆷ삐밥	-12.2877
▁부친	-12.2877
청충	-12.2878
▁촐왓디	-12.2878
▁육일	-12.2878
▁성격이	-12.2879
▁웬짝	-12.2879
▁삼종	-12.288
▁말입주	-12.288
▁이녘	-12.288
▁넘어나민	-12.2881
▁눅져	-12.2881
▁도리깨로	-12.2881
▁만허니까	-12.2881
▁가족들	-12.2882
▁입졋주	-12.2882
▁젱기	-12.2882
▁데껴불곡	-12.2883
▁비여놩	-12.2883
▁복친덜이	-12.2883
▁좁ᄊᆞᆯ밥	-12.2883
▁동드레	-12.2883
▁낭테	-12.2884
▁시청	-12.2884
▁서무	-12.2884
▁얼거	-12.2885
▁곱앙	-12.2885
▁모르는데	-12.2885
▁헤져신	-12.2885
▁순수	-12.2885
▁늘롸	-12.2885
▁뒈치	-12.2886
▁넴겨	-12.2886
▁구광	-12.2886
▁딴딴허게	-12.2886
▁차례로	-12.2887
▁왕창	-12.2887
▁ᄒᆞ느냐	-12.2887
▁ᄆᆞᆯ뢍	-12.2888
먹으멍	-12.2888
▁집사름	-12.2888
▁하노난	-12.2888
▁어룬덜	-12.2888
▁농사짓젠	-12.2889
▁늙으난	-12.2889
▁사계	-12.289
▁어딧	-12.289
시킨	-12.289
▁빈네	-12.2891
▁소화	-12.2891
▁좍	-12.2891
▁남제	-12.2892
사람이	-12.2892
▁ᄀᆞ음	-12.2892
▁길가에	-12.2892
▁모시실	-12.2893
▁도메	-12.2893
▁ᄈᆞᆺ아당	-12.2894
▁개자리	-12.2894
▁형식	-12.2895
뿐이주	-12.2895
▁삼천	-12.2895
▁무정	-12.2897
▁요듸	-12.2897
▁갈앗어	-12.2898
▁가진디	-12.2898
금지	-12.2899
▁청년덜	-12.29
▁아프덴	-12.29
▁흑밥	-12.29
▁셔나서	-12.2901
▁어째	-12.2901
▁남문	-12.2901
▁소막	-12.2902
▁놓거나	-12.2903
▁졸영	-12.2907
▁어퍼	-12.2908
▁고기국	-12.2908
▁다념	-12.2909
▁아파가지고	-12.2909
▁제사떡	-12.291
▁먹듯이	-12.291
▁하르바지	-12.2911
▁가축	-12.2911
▁쑤젠	-12.2911
▁조피	-12.2911
▁태어나서	-12.2912
▁엇어낫구나	-12.2912
▁보살	-12.2913
▁내베	-12.2915
▁발른	-12.2915
▁직후에	-12.2915
▁지져근에	-12.2917
▁옛날말	-12.2917
▁ᄇᆞᆯ랏주게	-12.2918
▁산디ᄊᆞᆯ로	-12.292
▁봐나난	-12.292
▁가쿠다	-12.2921
▁가망이	-12.2921
▁밀가루로	-12.2921
▁소남	-12.2921
▁하직	-12.2922
▁개짜리	-12.2924
▁앚다	-12.2924
▁가테	-12.2925
▁ᄇᆞᆯ리멍	-12.2926
▁가주기	-12.2926
▁무서와	-12.2927
▁치자	-12.2927
▁사름끼리	-12.2927
▁봄의	-12.2927
▁고모부	-12.2927
▁썰민	-12.2927
▁가림	-12.2928
▁빠내	-12.2928
▁인연	-12.2929
▁물려주	-12.293
▁거시려	-12.2931
▁부떤	-12.2932
▁씻어근에	-12.2932
▁연세가	-12.2933
▁해낫수다게	-12.2934
▁문세	-12.2935
▁가졋	-12.2936
▁ᄀᆞᆯ아나서	-12.2936
▁부억에서	-12.2937
▁찍어야	-12.2937
▁잠수	-12.2937
▁아척	-12.2938
▁난거	-12.2938
▁쉽고	-12.2939
▁몰른다	-12.2943
▁파다근에	-12.2944
▁ᄀᆞ랑	-12.2946
▁개관	-12.2946
▁기다려	-12.2947
▁낄	-12.2948
▁ᄀᆞᆯ아줘야	-12.2949
▁올라사	-12.2949
▁해산	-12.295
▁무게가	-12.295
▁제불	-12.2951
▁부수와	-12.2951
▁물렷	-12.2953
▁왐저	-12.2954
▁가겐	-12.2955
▁구월덜	-12.2957
▁산신	-12.2959
▁때리멍	-12.2961
▁동정	-12.2961
▁저곰	-12.2962
▁말왓	-12.2962
▁방지허	-12.2963
졈저	-12.2963
십팔	-12.2964
▁신어난	-12.2964
▁명질	-12.2966
▁끌려사	-12.2967
▁퀴	-12.2968
▁왈	-12.2968
▁피왕	-12.2969
암직	-12.2969
▁마트에	-12.297
▁ᄀᆞᆯ앙은에	-12.2972
▁전헤	-12.2972
▁가메에	-12.2974
▁틔우는	-12.2976
메다	-12.2977
▁헤불면	-12.2977
▁걷으	-12.2981
▁홀트지	-12.2983
▁허락	-12.2983
▁들러리	-12.2985
▁칠월달	-12.2987
▁흰밥은	-12.2987
▁서꺼근엥	-12.2988
▁만아	-12.2988
▁소한에	-12.2989
▁들어와근에	-12.299
▁터지민	-12.2991
훼관	-12.2991
▁갓저	-12.2992
▁가로로	-12.2993
▁곤ᄊᆞᆯᄀᆞ루	-12.2995
셰게	-12.2996
▁들으난	-12.2996
▁그기서	-12.2996
▁차비	-12.2998
▁이슬	-12.2999
▁쉬엉	-12.3
▁가젼	-12.3001
▁어려우	-12.3001
▁멧돌에	-12.3004
▁헤본	-12.3004
▁공사	-12.3008
▁왁	-12.3009
뜨박	-12.3012
▁ᄀᆞ치들	-12.3013
▁죽장	-12.3014
▁당허는	-12.3017
▁결혼헹	-12.3019
▁ᄀᆞ리에	-12.302
▁뿔리로	-12.3023
▁내불면	-12.3023
▁의원이	-12.3025
▁턱	-12.3025
▁월령에서	-12.3026
▁헤오는	-12.3028
▁일언	-12.3029
▁엇어부니까	-12.303
▁지어당	-12.3031
▁태교는	-12.3031
▁쉽주	-12.3032
▁낫지	-12.3034
▁제단	-12.3036
▁데려다	-12.304
▁재미낫	-12.3041
▁걸려근에	-12.3041
▁그러기	-12.3045
▁한가운	-12.3047
▁요령	-12.3049
▁이파	-12.305
▁쓰니까	-12.3055
▁나간다	-12.3056
울라	-12.3059
▁나왓지	-12.3059
▁판나	-12.306
▁탄탄	-12.3064
▁방앗간	-12.3064
왓당	-12.3065
▁왓당	-12.3067
▁가저와	-12.3068
▁놤주	-12.3069
▁들어오난	-12.307
▁나가불민	-12.3071
▁동네사름덜	-12.3071
▁일차	-12.3072
▁ᄄᆞᆯ덜이	-12.3073
▁피여	-12.3078
▁ᄉᆞᆱ기	-12.3079
▁데려가	-12.308
▁썻수다	-12.3081
▁자린	-12.3084
▁장물이엔	-12.3084
▁순사	-12.3085
▁창호지로	-12.3086
▁클르	-12.3091
[...]
