{
  "src_word2id": {
    "<pad>": 0,
    "<s>": 1,
    "</s>": 2,
    "<unk>": 3,
    "\u2581.": 4,
    "\u2581,": 5,
    "\u2581?": 6,
    "\u2581": 7,
    "\u2581\uac70": 8,
    "\u2581\uadf8": 9,
    "\ub3c4": 10,
    "\u2581\uc608": 11,
    "\ub294": 12,
    "\uc774": 13,
    "\u2581\uc544": 14,
    "\u2581\uc548": 15,
    "\uc740": 16,
    "\uc608": 17,
    "\uac00": 18,
    "\uac8c": 19,
    "\uc5d0": 20,
    "\uc744": 21,
    "\u2581\uc800": 22,
    "\u2581\uc751": 23,
    "\u2581\ubb50": 24,
    "\u2581\uc601": 25,
    "\u2581\ub2e4": 26,
    "\u2581\uc774\uc81c": 27,
    "\u2581\uc73c": 28,
    "\u2581\uc774": 29,
    "\u2581\uac74": 30,
    "\u2581\uadf8\uac70": 31,
    "\u2581\ub9c9": 32,
    "\u2581\u1112\u119e\u11ab": 33,
    "\u2581\ub54c": 34,
    "\u2581\uacbd": 35,
    "\uace0": 36,
    "\u2581\ub610": 37,
    "\u2581\uc544\ub2c8": 38,
    "\u2581\uc6b0\ub9ac": 39,
    "\u2581\uc5b4": 40,
    "\u2581\ud5c8\ub294": 41,
    "\ub97c": 42,
    "\ub9cc": 43,
    "\ub9c8\uc528": 44,
    "\u2581\uadf8\ub7f0": 45,
    "\u2581\uac8c\ub09c": 46,
    "\ub85c": 47,
    "\u2581\uac8c": 48,
    "\u2581\ud5e4": 49,
    "\u2581\ud5f9": 50,
    "\u2581\uc74c": 51,
    "\u2581\uadf8\ub0e5": 52,
    "\uc11c": 53,
    "\u2581\uc798": 54,
    "\u2581\ud5c8\ubbfc": 55,
    "\uc9c0": 56,
    "\u2581\uac15": 57,
    "\ubbfc": 58,
    "\ub098": 59,
    "\u2581\uc5b4\ub5b5": 60,
    "\uc5d4": 61,
    "\u2581\ud5cc": 62,
    "\u2581\uc774\uc820": 63,
    "\u2581\uac83\ub3c4": 64,
    "\u2581\ub450": 65,
    "\u2581\ubb3c": 66,
    "\u2581\ubabb": 67,
    "\u2581\ub1a9": 68,
    "\u2581\ub098": 69,
    "\uc73c\ub85c": 70,
    "\uc8fc\uac8c": 71,
    "\u2581\ud5c8\uace0": 72,
    "\uace1": 73,
    "\u2581\uac1c": 74,
    "\u2581\uadf8\ub7fc": 75,
    "\ub2c8\uae4c": 76,
    "\u2581\uc5c7\uc5b4": 77,
    "\u2581\ubb34\uc2e0": 78,
    "\u2581\uac70\ub77c": 79,
    "\u2581\uac8c\ubbfc": 80,
    "\ud5c8\uace0": 81,
    "\u2581\ub514": 82,
    "\u2581\uc774\ub807\uac8c": 83,
    "\u2581\uc5b4\ub514": 84,
    "\u2581\uadf8\uac74": 85,
    "\u2581\ub9d0": 86,
    "\u2581\ud5d0": 87,
    "\ub09c": 88,
    "\u2581\uadf8\uac78": 89,
    "\ud5cc": 90,
    "\u2581\ud5e4\uc601": 91,
    "\u2581\ubc88": 92,
    "\u2581\uc787\uace0": 93,
    "\u2581\ubcf4\ub9ac": 94,
    "\u2581\ud5e4\uadfc\uc5d0": 95,
    "\uadfc\uc5d0": 96,
    "\u2581\uc0ac\ub984": 97,
    "\u2581\uc5b4\ub5a4": 98,
    "\uc8fc": 99,
    "\uc0ac": 100,
    "\u2581\uc774\uac70": 101,
    "\u2581\uac70\ub294": 102,
    "\u2581\uc250": 103,
    "\uc774\ub098": 104,
    "\u2581\ud55c": 105,
    "\u2581\uc61b\ub0a0": 106,
    "\u2581\ub54c\ub294": 107,
    "\ub35c": 108,
    "\uc820": 109,
    "\u2581\uba67": 110,
    "\uc591": 111,
    "\u2581\uac00": 112,
    "\u2581\uc544\uae4c": 113,
    "\u2581\uac00\uc9c0\uace0": 114,
    "\u2581\uadf8\uc790": 115,
    "\u2581\ub09c": 116,
    "\u2581\ud5c8\uc5ec": 117,
    "\u2581\uc9d1": 118,
    "\u2581\uc5ec\uae30": 119,
    "\u2581\uc77c": 120,
    "\ub2e4": 121,
    "\u2581\uc774\ub514": 122,
    "\ub77c": 123,
    "\u2581\uc138": 124,
    "\u2581\uc61b\ub0a0\uc740": 125,
    "\u2581\ud5c8\uc601": 126,
    "\uc774\uc5d4": 127,
    "\u2581\uc870": 128,
    "\u2581\ud070": 129,
    "\u2581\ud558\uc601": 130,
    "\u2581\uc61b\ub0a0\uc5d0": 131,
    "\u2581\uac78": 132,
    "\u2581\uc787\uc5b4": 133,
    "\ub80c": 134,
    "\uc57c": 135,
    "\u2581\ubd88": 136,
    "\ub514": 137,
    "\uae30": 138,
    "\uc9c4": 139,
    "\u2581\uc774\ub7f0": 140,
    "\ub2f9": 141,
    "\u2581\uadf8\uac8c": 142,
    "\uba4d": 143,
    "\u2581\ub488": 144,
    "\uc601": 145,
    "\u2581\ubc27": 146,
    "\u2581\uadf8\ub54c": 147,
    "\u2581\ud5e4\uc11c": 148,
    "\uadf8\ub124": 149,
    "\uba74\uc740": 150,
    "\u2581\uc0ac\ub984\uc740": 151,
    "\u2581\ub0a0": 152,
    "\u2581\uadf8\ub514": 153,
    "\u2581\uac83\uc774": 154,
    "\u2581\uc9d1\uc774": 155,
    "\u2581\ubb34\uc2dc\uac70": 156,
    "\uc5ec": 157,
    "\u2581\ubc25": 158,
    "\u2581\ud5c8\uace1": 159,
    "\u2581\uc544\uc774\uace0": 160,
    "\u2581\ud5d9\ub2c8\uae4c": 161,
    "\ub77c\uace0": 162,
    "\u2581\uc528": 163,
    "\u2581\uba39\uc5b4": 164,
    "\u2581\uac04": 165,
    "\u2581\uba39\uace0": 166,
    "\u2581\u1106\u119e\u11af": 167,
    "\u2581\ub9ce\uc774": 168,
    "\u2581\ub550": 169,
    "\u2581\u1100\u119e\u11af\uc544": 170,
    "\u2581\uc18c": 171,
    "\u2581\uadf8\ub807\uac8c": 172,
    "\u2581\uc8fc\ub85c": 173,
    "\u2581\uc904": 174,
    "\uac00\uc9c0\uace0": 175,
    "\uc9c8": 176,
    "\u2581\uac10\uc800": 177,
    "\u2581\ucf69": 178,
    "\u2581\uac08": 179,
    "\u2581\ub2e4\ub978": 180,
    "\u2581\ub194": 181,
    "\u2581\uc544\uc544": 182,
    "\ud5d0": 183,
    "\u2581\ub531": 184,
    "\u2581\uc61b\ub0a0\uc5d4": 185,
    "\u2581\uc880": 186,
    "\u2581\ub193\uace0": 187,
    "\u2581\ubab0\ub77c": 188,
    "\u2581\uac70\ub09c": 189,
    "\u2581\uc0ac\ub78c": 190,
    "\u2581\u1112\u119e\ub294": 191,
    "\u2581\uba39\ub294": 192,
    "\u2581\ud558\ub098": 193,
    "\u2581\uac00\ub294": 194,
    "\u2581\uc9c0\uae08": 195,
    "\u2581\uc800\uae30": 196,
    "\ub374": 197,
    "\u2581\ub354": 198,
    "\u2581\uc0b4": 199,
    "\u2581\uac19\uc740": 200,
    "\u2581\u110b\u119e": 201,
    "\u2581\ub124": 202,
    "\u2581\ud558": 203,
    "\u2581\uc6b0\ub9b0": 204,
    "\u2581\uac00\ubbfc": 205,
    "\uc5d0\uc11c": 206,
    "\u2581\uac78\ub85c": 207,
    "\ub808": 208,
    "\uc5b4": 209,
    "\u2581\ub098\uac00": 210,
    "\u2581\u1112\u119e\ubbfc": 211,
    "\u2581\u1112\u119e\uc601": 212,
    "\u2581\uc0ac\ub984\uc774": 213,
    "\u2581\ub2e4\uc74c\uc5d0": 214,
    "\u2581\uc694": 215,
    "\u2581\u1112\u119e\ub098": 216,
    "\u2581\ubb34\uc2a8": 217,
    "\u2581\ub193\uace1": 218,
    "\uc800": 219,
    "\u2581\ub0ad": 220,
    "\u2581\ud5e4\ub3c4": 221,
    "\u2581\uc0bc\ucd98": 222,
    "\ub791": 223,
    "\u2581\ub3cc": 224,
    "\u2581\ubca0": 225,
    "\uc774\ub77c\uace0": 226,
    "\u2581\ubcf4\ud1b5": 227,
    "\u2581\ub5a1": 228,
    "\ud5c8\ub294": 229,
    "\u2581\ud5e4\uc5ec": 230,
    "\u2581\uc637": 231,
    "\u2581\ud574": 232,
    "\u2581\uc544\ub2c8\uace0": 233,
    "\u2581\ub488\uc5ec": 234,
    "\u2581\ud5e8": 235,
    "\uba74": 236,
    "\u2581\uc6d0": 237,
    "\u2581\uac00\uc9c0": 238,
    "\ud5c8\uac8c": 239,
    "\uc774\ub77c": 240,
    "\u2581\uc5d0": 241,
    "\u2581\uc5c7\uace0": 242,
    "\u2581\uc885\ub958": 243,
    "\u2581\ube44": 244,
    "\uc774\ub80c": 245,
    "\u2581\uadf8\uac78\ub85c": 246,
    "\u2581\ud5c8": 247,
    "\u2581\uc61b\ub0a0\uc5d0\ub294": 248,
    "\u2581\uac8c\ubbc4": 249,
    "\uc778\uac00": 250,
    "\ub4e4": 251,
    "\u2581\ub194\uadfc\uc5d0": 252,
    "\u2581\uac85": 253,
    "\u2581\uc2e0": 254,
    "\u2581\ubb34\uc2e0\uac70": 255,
    "\u2581\u1112\u119e\uaf3c": 256,
    "\u2581\ud5c8\ub09c": 257,
    "\u2581\ub144": 258,
    "\u2581\u1112\u119e\u110a\u119e\u11af": 259,
    "\uc796\uc544\uc608": 260,
    "\uc5c9": 261,
    "\u2581\uc5b4\ub290": 262,
    "\u2581\uadf8\uac83\uc774": 263,
    "\u2581\ud5c8\uba74\uc740": 264,
    "\u2581\uc774\uac74": 265,
    "\u2581\uac78\ub984": 266,
    "\u2581\uc7a5": 267,
    "\u2581\uc0c1": 268,
    "\u2581\uac80\uc9c8": 269,
    "\u2581\uba39\uace1": 270,
    "\u2581\uc0bc": 271,
    "\ub124": 272,
    "\u2581\uc2dd\uc73c\ub85c": 273,
    "\u2581\uc774\ub141": 274,
    "\u2581\u1112\u119e\uace1": 275,
    "\u2581\uc9c0": 276,
    "\uae34": 277,
    "\uc774\uace0": 278,
    "\u2581\ub18d\uc0ac": 279,
    "\u2581\ub3c8": 280,
    "\u2581\uc218": 281,
    "\u2581\uac08\uc544": 282,
    "\u2581\uc0ac": 283,
    "\u2581\uadf8\ub54c\ub294": 284,
    "\u2581\uc560\uae30": 285,
    "\u2581\uc787\ub294": 286,
    "\u2581\uc544\uc774": 287,
    "\u2581\uae30\uc790": 288,
    "\u2581\ub193\ub294": 289,
    "\u2581\ubb34\uc0ac": 290,
    "\u2581\uc8fd": 291,
    "\u2581\ub300": 292,
    "\ud5c8\ubbfc": 293,
    "\uc778": 294,
    "\uc60c": 295,
    "\uc218\uacfc": 296,
    "\u2581\ud5c8\uba4d": 297,
    "\uc544": 298,
    "\u2581\uba39\uc744": 299,
    "\u2581\uc774\uc11c": 300,
    "\u2581\ub098\ub294": 301,
    "\u2581\uc5f4": 302,
    "\ud558\uace0": 303,
    "\u2581\uadf8\uac83\ub3c4": 304,
    "\ubbc4": 305,
    "\u2581\ud5c8\uc820": 306,
    "\ud5f9": 307,
    "\u2581\uadf8\ubbc4": 308,
    "\ud5e4": 309,
    "\u2581\ubb50\ub80c": 310,
    "\u2581\ub488\ub294": 311,
    "\u2581\uc815\ub3c4": 312,
    "\u2581\uc81c": 313,
    "\u2581\u110e\u119e\u11b7": 314,
    "\u2581\ud5e4\ub09c": 315,
    "\u2581\uc774\uc81c\ub294": 316,
    "\u2581\ub4e4\uc5b4": 317,
    "\u2581\uc0c8": 318,
    "\u2581\uc544\ubb34": 319,
    "\u2581\uadf8\uac70\ub294": 320,
    "\uc740\uc5d0": 321,
    "\u2581\uac70\uace0": 322,
    "\u2581\ub54c\ub3c4": 323,
    "\ud788": 324,
    "\u2581\ub9d0\uace0": 325,
    "\u2581\uc0ac\ub78c\uc774": 326,
    "\u2581\uc5ec\uae30\ub294": 327,
    "\u2581\uc88b\uc544": 328,
    "\u2581\u110a\u119e\u11af": 329,
    "\uc774\uc60c": 330,
    "\u2581\uc6b0\uc5d0": 331,
    "\u2581\uc5b8\uc81c": 332,
    "\u2581\ub0b4": 333,
    "\u2581\ub2e4\uc2dc": 334,
    "\u2581\u1106\u119e\u11ab": 335,
    "\ub9b0": 336,
    "\u2581\u1112\u119e\uc5ec\uadf8\ub124": 337,
    "\ub2e4\uac00": 338,
    "\u2581\ub3d9\ub124": 339,
    "\u2581\uadf8\ub808": 340,
    "\ub370": 341,
    "\u2581\uc624": 342,
    "\u2581\ud5c8\uba74": 343,
    "\ub294\ub370": 344,
    "\u2581\uac70\uc8fc": 345,
    "\u2581\uac70\uae30": 346,
    "\uad6c\ub098\uc608": 347,
    "\ud55c": 348,
    "\u2581\uc655": 349,
    "\u2581\uac70\uc608": 350,
    "\u2581\ud5c8\uc8fc": 351,
    "\ub354\ub808": 352,
    "\u2581\uc88b\uc740": 353,
    "\u2581\uc2dc": 354,
    "\u2581\ub9cc\ub4e4\uc5b4": 355,
    "\uc758": 356,
    "\u2581\ubc30": 357,
    "\u2581\uba54": 358,
    "\u2581\ub098\ubb34": 359,
    "\uc838": 360,
    "\u2581\ub530\uc2dc": 361,
    "\u2581\uc790": 362,
    "\u2581\uad6d": 363,
    "\u2581\ud5c8\uc8fc\uac8c": 364,
    "\u2581\uc190\uc73c\ub85c": 365,
    "\u2581\ud558\ud558\ud558": 366,
    "\u2581\ub9db": 367,
    "\u2581\ucd10": 368,
    "\u2581\ubc27\ub4f8": 369,
    "\u2581\uc11c": 370,
    "\u2581\ud5c8\uc9c0": 371,
    "\uaf48": 372,
    "\u2581\ud751": 373,
    "\u2581\ub9cc\ub4dc\ub294": 374,
    "\u2581\uc6b0\ub9ac\uac00": 375,
    "\u2581\uae30": 376,
    "\u2581\ud5f7\uc218\uacfc": 377,
    "\u2581\u1100\u119e\ud2bc": 378,
    "\u2581\ud5e4\uac00\uc9c0\uace0": 379,
    "\u2581\uadf8\ub550": 380,
    "\ub0ab\uc218\uacfc": 381,
    "\u2581\uac70\uc8fc\uac8c": 382,
    "\u2581\ubbf8\ub155": 383,
    "\u2581\uc0b0": 384,
    "\ub9b4": 385,
    "\u2581\u1106\u119e\u11ab\ub531": 386,
    "\uc2dc": 387,
    "\u1112\u119e\u11ab": 388,
    "\u2581\uc2e4": 389,
    "\u2581\uc640": 390,
    "\u2581\ud639\uc2dc": 391,
    "\u2581\uc6b0\uc774": 392,
    "\u2581\ud480": 393,
    "\u2581\uac74\ub514": 394,
    "\ub294\ub514": 395,
    "\u2581\ub48c": 396,
    "\u2581\uc787\uc218\uacfc": 397,
    "\u2581\uacbd\ud5f9": 398,
    "\uc2e0\ub514": 399,
    "\u2581\uc81c\uc0ac": 400,
    "\u2581\uac90\ub514": 401,
    "\u2581\ubb38": 402,
    "\u2581\uc9d1\uc774\uc11c": 403,
    "\u2581\ub3c4\uc0c8\uae30": 404,
    "\u2581\ub488\uace0": 405,
    "\u2581\u1112\u119e\uc5ec": 406,
    "\ud5c8\uace1": 407,
    "\uac70\ub4e0": 408,
    "\u2581\uc5b4\ub5bb\uac8c": 409,
    "\u2581\ub098\ubbfc": 410,
    "\u2581\uadf8\ub2e4\uc74c\uc5d0": 411,
    "\uc77c": 412,
    "\u2581\uba38": 413,
    "\u2581\uc5ec\uae30\uc11c": 414,
    "\u2581\ub9cc\uc774": 415,
    "\u2581\uac83": 416,
    "\u2581\ub2e4\uc12f": 417,
    "\u2581\ubcf4": 418,
    "\u2581\u1111\u119e\u11ba": 419,
    "\u2581\uc824": 420,
    "\uc559": 421,
    "\u2581\uc544\ub140": 422,
    "\u2581\ud53c": 423,
    "\u2581\ubcf4\ubbfc": 424,
    "\ub358": 425,
    "\ub9cc\uc740": 426,
    "\ub1a9": 427,
    "\ub9ac": 428,
    "\u2581\uc804\uc5d0": 429,
    "\u2581\ud5f7\uc8fc": 430,
    "\uacfc": 431,
    "\uc774\uc5ec": 432,
    "\u2581\uac00\uadfc\uc5d0": 433,
    "\uc624": 434,
    "\u2581\ub2f4": 435,
    "\u2581\uc220": 436,
    "\u2581\uc0ac\ub78c\uc740": 437,
    "\u2581\uac70\uaf48": 438,
    "\u2581\ub370": 439,
    "\u2581\u1109\u119e\u11af": 440,
    "\u2581\uc0ac\ub984\ub35c": 441,
    "\u2581\u1112\u119e\u11af": 442,
    "\u2581\ubaa8": 443,
    "\u2581\ud5cc\ub2e4": 444,
    "\u2581\ubb3c\uc5d0": 445,
    "\u2581\uc54c": 446,
    "\u2581\ub098\ub3c4": 447,
    "\uc790": 448,
    "\u2581\uc0b4\uc544": 449,
    "\u2581\ubc27\ub514": 450,
    "\u2581\ud5c8\ub294\ub514": 451,
    "\u2581\uacbd\ud5c8\ubbfc": 452,
    "\u2581\ubc29": 453,
    "\ub77c\ub3c4": 454,
    "\u2581\uc787\uc796\uc544": 455,
    "\uc778\ub514": 456,
    "\u2581\ud589": 457,
    "\u2581\u1100\u119e\ub72c": 458,
    "\u2581\ub488\ubbfc": 459,
    "\u2581\ud30c": 460,
    "\u2581\uba69\uc9c8": 461,
    "\u2581\ub2f4\uc544": 462,
    "\u2581\ucc28": 463,
    "\u1112\u119e\uace0": 464,
    "\u2581\ub17c": 465,
    "\u2581\uc81c\uc77c": 466,
    "\u2581\ud5c8\ubbc4": 467,
    "\u2581\ubc1c": 468,
    "\ub4e0": 469,
    "\u2581\uc62c": 470,
    "\u2581\u1112\u119e\uace0": 471,
    "\u2581\ub54c\uc5d0": 472,
    "\u2581\uc544\ub2c8\ub77c": 473,
    "\ub2e8": 474,
    "\u2581\u1109\u119e\u11b1\uc559": 475,
    "\u2581\ud558\uace0": 476,
    "\u2581\uc628": 477,
    "\uc529": 478,
    "\u2581\ubc18": 479,
    "\u2581\uc794\uce58": 480,
    "\u2581\ubd80": 481,
    "\uc2e4": 482,
    "\uc369": 483,
    "\uc774\uc601": 484,
    "\u2581\ud560\uba38\ub2c8": 485,
    "\u2581\ub490": 486,
    "\uc5d0\ub294": 487,
    "\u2581\uac90": 488,
    "\u2581\u1103\u119e\u11af": 489,
    "\u2581\uba5c": 490,
    "\u2581\u1100\u119e\ub8e8": 491,
    "\u2581\uc9c0\uae08\uc740": 492,
    "\uc74c": 493,
    "\u2581\uc790\ub9ac": 494,
    "\u2581\ud5c8\ub2c8\uae4c": 495,
    "\u2581\ub2f4\uc559": 496,
    "\u2581\uc7a1\uc544": 497,
    "\u2581\uba87": 498,
    "\ubd80\ud130": 499,
    "\u2581\uae30\ub0e5": 500,
    "\u2581\uc5ff\ub0a0": 501,
    "\u2581\ub9de\uc218\ub2e4": 502,
    "\u2581\u1100\u119e\u11af\uc544\uc90d\uc11c": 503,
    "\u2581\uc774\uac8c": 504,
    "\u2581\ub9de\uc544": 505,
    "\u2581\uc774\ub808": 506,
    "\u2581\uc368": 507,
    "\u2581\u1112\u119e": 508,
    "\u2581\uac10": 509,
    "\u2581\uc5ec\ub7ec": 510,
    "\u2581\uac00\uc9c0\uace0\uc11c": 511,
    "\u2581\ud5e4\ub9c8\uc528": 512,
    "\ud5e4\uc601": 513,
    "\u2581\ud558\ub294": 514,
    "\u2581\uc77c\ubcf8": 515,
    "\uc0c1": 516,
    "\u2581\uc9c8": 517,
    "\u2581\ubb3c\uc774": 518,
    "\u2581\ud5e4\uc57c": 519,
    "\u2581\uc0ac\ub984\ub3c4": 520,
    "\u2581\uadf8\ucd94\ub8e9": 521,
    "\ub35c\uc740": 522,
    "\u2581\uc8fc": 523,
    "\uc640": 524,
    "\u2581\uc881\u110a\u119e\u11af": 525,
    "\u2581\uc871\uc740": 526,
    "\u2581\uac00\uace0": 527,
    "\u2581\uc4f0\ub294": 528,
    "\ub9c8\uc538": 529,
    "\u2581\uaf2d": 530,
    "\u2581\uace0\uae30": 531,
    "\u2581\uace0": 532,
    "\u2581\uacb0\ud63c": 533,
    "\u2581\ub2ee\uc740": 534,
    "\uc655": 535,
    "\u2581\ub20c": 536,
    "\u2581\ub9d0\uc774": 537,
    "\u2581\uc624\ub798": 538,
    "\u2581\ud0c1": 539,
    "\u2581\uc18c\uae08": 540,
    "\u2581\ub194\ub450\ubbfc": 541,
    "\u2581\ub2e4\uc74c": 542,
    "\u2581\ub208": 543,
    "\u2581\uc787\uc9c0": 544,
    "\ub0ad": 545,
    "\u2581\uac8c\uba54": 546,
    "\u2581\uc544\uc8fc": 547,
    "\u2581\uc5ff\ub0a0\uc5d0": 548,
    "\u2581\ub545": 549,
    "\u2581\uc5c7\uc778": 550,
    "\u2581\ud5c8\uac8c": 551,
    "\u2581\ub48c\uc7a5": 552,
    "\u2581\uc804\uc774": 553,
    "\u2581\uc787\uace1": 554,
    "\u2581\uace8": 555,
    "\u2581\uc19f": 556,
    "\u2581\uadf8\uac70\ub97c": 557,
    "\uc7a5": 558,
    "\u2581\uc190": 559,
    "\ud5e4\uadfc\uc5d0": 560,
    "\u2581\uc774\ub984": 561,
    "\u2581\uc2dd\uac8c": 562,
    "\uac70": 563,
    "\u2581\ubb34": 564,
    "\u2581\uc544\ub798": 565,
    "\u2581\u1109\u119e\u11b1\uc544": 566,
    "\u2581\ubc00": 567,
    "\uc774\ub77c\ub3c4": 568,
    "\u2581\uba39": 569,
    "\u2581\uac70\uc2dc\uae30": 570,
    "\u2581\uc601\uc601": 571,
    "\u2581\ubd10": 572,
    "\u2581\uc624\ub791": 573,
    "\u2581\uac70\ub9c8\uc528": 574,
    "\u2581\uc5f0": 575,
    "\u2581\uc2f8": 576,
    "\u2581\ud5e4\ub2f9": 577,
    "\u2581\uc9c4": 578,
    "\u2581\ud560": 579,
    "\u2581\u1104\u119e\ub85c": 580,
    "\u2581\ubc14\ub2f9\uc5d0": 581,
    "\u2581\ub9cc\ub4e4": 582,
    "\u2581\uc57c": 583,
    "\uac00\ubbfc": 584,
    "\uadfc\uc5e5": 585,
    "\u2581\uac70\uae30\uc11c": 586,
    "\u1112\u119e\uace1": 587,
    "\ubd88\ubbfc": 588,
    "\u2581\uc5c7\uc774": 589,
    "\u2581\ub9d0\uc740": 590,
    "\u2581\ud5e4\ub0ab\uc218\uacfc": 591,
    "\ud574": 592,
    "\u2581\u1112\u119e\ub09c": 593,
    "\u2581\ub4e4\uc5b4\uac00": 594,
    "\u2581\uc5ec\uc790": 595,
    "\u2581\uc787": 596,
    "\u2581\ub514\uac00": 597,
    "\u2581\uc0ac\ub294": 598,
    "\u2581\ud0c0": 599,
    "\u2581\ud558\ub974\ubc29": 600,
    "\u2581\ub193\ubbfc": 601,
    "\u2581\uc608\uc608": 602,
    "\u2581\uc5ec\ub984\uc5d0": 603,
    "\u2581\uc787\uc8fc\uac8c": 604,
    "\ub2e4\uadfc\uc5d0": 605,
    "\u2581\u1104\u119e\u11af": 606,
    "\uae4c\uc9c0": 607,
    "\u2581\uc0ac\ub2f9": 608,
    "\u2581\ub4e4": 609,
    "\u2581\ucee4": 610,
    "\uc774\uc8fc": 611,
    "\u2581\uac70\ub77c\uc608": 612,
    "\u2581\uc601\uc7a5": 613,
    "\u2581\ub530\ub85c": 614,
    "\u2581\uba58\ub124": 615,
    "\u2581\ud5f7\uc8fc\uac8c": 616,
    "\u2581\ub9e4": 617,
    "\u2581\uc5c6\uc5b4": 618,
    "\uac70\ub098": 619,
    "\u2581\uc694\uc998": 620,
    "\u2581\uc9dc": 621,
    "\u2581\uac00\uc11c": 622,
    "\u2581\ub098\uc640": 623,
    "\ub300\ub85c": 624,
    "\u2581\u1100\u119e\ucc0c": 625,
    "\u2581\ub9c8\uc744": 626,
    "\u2581\ub1a7\ub2f9": 627,
    "\u2581\uc124": 628,
    "\u2581\uada4": 629,
    "\u2581\uc804\ubd80": 630,
    "\u2581\u1103\u119e\u11a8": 631,
    "\u2581\uc918": 632,
    "\u2581\uc90d\uc11c": 633,
    "\ub839": 634,
    "\u2581\uba38\ub9ac": 635,
    "\u1101\u119e\uc9c0": 636,
    "\ub4e4\uc774": 637,
    "\ub9c8\ub294": 638,
    "\u2581\uace0\uad6c\ub9c8": 639,
    "\u2581\uaca1": 640,
    "\uc8fc\ub9cc\uc740": 641,
    "\u2581\uba54\uc8fc": 642,
    "\u2581\uc815": 643,
    "\u2581\uc154": 644,
    "\u2581\u1102\u119e\u11b7\uc090": 645,
    "\u2581\uc22b": 646,
    "\uc2e0": 647,
    "\u1112\u119e\uac8c": 648,
    "\u2581\uafe9": 649,
    "\u2581\uad74\ubb35": 650,
    "\ub300": 651,
    "\u2581\uba58\ub4e4\uc559": 652,
    "\u2581\ub54c\ubb38\uc5d0": 653,
    "\u2581\uc9d1\uc5d0": 654,
    "\u2581\u1100\u119e\uce58": 655,
    "\ud5c8\uc601": 656,
    "\u2581\ubc11\uc5d0": 657,
    "\uc218": 658,
    "\u2581\uc6e8": 659,
    "\u2581\ub2ec": 660,
    "\u2581\ub9db\uc774": 661,
    "\u2581\uccb4": 662,
    "\u2581\ub488\uc5b4": 663,
    "\u2581\uc9d3": 664,
    "\u2581\ub0a8": 665,
    "\u2581\ucca8": 666,
    "\u2581\ud06c\uac8c": 667,
    "\u2581\u1109\u119e": 668,
    "\u2581\uc591": 669,
    "\u2581\uba58\ub4e4\uc544": 670,
    "\u2581\uc62c\ub824": 671,
    "\u2581\uc694\ub514": 672,
    "\u2581\uc774\ubd88": 673,
    "\u2581\uc57d": 674,
    "\u2581\ubc94\ubc85": 675,
    "\uad6c": 676,
    "\u2581\uc0ac\ub984\ub35c\uc740": 677,
    "\u2581\uacbd\ud5e8": 678,
    "\u2581\ub5bc": 679,
    "\ub2c8": 680,
    "\u2581\ub488\uba74\uc740": 681,
    "\u2581\uacbd\ud5c8\ub09c": 682,
    "\ub0a0": 683,
    "\u2581\uadf8\ub300\ub85c": 684,
    "\u2581\uc5ff\ub0a0\uc740": 685,
    "\u2581\uc26c": 686,
    "\u2581\ub0a8\uc790": 687,
    "\u2581\uc790\uae30": 688,
    "\u2581\uc644\uc804": 689,
    "\u2581\ub518": 690,
    "\u2581\uadf8\ub7ec\uba74": 691,
    "\u2581\uaca8\uc6b8\uc5d0": 692,
    "\ubd80\ub09c": 693,
    "\u2581\ub3d9": 694,
    "\u2581\uac70\uc138\uae30": 695,
    "\u2581\ubc14\ub85c": 696,
    "\uc774\ub791": 697,
    "\u2581\uc8fd\uc5b4": 698,
    "\u2581\uba54\uc5ed": 699,
    "\u2581\uc0c8\uac01\uc2dc": 700,
    "\u2581\uc5b4\uba4d": 701,
    "\u2581\ud5c8\ub294\ub370": 702,
    "\ub4e4\uc740": 703,
    "\u2581\ub180": 704,
    "\u2581\ub9c8\ucc2c\uac00\uc9c0": 705,
    "\u2581\uc5ec": 706,
    "\u2581\uc5b4\uba38\ub2c8": 707,
    "\u2581\uba69\uc9c0": 708,
    "\u2581\uc5c7\uc218\uacfc": 709,
    "\uc120": 710,
    "\u2581\uc9d1\uc758": 711,
    "\u2581\uc8fd\uc740": 712,
    "\u2581\ud1a1": 713,
    "\ubb3c": 714,
    "\u2581\uc544\ub35c": 715,
    "\u2581\uac80\uc740": 716,
    "\u2581\uc548\ud5c8\uc5ec": 717,
    "\u2581\ud5f7": 718,
    "\u2581\uc787\uc5b4\ub9c8\uc528": 719,
    "\u2581\uc721\uc9c0": 720,
    "\u2581\ucc9c": 721,
    "\u2581\ub300\ud574\uc11c": 722,
    "\u2581\uc804": 723,
    "\u2581\ub611": 724,
    "\u2581\ubcf8": 725,
    "\u2581\ub488\uc9c0": 726,
    "\u2581\uac83\u1100\u119e\ub77c": 727,
    "\u2581\uc77c\ub85c": 728,
    "\u2581\uc624\ub294": 729,
    "\u2581\uac00\uc84d": 730,
    "\u2581\ubcf4\ub9ac\u110a\u119e\u11af": 731,
    "\u2581\ub2f9": 732,
    "\u2581\uc885\ub958\ub294": 733,
    "\u2581\uc6b0\ub9ac\ub3c4": 734,
    "\uc84d": 735,
    "\u2581\uac00\uace1": 736,
    "\u2581\uc9d0": 737,
    "\u1100\u119e\ub77c": 738,
    "\u2581\u1104\u119e\uc2dc": 739,
    "\u2581\ud558\ud558": 740,
    "\u2581\uc548\ud5c8\uace0": 741,
    "\u2581\uc900\ube44": 742,
    "\u2581\ub178": 743,
    "\u2581\uadf8\ub2e4\uc74c\uc5d4": 744,
    "\u2581\uc5ff\ub0a0\uc5d4": 745,
    "\u2581\ubb34\uc2f1\uac70": 746,
    "\u2581\uc5b4\ub9b0": 747,
    "\uc9c0\ubbfc": 748,
    "\u2581\ub9cc\ub4e0": 749,
    "\ubb38": 750,
    "\uac74": 751,
    "\u2581\ubcf4\ub09c": 752,
    "\ub9c8\ub2e4": 753,
    "\u2581\uc5ec\uae34": 754,
    "\uc218\ub2e4": 755,
    "\u2581\uc9c0\uae08\ub3c4": 756,
    "\u2581\uc801": 757,
    "\u2581\uc624\ubbfc": 758,
    "\u2581\uac83\uc740": 759,
    "\u2581\uc787\uc8fc": 760,
    "\u2581\ud5f7\uc5b4": 761,
    "\u2581\uc81c\uc8fc\ub3c4": 762,
    "\u2581\ubb58\ub85c": 763,
    "\u2581\uce58": 764,
    "\u2581\ud56d": 765,
    "\u2581\uc694\uc998\uc740": 766,
    "\u2581\uac70\ub984": 767,
    "\u2581\ub9c8": 768,
    "\u2581\ub204\uac8c": 769,
    "\u2581\ud5f9\uc740\uc5d0": 770,
    "\u2581\uaff0": 771,
    "\u2581\u1100\u119e\u11af": 772,
    "\ub8e8": 773,
    "\u2581\ubd80\ub09c": 774,
    "\u2581\uc774\uc2e0": 775,
    "\uc9c0\uc608": 776,
    "\u2581\ubb34\uaebc": 777,
    "\u2581\ub9c8\ub9ac": 778,
    "\u2581\uc694\ub807\uac8c": 779,
    "\ub3d9": 780,
    "\u2581\ubd84": 781,
    "\u2581\uadf8\uac83": 782,
    "\uac08": 783,
    "\uc8fc\ub9c8\ub294": 784,
    "\u2581\uc785\uc5b4": 785,
    "\u2581\uc218\uac00": 786,
    "\u2581\u1100\u119e\u11af\uc559": 787,
    "\u2581\ub193": 788,
    "\u2581\ube60": 789,
    "\uc138": 790,
    "\u2581\uc544\ub2c8\uba74": 791,
    "\uc6b4": 792,
    "\u2581\ub098\uc911\uc5d0": 793,
    "\u2581\uc774\uac70\ub294": 794,
    "\uc774\uc8fc\uac8c": 795,
    "\u2581\uc18c\ub9ac": 796,
    "\u2581\uac00\uba74\uc740": 797,
    "\u2581\uc598\uae30": 798,
    "\ub2e4\uace0": 799,
    "\uad11": 800,
    "\u2581\uae30\uacc4": 801,
    "\u2581\ud560\ub9dd": 802,
    "\u2581\uc774\uac83": 803,
    "\ubd80": 804,
    "\u2581\ucd08\uc2e0": 805,
    "\u2581\uc800\uace0\ub9ac": 806,
    "\uaf5d": 807,
    "\uba54": 808,
    "\ud560": 809,
    "\ubca0\ub060": 810,
    "\uadfc\uc5e5\uc5d0": 811,
    "\uace0\uc608": 812,
    "\u2581\ubc14\uc9c0": 813,
    "\u2581\uc8fc\uace0": 814,
    "\ub77d": 815,
    "\u2581\uc694\ub9cc\uc529": 816,
    "\u2581\uadf8\uac83\uc5d0": 817,
    "\u2581\uc84d": 818,
    "\u2581\uad00": 819,
    "\uac15": 820,
    "\u2581\uc9d1\uc744": 821,
    "\ubcf4\ub2e4": 822,
    "\u2581\ubb34\uc218": 823,
    "\u2581\uc9d0\uce58": 824,
    "\u2581\uace4\ubc25": 825,
    "\u2581\ub300\ub85c": 826,
    "\u2581\ub54c\ub098": 827,
    "\u2581\uc544\uae30": 828,
    "\u2581\ube44\ub8cc": 829,
    "\u2581\uc911\uac04\uc5d0": 830,
    "\u2581\uc6b0\uc758": 831,
    "\u2581\uc774\ub518": 832,
    "\ub7ec": 833,
    "\uce58": 834,
    "\u2581\uc774\ub984\uc774": 835,
    "\u2581\uadc0": 836,
    "\u2581\ub9d0\ub85c": 837,
    "\u2581\uf000\uf000": 838,
    "\u2581\uc6b0": 839,
    "\u2581\uc5bc\ub9c8": 840,
    "\u2581\uc774\uc81c\ub3c4": 841,
    "\u2581\uc0b0\ub4f8": 842,
    "\u2581\uc694\uac70": 843,
    "\u2581\uac08\uc559": 844,
    "\u2581\uc250\ub85c": 845,
    "\u2581\ub204\ub8e9": 846,
    "\ud5c8\uc5ec": 847,
    "\u2581\ub098\uace0": 848,
    "\u2581\uc785": 849,
    "\ub35c\uc774": 850,
    "\u2581\uac83\uc5d0": 851,
    "\u2581\uac70\ub97c": 852,
    "\u2581\u1112\u119e\uba4d": 853,
    "\u2581\ub9cc": 854,
    "\u2581\ubb58": 855,
    "\u2581\ub625": 856,
    "\ub481": 857,
    "\u2581\uc370\uc5b4": 858,
    "\uad6d": 859,
    "\u2581\ubb47": 860,
    "\u2581\uc774\uac83\ub3c4": 861,
    "\u2581\uac13": 862,
    "\u2581\uc0b0\ub514": 863,
    "\ub978": 864,
    "\ub2c8\uae50": 865,
    "\u2581\ub2e8": 866,
    "\u2581\uba39\uc820": 867,
    "\u2581\ubcb3": 868,
    "\u2581\uaca8\ub09c": 869,
    "\ub0ab\uc5b4": 870,
    "\u2581\uc774\uac78": 871,
    "\ub450": 872,
    "\u2581\ud5e4\uc5f0": 873,
    "\u2581\uc0c8\ub07c": 874,
    "\u2581\ubc27\uc744": 875,
    "\u2581\uc18d": 876,
    "\u2581\uba3c\uc800": 877,
    "\u2581\ubb3c\ub808": 878,
    "\u2581\ub204\uc5d0": 879,
    "\u2581\uc530": 880,
    "\ub824": 881,
    "\u2581\u1102\u119e\ubb3c": 882,
    "\u2581\uc5b4\ub974\uc2e0": 883,
    "\u2581\uc18d\uc5d0": 884,
    "\ubd88": 885,
    "\u2581\u1112\u119e\uac8c": 886,
    "\u2581\ucc98\uc74c": 887,
    "\u2581\uad6c": 888,
    "\u2581\uc2dc\ubc29": 889,
    "\u2581\uc544\ubc29": 890,
    "\ub9c8": 891,
    "\u2581\uadf8\ub2e4\uc74c": 892,
    "\u2581\uace0\ub9dd": 893,
    "\u2581\ube44\uc5b4": 894,
    "\u2581\ub4e4\uc5b4\uac00\ub294": 895,
    "\u2581\uc815\uc6d4": 896,
    "\u2581\uc54c\uc544": 897,
    "\u2581\uc544\ub2c8\uaf48": 898,
    "\ud5e4\uc11c": 899,
    "\u2581\uc8fc\uc2ed\uc2dc": 900,
    "\u2581\uc300": 901,
    "\u2581\uc544\uc774\ub35c": 902,
    "\u2581\ubcf4\uace0": 903,
    "\u2581\uc2dc\uac04": 904,
    "\u2581\uc0ac\ub78c\ub4e4": 905,
    "\u2581\ucabc\uae08": 906,
    "\u2581\uc813": 907,
    "\uc81c": 908,
    "\u2581\uc74c\uc2dd": 909,
    "\uad6c\ub098": 910,
    "\u2581\uccd0": 911,
    "\u2581\ud314\uc6d4": 912,
    "\u2581\ucb49": 913,
    "\u2581\uc548\ub124": 914,
    "\u2581\uc0c8\ub85c": 915,
    "\u2581\ub098\uc628": 916,
    "\u2581\ubc29\uc5d0": 917,
    "\u2581\uc11c\uaed1": 918,
    "\uac04": 919,
    "\u2581\uada4\uae30": 920,
    "\u2581\uac70\uc758": 921,
    "\u2581\ubc14\ub18d": 922,
    "\u2581\uc5c7\uc774\ub09c": 923,
    "\uc5f0": 924,
    "\u2581\uad74": 925,
    "\ub128": 926,
    "\u2581\uc0b0\uc5d0": 927,
    "\u2581\uc62c\ub808": 928,
    "\u2581\ub110": 929,
    "\u2581\uc7a5\ubb3c": 930,
    "\uba74\uc11c": 931,
    "\u2581\ud558\uac04": 932,
    "\ubd84": 933,
    "\u2581\ubd88\uc5b4": 934,
    "\u2581\u1103\u119e\u11af\uc544": 935,
    "\u2581\uace0\uc0ac\ub9ac": 936,
    "\u2581\u1100\u119e\u11ae\ub294": 937,
    "\u2581\uc480": 938,
    "\u2581\uc811": 939,
    "\u2581\uc5b4\ub514\uc11c": 940,
    "\u2581\ud638\ubbf8\ub85c": 941,
    "\u2581\ub9d0\uc559": 942,
    "\u2581\uc774\ucd94\ub8e9": 943,
    "\u2581\uc9d1\uc740": 944,
    "\u2581\uacf5\ucd9c": 945,
    "\uc5d0\ub3c4": 946,
    "\uc9c0\ub294": 947,
    "\u2581\ubfcc\ub824": 948,
    "\u2581\uc800\ub514": 949,
    "\u2581\ud3ec": 950,
    "\u2581\uac70\ud2bc": 951,
    "\u2581\uc88b\uace0": 952,
    "\u2581\ubb3c\uc9c8": 953,
    "\ud5c8\uc820": 954,
    "\uc6b0": 955,
    "\u2581\uac70\ub098": 956,
    "\u2581\uba39\uc9c0": 957,
    "\u2581\uc6b0\ub9ac\ub294": 958,
    "\u2581\uc5ff": 959,
    "\u2581\u1107\u119e\u11af\ub77c": 960,
    "\u2581\u110e\u119e\u11af\ub808": 961,
    "\u2581\uc785\ub294": 962,
    "\u2581\ub2ee\uc544": 963,
    "\u2581\ub098\uc624\ub294": 964,
    "\u2581\ucc44": 965,
    "\u2581\uc77c\uacf1": 966,
    "\u2581\uac00\ub09c": 967,
    "\ucc28": 968,
    "\u2581\ubc1b\uc544": 969,
    "\u2581\uc2f9": 970,
    "\u2581\uc194\ubca4": 971,
    "\uc2dc\ubbfc": 972,
    "\u2581\uce68\ub5a1": 973,
    "\u2581\uc544\ubb34\uac83": 974,
    "\u2581\uc131": 975,
    "\u2581\ud5e4\uc5ec\uadfc\uc5d0": 976,
    "\uc815": 977,
    "\u2581\uac8c\ub3c4": 978,
    "\u2581\uc2dc\uc5d0": 979,
    "\ud558\uac8c": 980,
    "\u2581\uc808": 981,
    "\u2581\ubd88\uace0": 982,
    "\u2581\ucc0d": 983,
    "\u2581\uc790\uafb8": 984,
    "\u2581\uc801\uc0bc": 985,
    "\u2581\uac19\uc774": 986,
    "\u2581\ud5cc\ub514": 987,
    "\ud5c8": 988,
    "\u2581\ubb54\uac00": 989,
    "\u2581\uace4\u110a\u119e\u11af": 990,
    "\u2581\ud5c8\uc5f0": 991,
    "\u2581\u1112\u119e\uc5f0": 992,
    "\u2581\ubbf8": 993,
    "\u2581\u1106\u119e\u11af\uc740": 994,
    "\ubcf4": 995,
    "\u2581\ucc98\uc74c\uc5d0": 996,
    "\u2581\ub3cc\ub808\ub5a1": 997,
    "\u2581\uc624\ub780": 998,
    "\uc0b4": 999,
    "\u2581\ubd04": 1000,
    "\u2581\uba39\uc5c7\uc8fc": 1001,
    "\u2581\uc624\uace0": 1002,
    "\u2581\uc9d1\uc5d0\uc11c": 1003,
    "\u2581\ud559\uad50": 1004,
    "\u2581\ud638\ubbf8": 1005,
    "\u2581\uc774\ub514\uc11c": 1006,
    "\u1112\u119e\ub294": 1007,
    "\u2581\ube4c\uc5c9": 1008,
    "\u2581\ud5e8\ub9c8\uc528": 1009,
    "\u2581\ud574\uc11c": 1010,
    "\u2581\uc544\ubc84\uc9c0": 1011,
    "\u2581\uad11\ubaa9": 1012,
    "\u2581\ubc8c": 1013,
    "\u2581\ub530": 1014,
    "\u2581\ube4c": 1015,
    "\u2581\uc694\uc0c8": 1016,
    "\u2581\ubb3c\uc744": 1017,
    "\u2581\uadf8\ub0a0": 1018,
    "\u2581\ubc14": 1019,
    "\u2581\ubcf4\uba74\uc740": 1020,
    "\u2581\u1102\u119e\u11af": 1021,
    "\u2581\uc2dc\uc9d1": 1022,
    "\u2581\u1100\u119e\u11af\uc557\uc218\uacfc": 1023,
    "\u2581\ud0d5": 1024,
    "\u2581\ub057": 1025,
    "\u2581\ub0ad\uc73c\ub85c": 1026,
    "\u2581\ubb35": 1027,
    "\ucd94\ub8e9": 1028,
    "\ub860": 1029,
    "\u2581\ud5e4\ub0ab\uc5b4": 1030,
    "\u2581\uc774\ub9cc\uc774": 1031,
    "\u2581\uc624\ub77c": 1032,
    "\u2581\uc8fc\ub294": 1033,
    "\u2581\ubc14\ub2f9": 1034,
    "\u2581\uc544\uc774\ub4e4": 1035,
    "\u2581\uc808\ubca4": 1036,
    "\u2581\u1111\u119e\u11ba\uc8fd": 1037,
    "\u2581\ubaa8\uc790": 1038,
    "\u2581\ud130": 1039,
    "\u2581\uc694\ub9cc\uc774": 1040,
    "\u2581\ud5f7\uc9c0": 1041,
    "\u2581\uacc4": 1042,
    "\uae38": 1043,
    "\u2581\ubc31": 1044,
    "\u2581\ub9d0\ub80c": 1045,
    "\u2581\ub9cc\ub4e4\uc544": 1046,
    "\ub780": 1047,
    "\u2581\ud544\uc694": 1048,
    "\u2581\u1112\u119e\uba74\uc740": 1049,
    "\u2581\uc548\uc5d0": 1050,
    "\u2581\ubcf4\ub9ac\ubc25": 1051,
    "\u2581\uc9c0\uc5b4": 1052,
    "\u2581\uba39\uc5c9": 1053,
    "\u2581\uc0b4\uace0": 1054,
    "\u2581\uac04\uc7a5": 1055,
    "\u2581\ube59\ub5a1": 1056,
    "\u2581\ud558\uc9c0": 1057,
    "\u2581\ub108\ubb34": 1058,
    "\u2581\ubaa8\uba40": 1059,
    "\u2581\uac83\ub35c": 1060,
    "\uc774\ub09c": 1061,
    "\u2581\uba4d\uc5d0": 1062,
    "\u2581\uc7a1\ub294": 1063,
    "\u2581\uc21c": 1064,
    "\u2581\uc2dd": 1065,
    "\u2581\ud5e8\uc5d0": 1066,
    "\uc774\ubbfc": 1067,
    "\u2581\uac70\uc5ec": 1068,
    "\u2581\uc6b0\uc120": 1069,
    "\uc778\ub370": 1070,
    "\u2581\uc11d": 1071,
    "\u2581\ud14c": 1072,
    "\ud558": 1073,
    "\u2581\uc5bc\ub9c8\ub098": 1074,
    "\u2581\uc9c0\uc2ac": 1075,
    "\u2581\ud638": 1076,
    "\u2581\uc370\uc5c9": 1077,
    "\uc548\ud2f0": 1078,
    "\u2581\uc7a1": 1079,
    "\ub4dc\ub808": 1080,
    "\uc548": 1081,
    "\u2581\uc11c\ub9ac": 1082,
    "\ub144": 1083,
    "\u2581\ub204": 1084,
    "\ub5a1": 1085,
    "\uc2dc\ub9ac": 1086,
    "\u2581\uc5ec\ub984": 1087,
    "\u2581\uc838": 1088,
    "\u2581\uc2ed": 1089,
    "\u2581\ubc30\ucd94": 1090,
    "\u2581\uaecd\ub370\uae30": 1091,
    "\uc0b0": 1092,
    "\ub09c\uc5d0": 1093,
    "\u2581\ub188": 1094,
    "\u2581\uc804\ubcf5": 1095,
    "\u2581\uac00\uba74": 1096,
    "\uae4c": 1097,
    "\u2581\ubb34\uaed1": 1098,
    "\u2581\ub450\ubd88": 1099,
    "\u2581\uae4d": 1100,
    "\u2581\uc218\ud655": 1101,
    "\u2581\u1111\u119e\u11af": 1102,
    "\u2581\uc694\uac74": 1103,
    "\ub0ab\uc800": 1104,
    "\u2581\uc720\uc6d4": 1105,
    "\u2581\uac83\uacfc": 1106,
    "\u2581\uc62c\ub9ac\ub294": 1107,
    "\u2581\ud5e4\uc2e0\ub514": 1108,
    "\u2581\uac8c\ub2c8\uae4c": 1109,
    "\u2581\ubc18\ucc2c": 1110,
    "\u2581\ud5e4\ub0ab\uc800": 1111,
    "\u2581\ub178\ub798": 1112,
    "\u2581\ub534": 1113,
    "\u2581\uc0ac\uc9c4": 1114,
    "\u2581\uc591\ub150": 1115,
    "\u2581\ub458": 1116,
    "\u2581\uae30\uc5b5": 1117,
    "\ube44": 1118,
    "\ub0b4": 1119,
    "\u2581\u1100\u119e\ub808": 1120,
    "\ub9cc\uc774": 1121,
    "\ubd23\uc218\uacfc": 1122,
    "\u2581\ub35c": 1123,
    "\u2581\uac1c\uc5ed": 1124,
    "\u2581\ub9cc\uc57d": 1125,
    "\u2581\uc18c\uacf0": 1126,
    "\u2581\uc2ec\ubc29": 1127,
    "\u2581\ub385\uaca8": 1128,
    "\u2581\uacbd\ud5e4\ub3c4": 1129,
    "\u2581\ubc27\uc774": 1130,
    "\u2581\uae40\uce58": 1131,
    "\u2581\ub194\uadf8\ub124": 1132,
    "\u2581\uac70\ub2c8\uae4c": 1133,
    "\u2581\ubcf4\ub2c8\uae4c": 1134,
    "\u2581\uc9c0\ubd95": 1135,
    "\u2581\uc790\ub9ac\uc813": 1136,
    "\u2581\u1102\u119e\u1106\u119e\u11af": 1137,
    "\u2581\u1112\u119e\ub8e8": 1138,
    "\ubd88\uc5b4": 1139,
    "\u2581\uac10\uc790": 1140,
    "\ub098\ubbfc": 1141,
    "\ubd88\uace0": 1142,
    "\u2581\uc810": 1143,
    "\u2581\uc788\uace0": 1144,
    "\u2581\ubabb\ud5c8\uac8c": 1145,
    "\uc9d1": 1146,
    "\u2581\ubca8": 1147,
    "\u2581\uc2dc\ub9ac": 1148,
    "\u2581\uac00\uc820": 1149,
    "\u2581\uc0dd\uac01": 1150,
    "\u2581\ubcf4\ub9d0": 1151,
    "\u2581\uc495": 1152,
    "\uc218\uac00": 1153,
    "\uc6b8": 1154,
    "\u2581\ucf69\uc740": 1155,
    "\ub2e4\uc608": 1156,
    "\ub77c\ub294": 1157,
    "\u2581\uba39\uc73c\ubbfc": 1158,
    "\u2581\uac83\ub9cc": 1159,
    "\u2581\uc6b0\ud130\ub808": 1160,
    "\u2581\ubd88\uce58": 1161,
    "\u2581\ud6fc": 1162,
    "\u2581\ube44\uc640": 1163,
    "\uc73c\ubbfc": 1164,
    "\u2581\uc800\uac70": 1165,
    "\u2581\uac70\uc6b0\uacfc": 1166,
    "\u2581\ub3cc\ub85c": 1167,
    "\ub0d0": 1168,
    "\u2581\uadf8\ub7ec\ub2c8\uae4c": 1169,
    "\u2581\uc120": 1170,
    "\u2581\uc5ec\uae30\uc120": 1171,
    "\uae30\ub3c4": 1172,
    "\u2581\ubc25\uc744": 1173,
    "\u2581\uacbd\u1112\u119e\ubbfc": 1174,
    "\u2581\u110b\u11a2\ub77c": 1175,
    "\u2581\ubcf5": 1176,
    "\u2581\uc544\ubb34\ub098": 1177,
    "\u2581\ubcc4\ub85c": 1178,
    "\u2581\u1102\u119e\u11b7\uc758": 1179,
    "\u2581\ud5c8\ub2f9": 1180,
    "\u2581\uc544\ub2c8\uc6b0\uaf48": 1181,
    "\u2581\ub488\ub2c8\uae4c": 1182,
    "\uae30\uac00": 1183,
    "\u2581\ud1b1": 1184,
    "\u2581\uc788\ub294": 1185,
    "\u2581\u1112\u119e\ub054": 1186,
    "\u2581\uadf8\ub798\uc11c": 1187,
    "\u2581\ubd88\ubbfc": 1188,
    "\u2581\ud5c8\uace0\uc608": 1189,
    "\uc5b8": 1190,
    "\u2581\uc2dc\ubbfc": 1191,
    "\u2581\uc5c7\uc774\ubbfc": 1192,
    "\u2581\ucf54": 1193,
    "\u2581\ub108": 1194,
    "\u2581\ub9c8\ub2f9\uc5d0": 1195,
    "\u2581\uc785\uace1": 1196,
    "\u2581\ub3d9\uc9c0": 1197,
    "\u2581\ub9c8\ub18d": 1198,
    "\u2581\uc2ec": 1199,
    "\u2581\uba39\uc5b8": 1200,
    "\ubd88\uace1": 1201,
    "\u2581\uba54\ub204\ub9ac": 1202,
    "\ucbe4": 1203,
    "\u2581\uac80\uc9c8\uc740": 1204,
    "\u2581\uc0ac\ub984\ub35c\uc774": 1205,
    "\u2581\ucc29": 1206,
    "\u2581\uc544\ub140\uace0": 1207,
    "\u2581\u1100\u119e": 1208,
    "\u2581\ucd08": 1209,
    "\u2581\uc2ef\uace1": 1210,
    "\u2581\uac70\ubb38": 1211,
    "\u2581\uc644": 1212,
    "\u2581\ubaa8\uc2dc": 1213,
    "\u2581\uc55e\uc5d0": 1214,
    "\ud5e8": 1215,
    "\u2581\ud3c9": 1216,
    "\u2581\ubcf4\uba74": 1217,
    "\u2581\ub04c\ub839": 1218,
    "\u2581\ube44\ub294": 1219,
    "\u2581\ub098\ubb34\ub85c": 1220,
    "\ubca0": 1221,
    "\u2581\uac08\uace0": 1222,
    "\ucc98\ub7fc": 1223,
    "\u2581\uba54\ub294": 1224,
    "\u2581\ubca8\ub85c": 1225,
    "\u2581\uaebc": 1226,
    "\u2581\uace0\uce58": 1227,
    "\u2581\uc640\uc11c": 1228,
    "\uac8c\uc2dc\ub9ac": 1229,
    "\u2581\uadf8\uac70\uc8fc\uac8c": 1230,
    "\u2581\ud314": 1231,
    "\u2581\uc624\uc6d4": 1232,
    "\u2581\uae30\uad6c\ub098": 1233,
    "\u2581\uc548\ud5e4": 1234,
    "\u2581\uc5ec\uae30\ub3c4": 1235,
    "\u2581\uac70\ub824": 1236,
    "\u2581\uc870\uae08": 1237,
    "\ubcf4\ub2e8": 1238,
    "\u2581\ubc14\ub9ac": 1239,
    "\u2581\uc5bc": 1240,
    "\u2581\uc9c8\uba54": 1241,
    "\u2581\uadf8\ub514\uc11c": 1242,
    "\u2581\ub0b4\uac00": 1243,
    "\u2581\ud1a8": 1244,
    "\u2581\uc9d1\uc758\uc11c": 1245,
    "\u2581\uc870\ub294": 1246,
    "\u2581\ud5c8\ubc85": 1247,
    "\u2581\ub144\uc5d0": 1248,
    "\u2581\uacf1\uac8c": 1249,
    "\uae00": 1250,
    "\u2581\uc61b\ub0a0\ub3c4": 1251,
    "\u2581\ub385\uae30\ub294": 1252,
    "\u2581\uac11": 1253,
    "\u2581\u1111\u119e\u11af\uc544": 1254,
    "\u2581\uba85": 1255,
    "\u2581\ud1b5": 1256,
    "\u2581\uacc4\uc18d": 1257,
    "\uc9c0\uace0": 1258,
    "\u2581\uc218\ub3c4": 1259,
    "\u2581\uc544\uc774\uad6c": 1260,
    "\u2581\uba55\uc5ec": 1261,
    "\u2581\ub2e4\ub9ac": 1262,
    "\u2581\uc7a1\uc559": 1263,
    "\u2581\ub3cc\uc544": 1264,
    "\u2581\ub2e8\ucd94": 1265,
    "\u2581\ubc1c\ub85c": 1266,
    "\u1101\u119e\uc7a5": 1267,
    "\u2581\ud5e4\ub0ab\uc8fc": 1268,
    "\u2581\uc0ac\ub78c\ub3c4": 1269,
    "\u2581\ub9cc\ub4e4\uc5c9": 1270,
    "\u2581\uac70\uc9c0": 1271,
    "\u2581\uce58\uba54": 1272,
    "\u2581\uc5c7\uc8fc\uac8c": 1273,
    "\uc158\ub9c8\uc528": 1274,
    "\u2581\ub450\ubd80": 1275,
    "\u2581\uc774\uc0c1": 1276,
    "\u2581\uc5f4\ub450": 1277,
    "\u2581\ubcf4\uc120": 1278,
    "\u2581\ud5e4\uadfc\uc5e5": 1279,
    "\uc528": 1280,
    "\u2581\ud6c4\uc5d0": 1281,
    "\u2581\uc4f0\uace0": 1282,
    "\u2581\uc787\uc5c7": 1283,
    "\u2581\uc2ec\uc5b4": 1284,
    "\u2581\ub48c\ub2e4": 1285,
    "\uc62c": 1286,
    "\ub2c8\ub2e4": 1287,
    "\u2581\uc0c9\uae54": 1288,
    "\u2581\uae38": 1289,
    "\u2581\ud321": 1290,
    "\u2581\uc54c\uc544\ub9c8\uc528": 1291,
    "\u2581\uce60": 1292,
    "\u1100\u119e\uce58": 1293,
    "\uc804": 1294,
    "\ud5e4\uc5ec": 1295,
    "\u2581\uba58\ub4dc\ub294": 1296,
    "\u2581\ub9cc\ub4e4\uace0": 1297,
    "\ub0ab\uc8fc\uac8c": 1298,
    "\u2581\uc0ac\ub78c\ub35c": 1299,
    "\u2581\ub098\ub09c": 1300,
    "\u2581\uc775\uc5b4": 1301,
    "\u2581\uc194\uc785": 1302,
    "\u2581\ub2f4\ubc30": 1303,
    "\u2581\u1107\u119e\u11af\ub824": 1304,
    "\u2581\uc55a\uc559": 1305,
    "\u2581\ub9e8": 1306,
    "\u2581\ub3c5": 1307,
    "\u2581\uc8fc\uace1": 1308,
    "\ub194\uadfc\uc5d0": 1309,
    "\u2581\uaca8\uc6b8": 1310,
    "\u2581\uc0ac\ubc1c": 1311,
    "\u2581\ubb50\uc5d4": 1312,
    "\u2581\uc9d1\ub3c4": 1313,
    "\u2581\uc774\uc2dc\ubbfc": 1314,
    "\u2581\ud770": 1315,
    "\u2581\ud5c8\ud5c8": 1316,
    "\ud5d9\ub2c8\uae4c": 1317,
    "\u2581\ud5c8\uc8fc\ub9cc\uc740": 1318,
    "\u2581\ub178\ub791": 1319,
    "\u2581\uc2ef\uace0": 1320,
    "\u2581\uba58": 1321,
    "\u2581\uc0c1\ub2f9": 1322,
    "\uc904": 1323,
    "\u2581\uc798\ub3c4": 1324,
    "\u2581\uacbd\ud5e4": 1325,
    "\u2581\uc606\uc5d0": 1326,
    "\uc6b0\uacfc": 1327,
    "\uc694": 1328,
    "\u2581\uc54c\uc557\uc218\ub2e4": 1329,
    "\u2581\u1102\u119e\ub78c\uc9c0": 1330,
    "\u2581\uc785\uc5c9": 1331,
    "\ud558\ub294": 1332,
    "\u2581\ub9c8\uc744\uc5d0": 1333,
    "\u2581\u1107\u119e\u11af\ub974": 1334,
    "\u2581\u1112\u119e\u11b8\ub2c8\uae4c": 1335,
    "\u2581\uc55e\uc774": 1336,
    "\u2581\u1112\u119e\uc820": 1337,
    "\u2581\uc0ac\ub0e5": 1338,
    "\u2581\uc774\ub984\uc740": 1339,
    "\ubcf4\uace0": 1340,
    "\u2581\ub4a4\uc5d0": 1341,
    "\u2581\uc5b4\uba38\ub2c8\uac00": 1342,
    "\u1112\u119e\ubbfc": 1343,
    "\u2581\uc774\uc2ed": 1344,
    "\uadfc": 1345,
    "\u2581\uc80a\uc740": 1346,
    "\u2581\uc813\uac08": 1347,
    "\u2581\ub300\ud5e4\uc11c": 1348,
    "\u2581\ud5f7\ub294\ub370": 1349,
    "\u2581\ub514\ub294": 1350,
    "\u2581\ud5e4\uc0ac": 1351,
    "\ubc25": 1352,
    "\u2581\uc870\ud31d": 1353,
    "\u2581\u1106\u119e\uba40": 1354,
    "\u2581\uad7f": 1355,
    "\u2581\uc788": 1356,
    "\u2581\uac70\uae30\uc5d0": 1357,
    "\u2581\uc0b4\uc548": 1358,
    "\u2581\uc5c7\uc5b4\ub9c8\uc528": 1359,
    "\u2581\u1106\u119e\u11af\ubc29\uc5d0": 1360,
    "\u2581\uc9c0\ub984": 1361,
    "\u2581\uacbd\ud5c8\uace0": 1362,
    "\u2581\ud5c8\ub9ac": 1363,
    "\u2581\uc624\uc2ed": 1364,
    "\u2581\uc778\uc808\ubbf8": 1365,
    "\u2581\uc250\uac00": 1366,
    "\ub098\uace0": 1367,
    "\u2581\uc911": 1368,
    "\u2581\ub300\ubb38": 1369,
    "\u2581\uac74\ub370": 1370,
    "\u2581\ubc24\uc774": 1371,
    "\u2581\ud138": 1372,
    "\ub290\ub0d0": 1373,
    "\u2581\uac13\ub2e4": 1374,
    "\u2581\uac00\uc6b4\ub514": 1375,
    "\u2581\ubd04\uc5d0": 1376,
    "\ubcb3\uae14": 1377,
    "\u2581\ub0ab": 1378,
    "\u2581\uba54\uce60": 1379,
    "\u2581\ub4f1": 1380,
    "\u2581\ub9cc\ub4e4\uc559": 1381,
    "\u2581\uc6d4\ub839": 1382,
    "\u2581\uc5ec\uae30\uc11c\ub294": 1383,
    "\u2581\ub4e4\uc5c9": 1384,
    "\uacbd": 1385,
    "\u2581\uba58\ub4e4": 1386,
    "\u2581\ub4ec\ubd81": 1387,
    "\u2581\uc2ef": 1388,
    "\u2581\ub3d7": 1389,
    "\u2581\uadfc\ub370": 1390,
    "\u2581\uc608\uc804\uc5d0": 1391,
    "\u2581\uae30\uc5b5\ub098\ub294": 1392,
    "\u2581\ud558\ub3c4": 1393,
    "\uc218\uad11": 1394,
    "\u2581\uc9c0\uc2dc": 1395,
    "\u2581\ub9d0\ub3c4": 1396,
    "\u2581\uc815\uc9c0": 1397,
    "\u2581\uac00\uc2dc": 1398,
    "\u2581\uac00\uc838": 1399,
    "\u2581\uacf5\uae30": 1400,
    "\uce74\ubd80\ub374": 1401,
    "\u2581\uce5c\ub5a1": 1402,
    "\u2581\u1112\u119e\u11b8\ub2c8\ub2e4": 1403,
    "\u2581\ud63c\uc790": 1404,
    "\ubc29": 1405,
    "\u2581\ube7c": 1406,
    "\u2581\ud5d9\ub2c8\ub2e4": 1407,
    "\u2581\ub488\uba74": 1408,
    "\u2581\uae4c": 1409,
    "\u2581\u1111\u119e\ub294": 1410,
    "\u2581\uc9c0\ub0b4": 1411,
    "\u2581\ubcf4\ub294": 1412,
    "\u2581\uc798\ubabb": 1413,
    "\u2581\uc0b0\ub4a4": 1414,
    "\u2581\uc6b0\ud2b8\ub808": 1415,
    "\u2581\ub530\ub77c": 1416,
    "\u2581\ub385\uae30\uba4d": 1417,
    "\u2581\uc8fd\uc744": 1418,
    "\u2581\uac78\uc5b4": 1419,
    "\u2581\ud558\uba74": 1420,
    "\u2581\ub20c\uc5b4": 1421,
    "\u2581\ud070\uc77c": 1422,
    "\uc774\ub77c\ub294": 1423,
    "\u2581\ub0a0\uc774": 1424,
    "\u2581\ub098\uba74\uc740": 1425,
    "\u2581\uc2e0\ub791": 1426,
    "\u2581\u110c\u119e": 1427,
    "\u2581\ucc38": 1428,
    "\u2581\uadf8\ubbfc": 1429,
    "\u2581\uc774\ud30c\ub9ac": 1430,
    "\u2581\u1103\u119e\u11af\uc559": 1431,
    "\uc73c\ub2c8\uae4c": 1432,
    "\u1112\u119e\u11af": 1433,
    "\u2581\ubfd4": 1434,
    "\u2581\uc18c\uacf1\uc5d0": 1435,
    "\u2581\uc4f0": 1436,
    "\u2581\uc9c4\uc9dc": 1437,
    "\u2581\uc9d5": 1438,
    "\u2581\uadf8\ub807\uc9c0": 1439,
    "\u2581\uc774\ub141\ub0e5\uc73c\ub85c": 1440,
    "\u2581\ub098\uc624": 1441,
    "\u2581\uc774\ub9cc\uc529": 1442,
    "\u2581\uce78": 1443,
    "\u2581\ubf51\uc544": 1444,
    "\u2581\uc2dc\ub044": 1445,
    "\u2581\ub198": 1446,
    "\u2581\uc774\uc218\uacfc": 1447,
    "\u2581\uc7a5\ub9cc": 1448,
    "\u2581\ub194\ub3c4": 1449,
    "\u2581\ud587\uc8fc": 1450,
    "\u2581\ucd08\ubd88": 1451,
    "\uc628": 1452,
    "\u2581\u1100\u119e\uc2dc\ub77d": 1453,
    "\u2581\uac10\uc8fc": 1454,
    "\u2581\ud558\ub098\uc529": 1455,
    "\uc801\uc73c\ub85c": 1456,
    "\u2581\uac00\uc2dc\ub9ac": 1457,
    "\u2581\uc881\uc370": 1458,
    "\u2581\uc637\uc740": 1459,
    "\ud2bc": 1460,
    "\u2581\ud074": 1461,
    "\u2581\uc9d1\uc9d1\ub9c8\ub2e4": 1462,
    "\u2581\uace4\ub5a1": 1463,
    "\u2581\ubaa8\ub0e5\uc73c\ub85c": 1464,
    "\uc9c0\ub3c4": 1465,
    "\u2581\uacbd\ud5cc\ub514": 1466,
    "\u2581\ubcf4\ub0b4": 1467,
    "\u2581\uc544\ub4e4": 1468,
    "\u2581\uc2dc\uaebc": 1469,
    "\u2581\ud5e4\uae30\ub124": 1470,
    "\u2581\ud568\ub355": 1471,
    "\u2581\ub0a8\uc800": 1472,
    "\u2581\ubfcc\ub9ac": 1473,
    "\u2581\ubaa9\uc7a5": 1474,
    "\u1112\u119e\uc601": 1475,
    "\ub974": 1476,
    "\u2581\uc624\uc90c": 1477,
    "\ud5c8\uba74\uc740": 1478,
    "\u2581\uc1a1\ud3b8": 1479,
    "\u2581\ub9ce": 1480,
    "\u2581\uc787\ub294\ub370": 1481,
    "\uadf8": 1482,
    "\u2581\uc0c1\uc81c": 1483,
    "\u2581\uc2dc\uc791": 1484,
    "\u2581\ub545\uc774": 1485,
    "\u2581\ub5a1\uc740": 1486,
    "\u2581\uc9dc\ub294": 1487,
    "\u2581\ub194\uc57c": 1488,
    "\u2581\u1110\u119e\u11ae\uc544": 1489,
    "\u2581\ucf69\u1102\u119e\ubb3c": 1490,
    "\u2581\ud6cd\uc740": 1491,
    "\u2581\ub354\uaed1": 1492,
    "\u2581\uc228\uba54": 1493,
    "\u2581\uc790\uce58\uae30": 1494,
    "\u2581\uac1c\uac00": 1495,
    "\u2581\u1106\u119e\ubb3c": 1496,
    "\u2581\uc090": 1497,
    "\u2581\uc74c\ub825": 1498,
    "\u2581\ub194\uc11c": 1499,
    "\u2581\ubb3c\uc5b4\ubcf4\ucfe0\ub2e4": 1500,
    "\u2581\uc694\ub9cc\uc369": 1501,
    "\u2581\uc37d": 1502,
    "\u2581\ub531\ub531": 1503,
    "\u2581\uc787\uc800": 1504,
    "\u2581\uba39\uc5b4\ub09c": 1505,
    "\u2581\uc7c1\uae30": 1506,
    "\u2581\ub3cc\uc544\uac00": 1507,
    "\u2581\uc720\uc6d4\uc808": 1508,
    "\u2581\u1100\u119e\u11ab": 1509,
    "\u2581\ub098\ub85d": 1510,
    "\u2581\ud2c0\ub824": 1511,
    "\u2581\ud3ec\uc81c": 1512,
    "\u2581\ube68\ub9ac": 1513,
    "\u2581\uc77c\ub984": 1514,
    "\u2581\ud5cc\ub374": 1515,
    "\u2581\ud37c": 1516,
    "\u2581\ub193\uba74": 1517,
    "\u2581\uba54\uc5ec": 1518,
    "\u2581\uace0\ud321": 1519,
    "\ud5c8\uba4d": 1520,
    "\u2581\uae30\uacc4\ub85c": 1521,
    "\u2581\uc19c": 1522,
    "\ud5c8\uc9c0": 1523,
    "\u2581\ub189": 1524,
    "\u2581\uc6c3\ub4dc\ub974": 1525,
    "\ub9c8\uc500": 1526,
    "\u2581\uacf5": 1527,
    "\u2581\uc61b\ub0a0\uc5d0\ub3c4": 1528,
    "\u2581\uc624\ub298": 1529,
    "\u2581\uace0\uc9c0": 1530,
    "\u2581\uc18c\uc0c1": 1531,
    "\uc18c": 1532,
    "\ub2e4\ub294": 1533,
    "\ub984": 1534,
    "\u2581\uac00\ubbc4": 1535,
    "\u2581\ucd1d": 1536,
    "\u2581\ub0a8\uc740": 1537,
    "\u2581\uad7d": 1538,
    "\u2581\ub488\uc8fc\uac8c": 1539,
    "\u2581\uad6c\ub4e4": 1540,
    "\u2581\uadf8\ub987": 1541,
    "\u2581\ucc3d": 1542,
    "\u2581\uc0dd": 1543,
    "\u2581\uba4d\uc11d": 1544,
    "\u2581\uac70\uc6b0\ub2e4": 1545,
    "\u2581\uc2a4\ubb34": 1546,
    "\uc8fc\uace0": 1547,
    "\u2581\uc800\ub808": 1548,
    "\ubca0\ub07c": 1549,
    "\u2581\ubfcc\ub9ac\ub294": 1550,
    "\u2581\uc624\uace1": 1551,
    "\u2581\uc7ac": 1552,
    "\u2581\ud558\uba74\uc740": 1553,
    "\u2581\ub9d0\ub77c": 1554,
    "\u2581\uc5b4\ub978": 1555,
    "\u2581\ub354\ub044": 1556,
    "\u2581\ud798\ub4e4\uc5b4": 1557,
    "\uba70\ub294": 1558,
    "\uc801": 1559,
    "\u2581\uac80\uc9c8\uba54": 1560,
    "\u2581\uc791\uc740": 1561,
    "\u2581\ub4a4": 1562,
    "\ubbf8": 1563,
    "\ub35c\ud1a0": 1564,
    "\u2581\ub0a0\uc740": 1565,
    "\uc774\uba74": 1566,
    "\u2581\ub2e4\uc74c\uc5d0\ub294": 1567,
    "\u2581\uc6c3": 1568,
    "\u2581\uc2ec\uc5c9": 1569,
    "\u2581\u1112\u119e\u11ab\ubc88": 1570,
    "\u2581\uc0c1\uc6e8\ub5a1": 1571,
    "\ubc30": 1572,
    "\uc83c": 1573,
    "\u2581\ube44\uac00": 1574,
    "\u2581\ub2ec\ub77c": 1575,
    "\u2581\uad70\uc778": 1576,
    "\u2581\ubc14\ub18d\uc9c8": 1577,
    "\u2581\uc62c\ub9ac\uace0": 1578,
    "\u2581\ud5d8": 1579,
    "\u2581\u1112\u119e\ub294\ub514": 1580,
    "\u2581\u1112\u119e\uc8fc": 1581,
    "\uc73c": 1582,
    "\u2581\u1100\u119e\ub808\uc5d0": 1583,
    "\u2581\ub450\ub4dc\ub824": 1584,
    "\u2581\uc0bc\uc2ed": 1585,
    "\ub04c": 1586,
    "\u2581\uc8fc\ubbfc": 1587,
    "\u2581\ubd25": 1588,
    "\u2581\uce74": 1589,
    "\u2581\ud5f7\uc800": 1590,
    "\u2581\ucd08\uac00\uc9d1": 1591,
    "\u2581\uc8fd\uc73c\ubbfc": 1592,
    "\ucf00": 1593,
    "\u2581\ubaa8\ub974\uace0": 1594,
    "\u2581\ub048": 1595,
    "\u2581\ud1a1\ud1a1": 1596,
    "\u2581\ub300\uc0c1": 1597,
    "\ub2e4\uadf8\ub124": 1598,
    "\u2581\uc5b4\ub978\ub35c": 1599,
    "\ub2e5": 1600,
    "\u2581\uacf1": 1601,
    "\u2581\uc250\ub294": 1602,
    "\u2581\ub4dc": 1603,
    "\u2581\ub54c\ub09c": 1604,
    "\ubd80\ub2c8\uae4c": 1605,
    "\ucf04": 1606,
    "\u2581\uc808\uac04": 1607,
    "\u2581\ubb3b\uc5b4": 1608,
    "\ubd80\ub294": 1609,
    "\u2581\ub9d0\uc500\ud5e4": 1610,
    "\u2581\ub9d0\uc500\ud574": 1611,
    "\u2581\u1104\u119e\u11ab": 1612,
    "\u2581\ucabc\ub054": 1613,
    "\u2581\uc0bc\uc77c": 1614,
    "\u2581\uc787\uc5b4\uc57c": 1615,
    "\u2581\uc5c7\ub2e4": 1616,
    "\u2581\ubc29\ubc95": 1617,
    "\u2581\uc0c1\uc5d0": 1618,
    "\u2581\ubaa8\uc5ec": 1619,
    "\u2581\uc218\ubc15": 1620,
    "\u2581\uae00\ub85c": 1621,
    "\u1112\u119e": 1622,
    "\u2581\ub5a1\ub3c4": 1623,
    "\uc6b0\ub2e4": 1624,
    "\u2581\uc5c7\uc5b8": 1625,
    "\uc0b0\ub514": 1626,
    "\u2581\ub098\uc774": 1627,
    "\uc2e0\uc9c0": 1628,
    "\u2581\uc11c\ub108": 1629,
    "\u2581\uc9c1\uc811": 1630,
    "\u2581\uc881\uc528": 1631,
    "\u2581\uc2dc\ub9ac\ub5a1": 1632,
    "\u2581\ubc88\uc9f8": 1633,
    "\u2581\uba39\uc8fc\uac8c": 1634,
    "\u2581\uae40": 1635,
    "\u2581\ubcfc": 1636,
    "\u2581\ud558\ub974\ubc29\uc774": 1637,
    "\u2581\uacbd\ud5e4\uadfc\uc5d0": 1638,
    "\u2581\uc874": 1639,
    "\u2581\ub3c4\uaed8\ub85c": 1640,
    "\u2581\u1102\u119e\u11b7": 1641,
    "\u2581\uc9c0\ub984\ub5a1": 1642,
    "\ub4ef": 1643,
    "\u2581\uad6c\ub385\uc774": 1644,
    "\u2581\uba54\uc601": 1645,
    "\u1100\u119e\ucc0c": 1646,
    "\u2581\uadf8\ub9ac\uace0": 1647,
    "\u2581\uba39\uc8fc": 1648,
    "\u2581\ubc25\ub3c4": 1649,
    "\u2581\uc871\uc81c\ube44": 1650,
    "\u2581\ub0c9\uad6d": 1651,
    "\u2581\uae45\uc774": 1652,
    "\uc2e0\uace0\uc608": 1653,
    "\u2581\uc787\uc5b8": 1654,
    "\ub798": 1655,
    "\u2581\ubd14": 1656,
    "\u2581\uac00\uc57c": 1657,
    "\uc8fc\uae30": 1658,
    "\u2581\uc30d": 1659,
    "\u2581\ub4e4\uc5b4\uc624": 1660,
    "\u2581\ubb34\ub044\ub294": 1661,
    "\uaca8": 1662,
    "\ub0ab\uc8fc": 1663,
    "\u2581\ubabb\ud5c8\uc5ec": 1664,
    "\u2581\ud638\ubc15": 1665,
    "\u2581\uc694\ub9cc\ud07c": 1666,
    "\u2581\uc0ac\ub18d": 1667,
    "\u2581\uc0ac\uc0bc": 1668,
    "\u2581\ubcf4\ub9ac\ub18d\uc0ac": 1669,
    "\u2581\ub2f4\ub294": 1670,
    "\uc9c1": 1671,
    "\u2581\uc5c6\uace0": 1672,
    "\u2581\uc250\ub3c4": 1673,
    "\u2581\ub9c8\ub298": 1674,
    "\u2581\uba55\uc774": 1675,
    "\u2581\uc720": 1676,
    "\u2581\ubc25\uc774": 1677,
    "\u2581\u1106\u119e\u11b7": 1678,
    "\u2581\ud5c8\ub2e8": 1679,
    "\uc9dd": 1680,
    "\u2581\uc77c\uc8fc\uc77c": 1681,
    "\u2581\uc81c\uc644\uc9c0": 1682,
    "\u2581\ub4e4\ub801": 1683,
    "\u2581\uc6d0\ub798": 1684,
    "\u2581\uacbd\ud5cc": 1685,
    "\u2581\uc5ff\ub0a0\uc5d0\ub294": 1686,
    "\uc131": 1687,
    "\u2581\uc62c\ub77c\uac00": 1688,
    "\u2581\ub9d0\uc774\uc5ec": 1689,
    "\u2581\ubbf8\uc5ed": 1690,
    "\u2581\ube44\uc5ec": 1691,
    "\u2581\ub178\ub294": 1692,
    "\u2581\uc624\uba74\uc740": 1693,
    "\u2581\ud310": 1694,
    "\u2581\uc774\uc0ac": 1695,
    "\u2581\ubfcc\ub839": 1696,
    "\u2581\ub180\uc774": 1697,
    "\u2581\ubc1b\uc559": 1698,
    "\u2581\uc601\ub4f1": 1699,
    "\uc774\ub780": 1700,
    "\uc796\uc544": 1701,
    "\uc5d0\ub2e4\uac00": 1702,
    "\u2581\uc11c\uaebc": 1703,
    "\u2581\uc870\uce69": 1704,
    "\uce5c": 1705,
    "\u2581\uc9c0\ub124": 1706,
    "\ub9d0": 1707,
    "\u2581\ube4c\uc5b4": 1708,
    "\u2581\uac70\uc57c": 1709,
    "\u2581\uac00\uc6b4\ub370": 1710,
    "\u2581\uae68": 1711,
    "\u2581\ucd08\uc9d1": 1712,
    "\u2581\uc804\uc5d0\ub294": 1713,
    "\u2581\uc6d0\ub2f4": 1714,
    "\u2581\u1100\u119e\u11af\uc544\ubd05\uc11c": 1715,
    "\u2581\uc911\uc758": 1716,
    "\u2581\ubcf4\ub984": 1717,
    "\u2581\uc77c\uc774": 1718,
    "\u2581\uc131\uc8fc": 1719,
    "\ubd80\ub5a0": 1720,
    "\u2581\uc785\uace0": 1721,
    "\u2581\ubabb\ud5e4": 1722,
    "\u2581\ub49b": 1723,
    "\u2581\ucf69\ub3c4": 1724,
    "\ubc16\uc5d0": 1725,
    "\u2581\ub354\uaebc": 1726,
    "\u2581\uba3c": 1727,
    "\ud5c8\ub09c": 1728,
    "\u2581\ud6c4": 1729,
    "\u2581\ud574\ubc29": 1730,
    "\u2581\uace0\uace0\ub9ac": 1731,
    "\u2581\uc774\uc2e4": 1732,
    "\u2581\uc9d1\uc778": 1733,
    "\u2581\ucabd": 1734,
    "\u2581\uc598\uae30\ud5e4": 1735,
    "\u2581\ub3c4\ub9ac": 1736,
    "\uac1c": 1737,
    "\uc9c0\uac8c": 1738,
    "\u2581\uc250\ub9c9": 1739,
    "\u2581\uc544\uc84d": 1740,
    "\u2581\uc9e0": 1741,
    "\u2581\uc885\uc790": 1742,
    "\u2581\uc190\uc9c0": 1743,
    "\u2581\uacf0": 1744,
    "\u2581\ub0b4\ubd88\ubbfc": 1745,
    "\uc73c\ub860": 1746,
    "\u2581\uc0bc\ucd0c": 1747,
    "\uc6d0": 1748,
    "\u2581\ub9c9\uc544": 1749,
    "\u2581\ub3d9\ub124\uc5d0\uc11c": 1750,
    "\u2581\ubd80\ubd84": 1751,
    "\u2581\uc624\ub984": 1752,
    "\u2581\uba55\uc774\uace0": 1753,
    "\u2581\uc5b4\uc5b4": 1754,
    "\u2581\ub2e4\uc74c\uc5d4": 1755,
    "\u2581\ubb3c\uc6e8": 1756,
    "\u2581\uae00": 1757,
    "\u2581\uc18d\uacf3": 1758,
    "\uc791": 1759,
    "\u2581\u1107\u119e\ub984": 1760,
    "\u2581\uaca1\uc774": 1761,
    "\u2581\uaed8": 1762,
    "\u2581\ubc15": 1763,
    "\u2581\uace0\ubb34\uc904": 1764,
    "\u2581\uc2e0\ubd80": 1765,
    "\u2581\uce58\ub294": 1766,
    "\u2581\ub194\ub46c": 1767,
    "\u2581\uc5c7": 1768,
    "\u2581\u1100\u119e\ub294": 1769,
    "\u2581\uc6b0\ubbf8": 1770,
    "\u2581\ub204\uad6c": 1771,
    "\u2581\uacbd\ud5c8\uba4d": 1772,
    "\u2581\uc694\uae30": 1773,
    "\u2581\ubeff\ub370\uae30": 1774,
    "\ub801": 1775,
    "\uc2b5\ub2c8\uae4c": 1776,
    "\u2581\ub54c\uac00": 1777,
    "\uc2a4": 1778,
    "\u2581\uc601\ud5f9": 1779,
    "\u2581\uac83\ub4e4": 1780,
    "\ud1a0": 1781,
    "\u2581\ubcf4\ub9ac\ub294": 1782,
    "\ub098\uc11c": 1783,
    "\u2581\uc5c6\ub294": 1784,
    "\u2581\u1106\u119e\u11af\ub625": 1785,
    "\u2581\uba58\ub4e0": 1786,
    "\u2581\ubc18\uc8fd": 1787,
    "\u2581\ud5f7\uc796\uc544\uc608": 1788,
    "\u2581\uc544\ubc84\uc9c0\uac00": 1789,
    "\u2581\ud6c4\uc81c": 1790,
    "\u2581\uacbd\ud5c8\ub294": 1791,
    "\u2581\ud5f7\uad6c\ub098": 1792,
    "\u2581\uc787\uc218\ub2e4": 1793,
    "\u2581\ubc8c\ucd08": 1794,
    "\u2581\ubcb5": 1795,
    "\u2581\uc81c\u1109\u119e": 1796,
    "\u2581\ud5c8\uc5ec\uadfc\uc5d0": 1797,
    "\u2581\ubcf4\ub9ac\ubc27": 1798,
    "\u2581\ubc25\ud5f9": 1799,
    "\u2581\u1106\u119e\u11af\uc774": 1800,
    "\u2581\ub3cc\ub9ac": 1801,
    "\u2581\uac00\uc744": 1802,
    "\u2581\uc5b4\ub837": 1803,
    "\u2581\uac83\uc744": 1804,
    "\u2581\ubd88\ub7ec": 1805,
    "\u2581\ub04c": 1806,
    "\u2581\uc528\uac00": 1807,
    "\u2581\ub118\uc5b4": 1808,
    "\u2581\ub194\uac00\uc9c0\uace0": 1809,
    "\u2581\ubd80\ub77d": 1810,
    "\u2581\uac78\ub824": 1811,
    "\u2581\uc9d3\uc5b4": 1812,
    "\uc5c7\uc774": 1813,
    "\u2581\ud63c": 1814,
    "\u2581\ub5a1\uc744": 1815,
    "\u2581\uc62c\ub9ac": 1816,
    "\ub098\uc2e0\ub514": 1817,
    "\ud5c8\ub2c8\uae4c": 1818,
    "\u2581\ub2f9\uc2dc\uc5d0": 1819,
    "\u2581\uc2a4\ubb3c": 1820,
    "\u2581\ub9de\uac8c": 1821,
    "\u2581\uc6b0\uc7a5": 1822,
    "\u2581\uac8c\uace0": 1823,
    "\u2581\ucd94": 1824,
    "\u2581\uc37b": 1825,
    "\u2581\uae30\uc9c0": 1826,
    "\u2581\ub458\uc774": 1827,
    "\u2581\ub4e4\uc740": 1828,
    "\u2581\uc911\uc5d0": 1829,
    "\u2581\uc885": 1830,
    "\ub358\uc9c0": 1831,
    "\u2581\uba69": 1832,
    "\u2581\ub488\uace1": 1833,
    "\u2581\ubcf4\ub9ac\uac00": 1834,
    "\u2581\uc5b4\ub5b5\uc0ac": 1835,
    "\u2581\u1112\u119e\uc5ec\uadfc\uc5d0": 1836,
    "\u2581\uadf8\ubb3c": 1837,
    "\ub194": 1838,
    "\u2581\uad82\uc778": 1839,
    "\uaebc\uc9c0": 1840,
    "\u2581\u110e\u119e\u11af\ub824": 1841,
    "\u2581\ub098\uba74": 1842,
    "\u2581\ud5c8\ub808": 1843,
    "\u2581\ucf69\u1100\u119e\ub8e8": 1844,
    "\u2581\uc544\ub155": 1845,
    "\u2581\uc774\uc81c\uc0ac": 1846,
    "\u2581\uadf8\ub2c8\uae4c": 1847,
    "\uce60": 1848,
    "\uaed8": 1849,
    "\u2581\ubca0\ub85c": 1850,
    "\u2581\ubd23": 1851,
    "\u2581\uce60\uc6d4": 1852,
    "\uc870": 1853,
    "\u2581\uad6c\uba4d": 1854,
    "\u2581\uc14d\uac01": 1855,
    "\u2581\u1106\u119e\u11ab\uc800": 1856,
    "\u2581\uc138\uc640": 1857,
    "\u2581\uc885\uc774": 1858,
    "\ubc15": 1859,
    "\u2581\ubaa8\ucee4\ub9ac": 1860,
    "\u2581\uc6b0\ub7ed": 1861,
    "\u2581\uc250\ub625": 1862,
    "\u2581\uba5c\uc813": 1863,
    "\u2581\uc9d1\uc904": 1864,
    "\ub188\uc758": 1865,
    "\u2581\uc57d\uada4": 1866,
    "\u2581\uac70\uc9c0\uc608": 1867,
    "\u2581\ub204\uac8c\uac00": 1868,
    "\u2581\ud574\ub3c4": 1869,
    "\u2581\ud751\uc9c8": 1870,
    "\u2581\uc218\ub9dd\ub9ac": 1871,
    "\u2581\ud750\ub9b0\uc870": 1872,
    "\u2581\uc9c1": 1873,
    "\u2581\ub2f9\uc2dc": 1874,
    "\u2581\uad70\ub300": 1875,
    "\u2581\uc2dc\uc6d4": 1876,
    "\u2581\uc548\ud5c8\ubbfc": 1877,
    "\u2581\uc81c\uc8fc": 1878,
    "\u2581\u1112\u119e\u11b8\ub514\ub2e4": 1879,
    "\u2581\ub530\ubb38\uc5d0": 1880,
    "\u2581\uc704\uc5d0": 1881,
    "\u2581\u110e\u119e\u11af": 1882,
    "\u2581\ubc00\uc5b4": 1883,
    "\u2581\u1106\u119e\u11af\ub85c": 1884,
    "\u2581\u1112\u119e\uc9c0": 1885,
    "\ubcb3\uae30": 1886,
    "\u2581\ubc15\uc544": 1887,
    "\u2581\ubd80\uc5cc": 1888,
    "\ucc3d": 1889,
    "\u2581\uc0dd\uc120": 1890,
    "\u2581\u1107\u119e\u11af\ub9ac\ub294": 1891,
    "\ub0ab\uc218\ub2e4": 1892,
    "\u2581\uad70\ub370": 1893,
    "\u2581\uc9d1\uc548": 1894,
    "\u2581\uba38\ub9ac\uc5d0": 1895,
    "\u2581\ud0a4\uc6b0": 1896,
    "\u2581\uc800\ub7f0": 1897,
    "\u2581\ub9cc\ub4e4\uc820": 1898,
    "\ubd05\uc11c": 1899,
    "\uccd0": 1900,
    "\u2581\uad6c\ub355": 1901,
    "\u2581\ub098\uc624\uace0": 1902,
    "\u2581\uc5ec\uae30\uc5d0": 1903,
    "\u2581\ub9c8\ub828": 1904,
    "\u2581\uc787\uc778": 1905,
    "\ub9e4": 1906,
    "\u2581\u1106\u119e": 1907,
    "\u2581\ud569\ub2c8\uae4c": 1908,
    "\u2581\ub2ec\uc5d0": 1909,
    "\u2581\ub098\uac00\ubbfc": 1910,
    "\ucf1c": 1911,
    "\u2581\ub3d9\uae00\ub77d": 1912,
    "\u2581\uc815\ub3c4\ub85c": 1913,
    "\uc218\uac8c": 1914,
    "\u2581\uacbd\ud5e4\uc601": 1915,
    "\u2581\ub053\uc5ec": 1916,
    "\u2581\uccad\ubb35": 1917,
    "\uc774\ub2c8\uae4c": 1918,
    "\u2581\ub0a8\uc2e0": 1919,
    "\u2581\uc6d4": 1920,
    "\u2581\uc0ac\uc774\uc5d0": 1921,
    "\u2581\ube57": 1922,
    "\uc774\uaf48": 1923,
    "\u2581\uc9c0\ub465": 1924,
    "\u2581\uc0b4\ub2e8": 1925,
    "\ud5e4\uc5f0": 1926,
    "\u2581\ub2e4\ub2c8": 1927,
    "\ubc27": 1928,
    "\u2581\uc721": 1929,
    "\u2581\ub9c9\uac78\ub9ac": 1930,
    "\u2581\uc7a5\uc637": 1931,
    "\u2581\ub9db\uc787\uc5b4": 1932,
    "\u2581\uc2f1\uac70": 1933,
    "\u2581\uccad\uc218": 1934,
    "\u2581\uc544\ub2c8\uac00": 1935,
    "\u2581\ub2e4\uc74c\uc740": 1936,
    "\u2581\uc544\ub144": 1937,
    "\u2581\uc11c\ub85c": 1938,
    "\u2581\ub048\uc5b4": 1939,
    "\u2581\ubcf4\ub9ac\uc528": 1940,
    "\u2581\ub9c8\ub8e8": 1941,
    "\u2581\ud0d5\uac74": 1942,
    "\ucc9c": 1943,
    "\u2581\ud5e4\ub098": 1944,
    "\u2581\ub545\uc5d0": 1945,
    "\u2581\uc911\ub9e4": 1946,
    "\u2581\ud5e4\ub2e4\uadfc\uc5d0": 1947,
    "\u2581\uc721\uc2ed": 1948,
    "\u2581\u1100\u119e\ub974": 1949,
    "\ub0a8": 1950,
    "\u2581\uac78\uc5c9": 1951,
    "\u2581\uc11c\ub978": 1952,
    "\u2581\ubca1": 1953,
    "\u2581\ub4e4\ub7ec": 1954,
    "\uce74": 1955,
    "\u2581\uac15\uc740\uc5d0": 1956,
    "\u2581\ub4e4\uc5ec": 1957,
    "\u2581\uc911\uac04": 1958,
    "\u2581\uc5c7\uc5b8\ub9c8\uc528": 1959,
    "\u2581\uc9c0\uc5c9": 1960,
    "\u2581\ud5f7\ub358": 1961,
    "\u2581\ubd88\ub974": 1962,
    "\u2581\ubb50\ub77c": 1963,
    "\u2581\uc5c7\uc218\ub2e4": 1964,
    "\uc74d\ub2c8\uae4c": 1965,
    "\u2581\ubab0\ub974": 1966,
    "\u2581\ub04c\ub824": 1967,
    "\u2581\uaf2c": 1968,
    "\u2581\ubc25\uc740": 1969,
    "\ud5c8\uac8c\uc2dc\ub9ac": 1970,
    "\u2581\ub4e4\uc5b4\ubcf4": 1971,
    "\u2581\ud328\ub9c8\ub18d": 1972,
    "\u2581\uc0ac\uc0bc\uc0ac\uac74": 1973,
    "\uc5b4\uadfc\uc5d0": 1974,
    "\u2581\uacac\ub514": 1975,
    "\u2581\uc5c7\uc77c": 1976,
    "\u2581\ud558\ud558\ud558\ud558": 1977,
    "\u2581\uc774\uc12f\uc218\uacfc": 1978,
    "\u2581\ub098\ubb34\uac00": 1979,
    "\u2581\uc0ac\uc8fc": 1980,
    "\u2581\uc815\uc131": 1981,
    "\u2581\ubcf4\ub9ac\ub0ad": 1982,
    "\ub3c4\ub85d": 1983,
    "\u2581\ud2b8": 1984,
    "\u2581\uae34": 1985,
    "\u2581\ub488\uc8fc": 1986,
    "\u2581\uc9c0\ub4e4\ucee4": 1987,
    "\u2581\uc61b\ub0a0\ubd80\ud130": 1988,
    "\u2581\uace1\uc2dd": 1989,
    "\u2581\ud5c8\ub2e4\uac00": 1990,
    "\uccad": 1991,
    "\ubb34": 1992,
    "\u2581\uc379": 1993,
    "\u2581\uc560": 1994,
    "\u2581\ub4e4\uc774": 1995,
    "\u2581\u1106\u119e\u11af\ub3c4": 1996,
    "\u2581\ud480\uc774": 1997,
    "\u2581\uba39\uc5b4\ub3c4": 1998,
    "\u2581\ucabd\uc5d0": 1999,
    "\u2581\uc18c\uac00": 2000,
    "\u2581\ud5f4\uc8fc": 2001,
    "\u2581\uc9e4\ub77c": 2002,
    "\u2581\uc808\uae30": 2003,
    "\u2581\uc54c\uc544\uc9c0\ucfe0": 2004,
    "\u2581\uc870\ud31f": 2005,
    "\uc6b0\uaf48": 2006,
    "\u2581\ubaa8\u1106\u119e\u11af": 2007,
    "\u2581\uc870\ub3c4": 2008,
    "\u2581\uc270\ub2e4\ub9ac": 2009,
    "\u2581\uc694\ub7f0": 2010,
    "\u2581\ud138\uc5b4": 2011,
    "\u2581\uc5c7\uc5c9": 2012,
    "\u2581\uba39\uc740": 2013,
    "\ub488": 2014,
    "\u2581\ubc14\ub2e4\uc5d0": 2015,
    "\u2581\uac08\uace1": 2016,
    "\u2581\ub54c\ubd80\ud130": 2017,
    "\u1100\u119e": 2018,
    "\uc2e0\uac8c": 2019,
    "\u2581\ub4dc\ub974\uc5d0": 2020,
    "\u2581\uc57d\uc774": 2021,
    "\u2581\ub4e4\uc5b4\uac04": 2022,
    "\u2581\uba5c\uccab": 2023,
    "\u2581\uc9c0\ub0b4\ub294": 2024,
    "\u2581\uc5c7\uc8fc": 2025,
    "\u2581\ucce5": 2026,
    "\u2581\ud5db": 2027,
    "\u2581\u110c\u119e\u11b7": 2028,
    "\u2581\uad6c\uc6d4": 2029,
    "\ub0ab": 2030,
    "\u2581\ud558\uc5ec\ud2bc": 2031,
    "\ub85c\ub3c4": 2032,
    "\u2581\uac80\uc9c8\uc774": 2033,
    "\u2581\ud06c": 2034,
    "\u2581\ub5a0": 2035,
    "\u2581\uadf8\ub54c\ub3c4": 2036,
    "\u2581\ub1a9\uc740\uc5d0": 2037,
    "\u2581\uc787\ub2f9": 2038,
    "\u2581\u1107\u119e\u11af\ub974\ub294": 2039,
    "\u2581\uc704": 2040,
    "\ub099": 2041,
    "\u2581\ub300\ub098\ubb34": 2042,
    "\u2581\ub194\ub450": 2043,
    "\ub7ec\ub808": 2044,
    "\u2581\ud5c8\uae30": 2045,
    "\u2581\uc88b\uac8c": 2046,
    "\u2581\uc88b\ub2e4": 2047,
    "\u2581\u1109\u119e\ubb47": 2048,
    "\u2581\ubcf4\uae61": 2049,
    "\u2581\u110e\u119e\u11af\ub839": 2050,
    "\u2581\uc2dc\ub801": 2051,
    "\ub48c": 2052,
    "\uc644": 2053,
    "\u2581\uc2e0\uc5c9": 2054,
    "\u2581\ub538": 2055,
    "\u2581\ud1a0\uc2e0\uc81c": 2056,
    "\u2581\ucc98": 2057,
    "\u2581\uc6b0\ucc0d": 2058,
    "\u2581\ub9c8\ub18d\uc9c0": 2059,
    "\u2581\ubaa9": 2060,
    "\uac00\ub09c": 2061,
    "\uc9c0\uc9c0": 2062,
    "\u2581\uba54\ubc00": 2063,
    "\ub9dd": 2064,
    "\u2581\u1106\u119e\uc744": 2065,
    "\u2581\uc0bc\ucd98\ub124": 2066,
    "\ubd05\ub514\uac00": 2067,
    "\u2581\u110b\u11a2": 2068,
    "\u2581\uba39\uc5c7": 2069,
    "\u2581\u110c\u119e\u11b8\uc544": 2070,
    "\u2581\uad6c\uc831\uae30": 2071,
    "\u2581\uadf8\uce58\ub8e9": 2072,
    "\u2581\uac77\uc5b4": 2073,
    "\u2581\uc54c\uc544\uc838": 2074,
    "\u2581\u110b\u11a2\uc12f": 2075,
    "\u2581\ud5f7\ub294\ub514": 2076,
    "\u2581\uac00\uc744\uc5d0": 2077,
    "\u2581\uc640\uadfc\uc5d0": 2078,
    "\u2581\uba69\ud161\uc774": 2079,
    "\u2581\uc9d1\uc548\uc5d0": 2080,
    "\u2581\ubc84": 2081,
    "\u2581\u1106\u119e\u11af\ub824": 2082,
    "\u2581\ub0ad\uc774": 2083,
    "\uc918": 2084,
    "\ud589": 2085,
    "\u2581\ud5e4\ub098\uace0": 2086,
    "\u2581\uc6cc": 2087,
    "\u2581\ubb3c\ub3c4": 2088,
    "\u2581\u1107\u119e\u11af": 2089,
    "\u2581\u110c\u119e\u11ab": 2090,
    "\u2581\uc774\uc2e0\ub514": 2091,
    "\u2581\ub108\ubbf8": 2092,
    "\u2581\uc5c6\uc73c\ub2c8\uae4c": 2093,
    "\u2581\uc775\uc73c\ubbfc": 2094,
    "\u2581\uc5c7\uc5c7\uc5b4": 2095,
    "\u2581\uc0bc\ucd98\uc740": 2096,
    "\u2581\uc9d3\ub294": 2097,
    "\u2581\ub4dc\ub294": 2098,
    "\u2581\uc14b": 2099,
    "\u2581\uc774\ub9cc\ud07c": 2100,
    "\u2581\uba54\uc640": 2101,
    "\u2581\u1106\u119e\u11af\ub839": 2102,
    "\u2581\u1112\u119e\ub098\uc529": 2103,
    "\u2581\ud5f7\ub2f9": 2104,
    "\u2581\uac70\ub09c\uc5d0": 2105,
    "\u2581\uc0bc\uc6d4": 2106,
    "\u2581\ubb3c\uc740": 2107,
    "\u2581\ubb3c\ud6fc": 2108,
    "\u2581\uc7a5\uc5d0": 2109,
    "\ub85c\ub294": 2110,
    "\u2581\ucf69\uad6d": 2111,
    "\u2581\ub4e4\ubbfc": 2112,
    "\uba58": 2113,
    "\u2581\ubb50\ub0d0": 2114,
    "\ub048": 2115,
    "\u2581\ub2f9\uc5d0": 2116,
    "\u2581\ubabb\ud5c8\ub294": 2117,
    "\u2581\ubf51": 2118,
    "\u2581\ub9ce\uc740": 2119,
    "\u2581\ubc24\uc5d0": 2120,
    "\u2581\ub460\ube44": 2121,
    "\u2581\uc120\ud758": 2122,
    "\ud55c\ud14c": 2123,
    "\u2581\uc5b4\ub824\uc640": 2124,
    "\u2581\u110c\u119e\u11b7\uc9c4": 2125,
    "\u2581\uc131\uc74d\ub9ac": 2126,
    "\u2581\ud5e4\uac16\uace0": 2127,
    "\u2581\ubc14\uc704": 2128,
    "\u2581\ub385\uae30\uace0": 2129,
    "\u2581\uac08\uce58": 2130,
    "\uf000\uf000": 2131,
    "\u1112\u119e\uc5ec": 2132,
    "\u2581\ud14c\uc641": 2133,
    "\uac10": 2134,
    "\u2581\ube48": 2135,
    "\u2581\uac00\uc838\uac00": 2136,
    "\u2581\uc606\uc774": 2137,
    "\u2581\uc528\ub294": 2138,
    "\u2581\u110a\u119e\u11af\uc774": 2139,
    "\u2581\uc5c6": 2140,
    "\u2581\ub3d9\uc548": 2141,
    "\u2581\ud798": 2142,
    "\u2581\uc11c\uadc0\ud3ec": 2143,
    "\u2581\ubbf8\uae61": 2144,
    "\u2581\u1100\u119e\u11ba\uc0ac": 2145,
    "\u2581\ubb50\ub77c\uace0": 2146,
    "\u2581\uacf5\ubd80": 2147,
    "\u2581\ub098\uace1": 2148,
    "\u2581\ud0a4\uc640": 2149,
    "\u2581\uc4f0\uace1": 2150,
    "\u2581\uc77c\ubcf8\ub9d0": 2151,
    "\u2581\uc18c\ub0ad": 2152,
    "\ud5f7": 2153,
    "\u2581\u1112\u119e\u11ab\ub4f8": 2154,
    "\u2581\ubd88\uc5b8": 2155,
    "\u2581\uc90c": 2156,
    "\u2581\uaca8": 2157,
    "\ud5c8\uba74": 2158,
    "\u2581\ubcf4\ub9ac\ub3c4": 2159,
    "\ub2c8\uaed8": 2160,
    "\u2581\ud14c\uc6b0": 2161,
    "\u2581\ub18d\uc0ac\ub97c": 2162,
    "\u2581\ub4e4\uc5b4\uac00\ubbfc": 2163,
    "\u2581\ubb34\uc2dc\uac70\uc5d4": 2164,
    "\u2581\ubc1b": 2165,
    "\u2581\uc591\ud0dc": 2166,
    "\u2581\uac70\uc796\uc544\uc608": 2167,
    "\uc5c7\uc218\uacfc": 2168,
    "\u2581\uc62c\ub77c\uc624": 2169,
    "\u2581\ub3cc\uc544\uac00\uba4d": 2170,
    "\u2581\uad6c\ub8e8\ub9c8": 2171,
    "\u2581\u1110\u119e\ub85c": 2172,
    "\u2581\uacbd\ud5d8": 2173,
    "\u2581\uacbd\ud5c8\ubbc4": 2174,
    "\uc0c8": 2175,
    "\u2581\ubc16\uc5d0": 2176,
    "\uc57c\uc9c0": 2177,
    "\u2581\u1100\u119e\u11ae\uc9c0": 2178,
    "\u2581\ud5e4\ub0ab\uc8fc\uac8c": 2179,
    "\u2581\uac08\ub77c": 2180,
    "\u2581\uce60\uc131": 2181,
    "\u2581\uc4f8": 2182,
    "\u2581\uace1\uc11d": 2183,
    "\u2581\u1109\u119e\uc0bc\uc0ac\uac74": 2184,
    "\u2581\ucc0d\uc5b4": 2185,
    "\u2581\uc228": 2186,
    "\u2581\uce68": 2187,
    "\u2581\uc778": 2188,
    "\u2581\ucc0c": 2189,
    "\uac90": 2190,
    "\ub518": 2191,
    "\ud5e4\uc57c": 2192,
    "\u2581\ub3d7\ud1b5": 2193,
    "\u2581\ud798\ub4e4": 2194,
    "\u2581\ubd89\uc740": 2195,
    "\u2581\ud48d\uccb4": 2196,
    "\u2581\ubb38\uc804\uc81c": 2197,
    "\u2581\uc0b4\uc5d0": 2198,
    "\u2581\ub313": 2199,
    "\u2581\uc2dc\ub300": 2200,
    "\u2581\ud560\ub9dd\ub35c": 2201,
    "\u2581\ub098\uc62c": 2202,
    "\u2581\uc5d0\uc774": 2203,
    "\uacc4": 2204,
    "\u2581\ud544": 2205,
    "\u2581\ub110\uc5b4": 2206,
    "\u2581\uc2e0\uc5b4": 2207,
    "\u2581\uc18c\ub77c": 2208,
    "\u2581\uadf8\ub7ec\uba74\uc740": 2209,
    "\uaf2c": 2210,
    "\u2581\uc19f\ub4f8": 2211,
    "\u2581\uc8fc\uc9c0": 2212,
    "\ub85c\ub9cc": 2213,
    "\u2581\ud398": 2214,
    "\uc5e3": 2215,
    "\u2581\ubd80\ub294": 2216,
    "\u2581\u110d\u119e\u11af\ub77c": 2217,
    "\u2581\ub3d7\uac78\ub984": 2218,
    "\u2581\uc0bc\uac04\uc9d1": 2219,
    "\u2581\uc81c\ud39c": 2220,
    "\uc8fd": 2221,
    "\u2581\uc218\uc81c\ube44": 2222,
    "\u2581\ubaa9\uc7a5\uc5d0": 2223,
    "\uc73c\uba74": 2224,
    "\u2581\ub0bc": 2225,
    "\u2581\uc218\uac74": 2226,
    "\u2581\ubc25\uc5d0": 2227,
    "\u2581\uaf2c\ub9ac": 2228,
    "\u2581\u110c\u119e\u11af\uc544": 2229,
    "\u2581\uc0c8\uc11c\ubc29": 2230,
    "\u2581\ub488\ub09c": 2231,
    "\u2581\uc560\uae30\ub35c": 2232,
    "\ub4ef\uc774": 2233,
    "\u2581\ud587\uc218\ub2e4": 2234,
    "\u2581\ucc0d\uc73c\ub85c": 2235,
    "\u2581\uc794": 2236,
    "\ub2ec": 2237,
    "\u2581\uac85\ud5f9": 2238,
    "\ubcf5": 2239,
    "\u2581\uacb0\ud63c\uc2dd": 2240,
    "\u2581\uc591\ucabd\uc5d0": 2241,
    "\u2581\uac00\uba4d": 2242,
    "\u2581\uc9dd": 2243,
    "\u2581\ucf69\uc744": 2244,
    "\u2581\uc464\ub294": 2245,
    "\u2581\ud56d\uc544\ub9ac": 2246,
    "\u2581\uadf8\ub798\ub3c4": 2247,
    "\u2581\u1107\u119e\u11af\ub9ac": 2248,
    "\u2581\ub9de\ucd94": 2249,
    "\u2581\uadf8\ub7ec": 2250,
    "\u2581\u1106\u119e\u11af\ub77c": 2251,
    "\u2581\ucf69\uc8fd": 2252,
    "\u2581\uc54c\ub85c": 2253,
    "\uc653": 2254,
    "\u2581\uc0ac\uc704": 2255,
    "\u2581\ud5e4\ubd80\ub09c": 2256,
    "\u2581\ub300\ud328": 2257,
    "\u2581\ud5d9\ub514\ub2e4": 2258,
    "\u2581\uba39\uc73c\ub808": 2259,
    "\u2581\uc544\ud30c": 2260,
    "\u2581\ubd80\ub728": 2261,
    "\u2581\u110e\u119e": 2262,
    "\u2581\ubb38\uc804": 2263,
    "\ud5c8\uc5f0": 2264,
    "\ub193\ubbfc": 2265,
    "\u2581\ucd95": 2266,
    "\u2581\uc528\uc9d1": 2267,
    "\u2581\ubc27\uc740": 2268,
    "\u2581\ub194\uadfc\uc5e5": 2269,
    "\u2581\uc694\uac83": 2270,
    "\u2581\ube60\uc9c0": 2271,
    "\u2581\uac10\uc544": 2272,
    "\uc8fc\uae30\uac8c": 2273,
    "\u2581\uba54\uace1": 2274,
    "\u2581\ub193\uc9c0": 2275,
    "\ud558\uba74": 2276,
    "\u2581\uc218\uc5d0": 2277,
    "\u2581\u1100\u119e\u11af\uc74d": 2278,
    "\u2581\uc2f1\uadf8": 2279,
    "\u2581\ub4e4\uc5b4\uc640": 2280,
    "\u2581\uca84": 2281,
    "\uace8": 2282,
    "\u2581\ub098\ub8e9": 2283,
    "\u2581\ub450\ub4dc\ub9ac": 2284,
    "\u2581\uce7c\ub85c": 2285,
    "\u2581\uba55\uc774\ub294": 2286,
    "\u2581\uce5c": 2287,
    "\u2581\uc0ac\ub78c\ub4e4\uc774": 2288,
    "\u2581\ud070\uc544\ub35c": 2289,
    "\u2581\ub4e4\uc601": 2290,
    "\ub85d": 2291,
    "\u2581\uac83\uc0ac": 2292,
    "\u2581\ub2c8": 2293,
    "\u2581\uc9d3\uc820": 2294,
    "\u2581\uac00\uac8c": 2295,
    "\u2581\uc49c": 2296,
    "\u2581\ud5f7\uc218\ub2e4": 2297,
    "\u2581\ub54c\ub9cc": 2298,
    "\u2581\uc653": 2299,
    "\uc73c\ub124": 2300,
    "\u2581\ub3c8\uc774": 2301,
    "\u2581\uc7a5\ub9c8": 2302,
    "\u2581\ub9cc\ub4ed": 2303,
    "\u2581\uc801\uc5d0": 2304,
    "\u2581\ud5e4\uc2e4": 2305,
    "\u2581\ub300\ud574": 2306,
    "\u2581\ubbf8\ub155\uc73c\ub85c": 2307,
    "\u2581\uc2e0\ub3c4": 2308,
    "\u2581\uace0\ub0b4": 2309,
    "\u2581\uc6b0\uc2dc": 2310,
    "\u2581\ucf69\ub098\ubb3c": 2311,
    "\u2581\ud398\ub81d\uc774": 2312,
    "\u2581\uc637\uac10": 2313,
    "\u2581\ub290": 2314,
    "\u2581\uacbd\u1112\u119e\ub09c": 2315,
    "\ubc14": 2316,
    "\uccb4": 2317,
    "\u2581\ube4c\uc5b4\ub2f9": 2318,
    "\u2581\uc774\ucabd": 2319,
    "\u2581\ud3ed": 2320,
    "\u2581\uace0\uc0dd": 2321,
    "\u2581\ud3ad": 2322,
    "\u2581\ub20c\uc5c9": 2323,
    "\u2581\ud5c8\uc796\uc544\uc608": 2324,
    "\u2581\ub4e4\uc5b4\uac00\uace0": 2325,
    "\u2581\uace0\uc0b0": 2326,
    "\u2581\uc73c\uc73c": 2327,
    "\ub4f8": 2328,
    "\u2581\ub3c4\uaed8": 2329,
    "\u2581\ud5c8\ub09c\uc5d0": 2330,
    "\ub828": 2331,
    "\u2581\ub481": 2332,
    "\u2581\uc55a\uc544": 2333,
    "\u2581\uc624\uba54\uae30": 2334,
    "\uca0c": 2335,
    "\u2581\ub9dd\uc885": 2336,
    "\u2581\ubd09\ubd84": 2337,
    "\u2581\ubcf4\uc12d": 2338,
    "\u2581\uc13c\uce58": 2339,
    "\u2581\ud2b9\ubcc4\ud788": 2340,
    "\u2581\uc5c7\uc5c7\uc218\uacfc": 2341,
    "\u2581\ud558\uc158\ub9c8\uc528": 2342,
    "\u2581\ubb34\ub044": 2343,
    "\u2581\uc881\uc300": 2344,
    "\u2581\ub2a6": 2345,
    "\u2581\ub5bc\ub294": 2346,
    "\u2581\uc9c0\ub2ec\uc774": 2347,
    "\u2581\uce58\ub9c8": 2348,
    "\u2581\uc6b8": 2349,
    "\u2581\ud560\ub9dd\uc774": 2350,
    "\ud5c8\uc8fc\uac8c": 2351,
    "\u2581\uba55": 2352,
    "\ucc44": 2353,
    "\u2581\ubaa8\uc2dc\ub294": 2354,
    "\u2581\uc544\ud504": 2355,
    "\ucc0c": 2356,
    "\u2581\ud587": 2357,
    "\u2581\ub385\uae30": 2358,
    "\ub3cc": 2359,
    "\u2581\ubc24": 2360,
    "\uc5ff": 2361,
    "\u2581\ubd88\uc774": 2362,
    "\u2581\uc7a1\uace0": 2363,
    "\u2581\uc813\uc5b4": 2364,
    "\u2581\uba40\ub9ac": 2365,
    "\u2581\ud560\uc544\ubc84\uc9c0": 2366,
    "\u2581\ud314\uc2ed": 2367,
    "\u2581\ube59": 2368,
    "\u2581\ud2c0": 2369,
    "\u2581\ud0c1\ud0c1": 2370,
    "\u2581\uc77c\uc744": 2371,
    "\u2581\ubb34\uc2f1": 2372,
    "\u2581\ub098\uc05c": 2373,
    "\u2581\u1106\u119e\u11af\ub9ac\uc655": 2374,
    "\ud5f7\uc218\uacfc": 2375,
    "\u2581\uc704\ud574\uc11c": 2376,
    "\u2581\uc787\uc218\uad11": 2377,
    "\u2581\ub0ad\uc744": 2378,
    "\u2581\ub4a4\uce58\uae30": 2379,
    "\u2581\ud5f7\uc218\uac00": 2380,
    "\u2581\uac00\ub808\uae30": 2381,
    "\u2581\uba54\uc5b4": 2382,
    "\u2581\ud0a4\ub85c": 2383,
    "\u2581\u1106\u119e\ubbc8": 2384,
    "\uae08": 2385,
    "\u2581\uce60\uc2ed": 2386,
    "\u2581\u1100\u119e\u11ba": 2387,
    "\u2581\ud5f7\uc8fc\ub9cc\uc740": 2388,
    "\u2581\ubd80\uc8fc": 2389,
    "\u2581\uc544\ub2c8\uc6b0\uacfc": 2390,
    "\u2581\uc88b\uc8fc\uac8c": 2391,
    "\u2581\ud798\uc774": 2392,
    "\uc2dd": 2393,
    "\u2581\uc5b4\ubb34\ub2c8": 2394,
    "\ub193\uace0": 2395,
    "\u2581\ucf69\uc774": 2396,
    "\uc704": 2397,
    "\uac8c\ub054": 2398,
    "\u2581\uc2dc\uae30": 2399,
    "\u2581\uba40": 2400,
    "\u2581\uc774\uc6d4": 2401,
    "\uc2e0\uac00": 2402,
    "\u2581\ubc27\ubcbc": 2403,
    "\u2581\uc544\ubd80\uc9c0": 2404,
    "\u2581\ub9c8\ub204\ub77c": 2405,
    "\u2581\ubaa8\ub974\ucf1c": 2406,
    "\u2581\uc5f4\ub2e4\uc12f": 2407,
    "\u2581\ube44\uc2f8": 2408,
    "\u2581\uc7a0\ub300": 2409,
    "\u2581\ud55c\ubc88": 2410,
    "\u2581\uc815\uc81c": 2411,
    "\u2581\uc62c\ub839": 2412,
    "\u2581\uac10\uc559": 2413,
    "\ub9ac\ub294": 2414,
    "\u2581\uc190\uac00\ub77d": 2415,
    "\uadfc\uc5e5\uc774": 2416,
    "\u2581\uc2dc\ub09c": 2417,
    "\u2581\ubaa8\uc591": 2418,
    "\ucf54": 2419,
    "\ubc1c": 2420,
    "\u2581\ub0b4\uc911\uc5d0": 2421,
    "\u2581\ubab0\ub974\uace0": 2422,
    "\u2581\uace4": 2423,
    "\u2581\ud770\uc8fd": 2424,
    "\uc5ec\uadfc\uc5d0": 2425,
    "\u2581\ud48d\uc120": 2426,
    "\u2581\uc0b4\uba4d": 2427,
    "\u2581\uac10\ub294": 2428,
    "\u2581\ubb63\uc774": 2429,
    "\u2581\ucc3d\ubb38": 2430,
    "\ud5e4\ub3c4": 2431,
    "\u2581\uace0\ub0e5": 2432,
    "\u2581\uc544\ud649": 2433,
    "\u2581\ubabb\ud5c8\uace0": 2434,
    "\uc9c0\ub9cc\uc740": 2435,
    "\u2581\uace0\ubb34\uc2e0": 2436,
    "\u2581\uc2dc\uaed1": 2437,
    "\u2581\uae30\ub465": 2438,
    "\u2581\uadfc\ub514": 2439,
    "\u2581\uc465": 2440,
    "\u2581\ubfd4\ub9ac": 2441,
    "\u2581\uac00\ub054": 2442,
    "\u2581\ub18d\uc11c": 2443,
    "\u2581\ub9cc\ub4e4\uc5c7": 2444,
    "\u2581\uba39\ud1b5": 2445,
    "\u2581\uc774\ud2c0": 2446,
    "\u2581\u1103\u119e": 2447,
    "\u2581\u110c\u119e\ubca0\uae30": 2448,
    "\u2581\uc885\ub958\uc5d0": 2449,
    "\u2581\uba69\uae00": 2450,
    "\u2581\uc785\ucd98": 2451,
    "\u2581\uac1c\uc369": 2452,
    "\uc73c\uba4d": 2453,
    "\ub808\uae30": 2454,
    "\u2581\ubcf4\ub9ac\u110a\u119e\u11af\uc5d0": 2455,
    "\u2581\uc694\uc998\uc5d0": 2456,
    "\u2581\uac1c\uc778": 2457,
    "\uc640\uadfc\uc5d0": 2458,
    "\u2581\uace0\ub791": 2459,
    "\u2581\ub3fc": 2460,
    "\u2581\ub4e4\uc5b4\uc624\ub294": 2461,
    "\u2581\uc62c\ub77c": 2462,
    "\u2581\uac08\uc820": 2463,
    "\u2581\uac00\ub2c8\uae4c": 2464,
    "\u2581\uac74\uac00": 2465,
    "\ucd08": 2466,
    "\u2581\uc8fd\ub3c4": 2467,
    "\u2581\ubaa9\uc218": 2468,
    "\u2581\ub192\uc740": 2469,
    "\u2581\uc88b\uace1": 2470,
    "\u2581\ub9c8\ud754": 2471,
    "\u2581\uc9c0\uac8c\ubb38": 2472,
    "\u2581\ub4dc\ub7ec": 2473,
    "\u2581\uac00\ub9c8\ub2c8": 2474,
    "\u2581\ub300\uac1c": 2475,
    "\u2581\ubbf8\ub9ac": 2476,
    "\uae30\ub294": 2477,
    "\u2581\ubc29\uc11d": 2478,
    "\u2581\uc131\uac8c": 2479,
    "\u2581\ud30c\ub294": 2480,
    "\u2581\uadf8\uc7c8": 2481,
    "\u2581\uba69\uc8fc": 2482,
    "\u2581\uc544\ud508": 2483,
    "\ub370\uae30": 2484,
    "\u2581\uaff0\uc601": 2485,
    "\u2581\u1112\u119e\ub098\uc369": 2486,
    "\u2581\ud558\ub09c": 2487,
    "\u2581\uc250\ucd10": 2488,
    "\u2581\ud2c0\ub9ac": 2489,
    "\u2581\ub098\uc624\ubbfc": 2490,
    "\ubaa9": 2491,
    "\ub204\uac00": 2492,
    "\u2581\ud1a0": 2493,
    "\u2581\uaebc\uaebc": 2494,
    "\u2581\uc787\uc5b4\ub0ab\uc218\uacfc": 2495,
    "\u2581\uc8fd\uc774": 2496,
    "\u2581\uac74\uc838": 2497,
    "\u2581\ub300\ud55c": 2498,
    "\u2581\u110e\u119e\u11af\ub9ac": 2499,
    "\uc9c0\uba74\uc740": 2500,
    "\u2581\ub2f4\uadf8\ub294": 2501,
    "\u2581\uac80\uc9c8\ub3c4": 2502,
    "\u2581\ub2ac": 2503,
    "\u2581\uc138\uc6b0": 2504,
    "\u2581\ub208\uc774": 2505,
    "\u2581\uad00\ub9ac": 2506,
    "\ub9cc\uc369": 2507,
    "\ub35c\ub3c4": 2508,
    "\u2581\ub09c\ub4dc\ub974": 2509,
    "\uba85": 2510,
    "\u2581\ud64d\uc138\ubbf8\ub155": 2511,
    "\u2581\uc695": 2512,
    "\uc2ed\uc8fc": 2513,
    "\u2581\uc77c\ucc0d": 2514,
    "\u2581\uc18c\ub098\ubb34": 2515,
    "\ubd88\uc5b8": 2516,
    "\u2581\uc14d\uc774\ub77c": 2517,
    "\u2581\uc774\ub4f8": 2518,
    "\u2581\uc92d": 2519,
    "\u2581\ubeec": 2520,
    "\uc2dc\ub09c": 2521,
    "\u2581\ubd80\ub5a0": 2522,
    "\u2581\uc9c0\ub294": 2523,
    "\u2581\ub4e4\uc5b4\uc628": 2524,
    "\uadc0": 2525,
    "\u2581\uac78\uad81": 2526,
    "\u2581\ubc27\uac70\ub9ac": 2527,
    "\uc2b5\ub2c8\ub2e4": 2528,
    "\ub4e0\uc9c0": 2529,
    "\u2581\ucc14\ub7ec": 2530,
    "\u2581\uc5c7\uc740": 2531,
    "\u2581\uc624\uc9c0": 2532,
    "\uc9c0\uace1": 2533,
    "\u2581\uc5ec\uc790\uac00": 2534,
    "\uc808": 2535,
    "\u2581\ud78c": 2536,
    "\u2581\ud5e4\uac00\ubbfc": 2537,
    "\u2581\uac74\uc9c0": 2538,
    "\u2581\ubab0": 2539,
    "\u2581\ub554\uac10": 2540,
    "\u2581\ubc15\ubc15": 2541,
    "\u2581\ub3cc\uba69\uc774": 2542,
    "\u2581\uc5b4\ub5b5\ud5f9": 2543,
    "\ud615": 2544,
    "\u2581\uc9c0\ub2e4\ub9ac": 2545,
    "\u2581\uc21c\ub300": 2546,
    "\u2581\ub738": 2547,
    "\u2581\u1106\u119e\ub9ac": 2548,
    "\u2581\ud568": 2549,
    "\u2581\uc55a": 2550,
    "\u2581\uc557\uc544": 2551,
    "\u2581\ud5e4\ub0ab\uc218\ub2e4": 2552,
    "\u2581\ub9c8\uc744\uc5d0\uc11c": 2553,
    "\u2581\ub098\uc9c0": 2554,
    "\u2581\uc0b4\ub808": 2555,
    "\u2581\uc548\ud5f9": 2556,
    "\u2581\uc544\uce68": 2557,
    "\u2581\uc918\uc57c": 2558,
    "\uac70\uce58": 2559,
    "\u2581\uac04\ub2e4": 2560,
    "\u2581\uac08\uc544\uadfc\uc5d0": 2561,
    "\u2581\uac08\ubbfc": 2562,
    "\u2581\ucca0": 2563,
    "\ub8e9": 2564,
    "\u2581\ud1b5\uc2dc": 2565,
    "\u2581\ubaa9\uc2dc": 2566,
    "\u2581\uc0ac\uace0": 2567,
    "\u2581\ud558\ubbfc": 2568,
    "\ud68c": 2569,
    "\uacf5": 2570,
    "\u2581\ub3c8\uc73c\ub85c": 2571,
    "\u2581\uc1a1\ub2f9": 2572,
    "\u2581\uc9c8\ub878": 2573,
    "\u2581\u1100\u119e\u11af\uc544\uadfc\uc5d0": 2574,
    "\u2581\ub9ce\uc544": 2575,
    "\u2581\ub611\ub611": 2576,
    "\u2581\uc69c\ub85c": 2577,
    "\u2581\ucd5c\uace0": 2578,
    "\u2581\uc0ac\ud758": 2579,
    "\u2581\uac1c\ub97c": 2580,
    "\ub9ac\uac00": 2581,
    "\u2581\ub2f4\uc744": 2582,
    "\u2581\ub2e4\uac04": 2583,
    "\u2581\ub2f4\uac00": 2584,
    "\u2581\ub760": 2585,
    "\u2581\uc9c0\uc744": 2586,
    "\u2581\uadf8\ub798": 2587,
    "\u2581\uba54\uace0": 2588,
    "\uc778\uc9c0": 2589,
    "\u2581\uac10\uae30": 2590,
    "\u2581\ud64d\uc5ed": 2591,
    "\ub2e8\uc5d0": 2592,
    "\u2581\uadf8\uba74": 2593,
    "\u2581\ub0e5": 2594,
    "\u2581\uae30\uc5b5\uc774": 2595,
    "\u2581\ubc14\ub2f9\uc5d0\uc11c": 2596,
    "\u2581\u1109\u119e\u11b7": 2597,
    "\u2581\ub300\uc2e0": 2598,
    "\ub9c9": 2599,
    "\u2581\uc12c": 2600,
    "\u2581\ubc18\uce58": 2601,
    "\ub531": 2602,
    "\u2581\ub118\uc5c9": 2603,
    "\u2581\uc54a\uace0": 2604,
    "\u2581\ucf69\uc9c0\ub984": 2605,
    "\u2581\ub5a1\uc774": 2606,
    "\u2581\uc787\uc5c7\uc5b4": 2607,
    "\u2581\uc904\uc774": 2608,
    "\u2581\uc5c7\uace1": 2609,
    "\u2581\ubcf4\ubbc4": 2610,
    "\u2581\uc81c\uad00": 2611,
    "\ucd94": 2612,
    "\u2581\u1100\u119e\u11ae": 2613,
    "\u2581\ud560\uba38\ub2c8\uac00": 2614,
    "\u2581\uacfc\uc815": 2615,
    "\u2581\ud5c8\uc5ec\uadfc\uc5e5": 2616,
    "\u2581\uc0b4\uc544\ub09c": 2617,
    "\u2581\uce7c\uad6d\uc218": 2618,
    "\u2581\ub9c8\ucc28": 2619,
    "\u2581\uc5ec\ub984\uc5d0\ub294": 2620,
    "\u2581\u110c\u119e\u11af": 2621,
    "\uc5c7\uc218\uad11": 2622,
    "\u2581\ub2f4\uc73c": 2623,
    "\ub07c": 2624,
    "\u2581\uc4f4": 2625,
    "\u2581\uace4\uc8fd": 2626,
    "\u2581\uac10\ud0dc": 2627,
    "\u2581\uc637\ub3c4": 2628,
    "\ubd80\ub7ec": 2629,
    "\u2581\u1109\u119e\u11b7\uc544": 2630,
    "\u2581\uc6b0\ub85c": 2631,
    "\u2581\ubb3c\uc5b4": 2632,
    "\u2581\uc2e0\uad6c\uac04": 2633,
    "\uf000": 2634,
    "\u2581\ub514\uc11c": 2635,
    "\u2581\uba54\ub2e4": 2636,
    "\u2581\ud5e4\uc601\uc740\uc5d0": 2637,
    "\u2581\ub0a8\ud14c": 2638,
    "\u2581\uc774\uae30\ub294": 2639,
    "\u2581\ud5db\uac04": 2640,
    "\u2581\ubb38\uc81c": 2641,
    "\u2581\uc9c0\uc2e4": 2642,
    "\u2581\uc5c7\uc5b4\uc838": 2643,
    "\uc5c4": 2644,
    "\u2581\uc790\ub791": 2645,
    "\u2581\uac00\ub9c8": 2646,
    "\u2581\uc0b4\uc554": 2647,
    "\u2581\ub4e0": 2648,
    "\u2581\u1112\u119e\u11a8\uad50": 2649,
    "\u2581\u1100\u119e\uba54\uae30": 2650,
    "\u2581\uc88b\uc9c0": 2651,
    "\u2581\uc138\uc0c1": 2652,
    "\u2581\ub4f8": 2653,
    "\u2581\ubca1\uc7a5": 2654,
    "\u2581\ucad9": 2655,
    "\u2581\uac1c\ud310": 2656,
    "\u2581\u1100\u119e\ub728\ubbfc": 2657,
    "\u1100\u119e\ucd94\ub8e9": 2658,
    "\u2581\u1100\u119e\u11c0\uc740": 2659,
    "\u2581\ub178\ubbfc": 2660,
    "\u2581\ubcf8\ud5a5": 2661,
    "\u2581\uadf8\ub2e4\uc74c\uc5d0\ub294": 2662,
    "\u2581\uad11\ubaa9\uc73c\ub85c": 2663,
    "\u2581\ubcf4\uba4d": 2664,
    "\u2581\uc9c0\uc11c": 2665,
    "\u2581\uc624\ub09c": 2666,
    "\u2581\uc2dd\uad6c": 2667,
    "\u2581\uc548\uac70\ub9ac": 2668,
    "\u2581\uac1c\uc529": 2669,
    "\u2581\uac01": 2670,
    "\u2581\uacf1\uc744\ub77d": 2671,
    "\u2581\uace0\ub3d9": 2672,
    "\u2581\u1106\u119e\u11af\ub9dd": 2673,
    "\u2581\uc88b\uc8fc": 2674,
    "\u2581\uac8c\uc601": 2675,
    "\uc9d1\uc774": 2676,
    "\u2581\uc0b4\uc557": 2677,
    "\u2581\uccad": 2678,
    "\ud5e4\ub09c": 2679,
    "\u2581\uc774\uc218\ub2e4": 2680,
    "\u2581\ucd94\uc5b5": 2681,
    "\u2581\ubc00\u110f\u119e\ub8e8": 2682,
    "\u2581\ud588": 2683,
    "\u2581\ud2b9\ubcc4": 2684,
    "\uc2ec": 2685,
    "\u2581\ubc97": 2686,
    "\u2581\ubb50\uacfc": 2687,
    "\u2581\ub450\uac74": 2688,
    "\u2581\ub9c8\uc8fc": 2689,
    "\u2581\u1106\u119e\u11af\ub974": 2690,
    "\u2581\ub098\ub9c9\uc2e0": 2691,
    "\u2581\ub0c4\uc0c8": 2692,
    "\u2581\uc625\ub3d4": 2693,
    "\u2581\ucd94\uc11d": 2694,
    "\u1106\u119e\u11ba": 2695,
    "\u2581\uc7a1\uc73c\ub808": 2696,
    "\u2581\u1107\u119e\u11af\ub791": 2697,
    "\u2581\uadf8\uac83\ub9cc": 2698,
    "\u2581\u1100\u119e\u11af\uc544\ub09c": 2699,
    "\u2581\u1100\u119e\ub8e8\ub85c": 2700,
    "\u2581\ub300\uc815": 2701,
    "\u2581\ubd80\ub974\ub294": 2702,
    "\u2581\uc808\ub300": 2703,
    "\u2581\u1112\u119e\u11ab\ub514": 2704,
    "\u2581\uc0bf\uac13": 2705,
    "\ub77c\ub4e0\uac00": 2706,
    "\u2581\ud558\ub2c8\uae4c": 2707,
    "\u2581\u110a\u119e\u11af\ub85c": 2708,
    "\u2581\uace0\ud321\uc5d0": 2709,
    "\u2581\u1112\u119e\uac8c\uc2dc\ub9ac": 2710,
    "\u2581\uc804\uc778": 2711,
    "\u2581\uc21c\uc11c": 2712,
    "\u2581\ud1a0\ubaa9": 2713,
    "\u2581\ubd80\uca84": 2714,
    "\u2581\ud5e4\uadfc\uc5e5\uc5d0": 2715,
    "\u2581\uc721\uc9c0\uc11c": 2716,
    "\u2581\uc18c\uac8c": 2717,
    "\u2581\ub4b7\ub0a0": 2718,
    "\u2581\uc801\uc740": 2719,
    "\u2581\uccb4\ub85c": 2720,
    "\u2581\uc774\ub54c": 2721,
    "\u2581\uc871": 2722,
    "\u2581\ub3d9\uae00\ub77d\ud5c8\uac8c": 2723,
    "\u2581\ud5d8\ubc85": 2724,
    "\u2581\uc544\ub2c8\uc6b0\uaf48\uc608": 2725,
    "\uc885": 2726,
    "\u2581\uac00\ub77c": 2727,
    "\u2581\u110c\u119e\uadfc\u110c\u119e\uadfc": 2728,
    "\u2581\ubd80\ub72c": 2729,
    "\u2581\uc0bc\uce78\uc9d1": 2730,
    "\u2581\ub0a0\uc9dc": 2731,
    "\u2581\uc11c\uc2ac": 2732,
    "\u2581\uacf5\ub3d9\uc73c\ub85c": 2733,
    "\u2581\u110c\u119e\u11ba": 2734,
    "\uad74": 2735,
    "\ud78c": 2736,
    "\u2581\ud328": 2737,
    "\u2581\ub2f7": 2738,
    "\u2581\uac70\uc655": 2739,
    "\u2581\uacbd\u1112\u119e\uace0": 2740,
    "\u2581\ucc28\ub294": 2741,
    "\u2581\ubb34\uaebc\uadfc\uc5d0": 2742,
    "\u2581\ud3ad\uc774": 2743,
    "\ud1b5": 2744,
    "\u2581\uc774\ub9cc\uc369": 2745,
    "\u2581\ubca4": 2746,
    "\u2581\uc544\ub2c8\ub77c\uc608": 2747,
    "\u2581\uc0b4\uc557\uc8fc\uac8c": 2748,
    "\uac78": 2749,
    "\u2581\ud5e4\ub2e4\uac00": 2750,
    "\u2581\ub098\uac04": 2751,
    "\u2581\uc7a5\ud56d": 2752,
    "\u2581\uc78a\uc5b4\ubd88": 2753,
    "\u2581\ub450\ub8e8": 2754,
    "\u2581\u1111\u119e\u11af\uace0": 2755,
    "\u2581\uba39\uc5c4": 2756,
    "\uc5d0\uc120": 2757,
    "\u2581\ub4e4\ub974": 2758,
    "\u2581\uc8fd\uc5ec": 2759,
    "\u2581\uae30\ub984": 2760,
    "\u2581\uba69\uc9c0\ub85c": 2761,
    "\uafb8": 2762,
    "\u110a\u119e\u11af": 2763,
    "\u2581\u1106\u119e\u11af\u1100\u119e\ub808": 2764,
    "\u2581\uba39\uae30": 2765,
    "\u2581\uc9c8\ub8e8\ub294": 2766,
    "\u2581\uc090\uc601": 2767,
    "\u2581\ubc8c\uac85": 2768,
    "\u2581\uba54\uc655": 2769,
    "\u2581\uba55\uc774\uace1": 2770,
    "\ub17c": 2771,
    "\uc6cc": 2772,
    "\u2581\uc11c\ub044": 2773,
    "\u2581\uc813\uc5c9": 2774,
    "\u2581\uace0\uc131": 2775,
    "\u2581\u1100\u119e\ub9cc\uc774": 2776,
    "\u2581\uacbd\ud5c8\uc601": 2777,
    "\u2581\ubca0\uc124": 2778,
    "\u2581\uc19f\ub514": 2779,
    "\u2581\ub530\ub77c\uc11c": 2780,
    "\u2581\uac00\uae30": 2781,
    "\ub294\uc9c0": 2782,
    "\ud5c8\ubbc4": 2783,
    "\u2581\u1109\u119e\u11b1\uc544\uadfc\uc5d0": 2784,
    "\u2581\ud5c8\uba74\uc11c": 2785,
    "\u2581\ud55c\uc2dd": 2786,
    "\u2581\uc9c8\ub808": 2787,
    "\u2581\ub3d9\uae00\ub791": 2788,
    "\u2581\uc774\uc218\uac8c": 2789,
    "\u2581\uc1a1\ud39c": 2790,
    "\u2581\ub0a9": 2791,
    "\u2581\ud558\ub974\ubc84\uc9c0": 2792,
    "\u2581\ube44\uc601": 2793,
    "\u2581\ub370\uaef4": 2794,
    "\u2581\u1109\u119e\uc6d4": 2795,
    "\u2581\uc544\uc9c1": 2796,
    "\u2581\ub04a\uc5b4": 2797,
    "\u2581\uace0\ucd94": 2798,
    "\u2581\uc878": 2799,
    "\u2581\uc18c\uc11c": 2800,
    "\u2581\ub9c8\ub2f9": 2801,
    "\u2581\ud5e4\ub0ab": 2802,
    "\ucacc": 2803,
    "\u2581\ud604\uc7ac": 2804,
    "\u2581\uc790\ub791\uac70\ub9ac": 2805,
    "\u2581\uc21c\ub2e4\ub9ac": 2806,
    "\u2581\uc9c8\ub8e8": 2807,
    "\u2581\uac83\ub4e4\uc774": 2808,
    "\u2581\u110e\u119e\u11bd\uc544": 2809,
    "\u2581\uc0a5\uc774": 2810,
    "\u2581\uc5f4\ub9e4": 2811,
    "\u2581\uadf8\ub518": 2812,
    "\u2581\ub370\ub294": 2813,
    "\ud0d5": 2814,
    "\u2581\uc787\uc774\ubbfc": 2815,
    "\u2581\uac10\uc81c": 2816,
    "\u2581\uc218\ud655\uc740": 2817,
    "\u2581\uc544\uc2dc": 2818,
    "\u2581\u1102\u119e": 2819,
    "\u2581\ub488\uc9c0\uace0\uae30": 2820,
    "\u2581\ubd88\uccb4": 2821,
    "\ud569\ub2c8\uae4c": 2822,
    "\u2581\ub098\uc11c": 2823,
    "\u2581\uac70\ub77c\ub9c8\uc528": 2824,
    "\u2581\uc5ec\uae30\uac00": 2825,
    "\u2581\uc0ad": 2826,
    "\u2581\ud5e4\ub098\uc2e0\ub514": 2827,
    "\ub9ac\ubbfc": 2828,
    "\u2581\uc9c8\uac8c": 2829,
    "\ub4e0\uac00": 2830,
    "\ub098\ub09c": 2831,
    "\u2581\ud56d\uc5d0": 2832,
    "\u2581\uc694\uc601": 2833,
    "\uc774\uc9c0": 2834,
    "\u2581\ud0a4\uc6b0\ub294": 2835,
    "\u2581\uc2e0\ubc1c": 2836,
    "\ub358\uac00": 2837,
    "\u2581\uc5c7\uc5b4\ubd80\ub09c": 2838,
    "\u2581\uc5c7\uc5c7": 2839,
    "\u2581\ub07c": 2840,
    "\u2581\ubcf4\uad00": 2841,
    "\u2581\ubc29\uc6b8": 2842,
    "\u2581\uc5ec\ub77c": 2843,
    "\u2581\ub3c4\uad6c": 2844,
    "\u2581\ub488\uc601": 2845,
    "\ucc98": 2846,
    "\u2581\uc624\uba74": 2847,
    "\u2581\uc774\uc12f": 2848,
    "\u2581\uc557\uc559": 2849,
    "\u2581\uc55e\uc73c\ub85c": 2850,
    "\u2581\uc88b\ub374": 2851,
    "\u2581\ud2b9\uc0b0\ubb3c": 2852,
    "\u2581\uc694\uc0cc": 2853,
    "\u2581\ucc14\ub801": 2854,
    "\u2581\u1112\u119e\u11b7\uce58": 2855,
    "\u2581\uaca8\uc6b8\uc5d0\ub294": 2856,
    "\u2581\uac85\ud5f7\uad6c\ub098": 2857,
    "\u2581\uc2dd\ucd08": 2858,
    "\u2581\uac04\uaca9": 2859,
    "\u2581\uc694\uc138": 2860,
    "\u2581\ub4e4\uc5b4\uac15": 2861,
    "\u2581\ud0c0\ub294": 2862,
    "\u2581\uc194": 2863,
    "\u2581\uaf3f": 2864,
    "\u2581\uc911\ud559\uad50": 2865,
    "\u2581\uc54c\uc9c0": 2866,
    "\u2581\ub098\ub2c8\uae4c": 2867,
    "\ub9bc": 2868,
    "\u2581\ub3fc\uc9c0": 2869,
    "\u2581\ubc00\uc5c9": 2870,
    "\u2581\ubc27\uc5d0": 2871,
    "\uc84b": 2872,
    "\ub194\uadf8\ub124": 2873,
    "\uac70\ub9ac": 2874,
    "\u2581\uac13\ub2f9": 2875,
    "\u2581\uadf8\ub54c\uc5d0": 2876,
    "\u2581\ubcb3\uaca8": 2877,
    "\u2581\ud5f7\ub374": 2878,
    "\u2581\uc544\ubc84\uc9c0\ub294": 2879,
    "\u2581\uad70": 2880,
    "\u2581\u1107\u119e": 2881,
    "\u2581\uc544\ub9c8": 2882,
    "\u2581\uc81c\uae30": 2883,
    "\u2581\ubc18\uc9c0\uae30\ubc25": 2884,
    "\ub07c\ub9ac": 2885,
    "\ub178\ub09c": 2886,
    "\u2581\uc9c0\uc9d0\uc774": 2887,
    "\uc73c\uba74\uc740": 2888,
    "\u2581\uc544\uae30\ub35c": 2889,
    "\u2581\uc0bc\ucd98\uc774": 2890,
    "\u2581\uc774\uc2dc\ub09c": 2891,
    "\u2581\ud5e4\ubd14": 2892,
    "\uac9f\ub2e4\uc608": 2893,
    "\u2581\uace8\ubaa9": 2894,
    "\u2581\ubc1b\ub294": 2895,
    "\u2581\uadf8\uac70\uc8fc": 2896,
    "\uae30\ub124": 2897,
    "\u2581\uac00\uae4c\uc6b4": 2898,
    "\u2581\uc2dc\uac04\uc774": 2899,
    "\u2581\uc678": 2900,
    "\u2581\ubcf4\uc9c0": 2901,
    "\uc54c": 2902,
    "\u2581\uc250\uc5d0": 2903,
    "\u2581\ucd08\uc11d": 2904,
    "\u2581\ub450\ub4dc\ub839": 2905,
    "\u2581\ubb3c\ud56d": 2906,
    "\u2581\uc53b\uc5b4": 2907,
    "\u2581\ub194\ub47f\ub2f9": 2908,
    "\u2581\uacc4\ub780": 2909,
    "\uc8fc\uace1": 2910,
    "\u2581\ub9cc\ub4e4\uc5b8\ub9c8\uc528": 2911,
    "\u2581\ub04c\uc601": 2912,
    "\u2581\uac70\uad6c\ub098": 2913,
    "\u2581\uc9c0\uc81c": 2914,
    "\ub044": 2915,
    "\u2581\ubb3c\ub85c": 2916,
    "\uc804\uc5d0\ub294": 2917,
    "\u2581\ub385\uae30\ub2f9": 2918,
    "\u2581\uc18c\ubb38": 2919,
    "\u2581\ubaa8\uc778": 2920,
    "\u2581\uc81c\uc8fc\uc2dc": 2921,
    "\u2581\ub2e8\uc9c0": 2922,
    "\u2581\ub5a8\uc5b4\uc9c0": 2923,
    "\ub0e5": 2924,
    "\u2581\ucc28\uc774": 2925,
    "\u2581\ub418": 2926,
    "\uce69\uc774": 2927,
    "\ub7c9": 2928,
    "\u2581\uba54\uc5ed\uad6d": 2929,
    "\u2581\ud0c4": 2930,
    "\u2581\uc791": 2931,
    "\u2581\ub194\ub450\ub294": 2932,
    "\u2581\uac70\ub77c\ub3c4": 2933,
    "\u2581\ub354\ub7ec": 2934,
    "\u2581\ubb34\uc2dc": 2935,
    "\u2581\ubcfc\ubaa9\ub9ac": 2936,
    "\u2581\ub610\ub85c": 2937,
    "\u2581\uc9c0\ubc29": 2938,
    "\u2581\ud5e4\uc8fc": 2939,
    "\u2581\uadf8\uac70\ub77c": 2940,
    "\u2581\ub057\ub098": 2941,
    "\u2581\ub098\uac00\ub294": 2942,
    "\u2581\uc804\uc758": 2943,
    "\u2581\uc800\ub141": 2944,
    "\u2581\uc0c1\ubcf5": 2945,
    "\u2581\ubd10\ub09c": 2946,
    "\u2581\ub450\uc5b4": 2947,
    "\u2581\ud615": 2948,
    "\u2581\ub46c": 2949,
    "\u2581\ud5c8\ub80c": 2950,
    "\u2581\uc871\uac8c": 2951,
    "\u2581\ucc3d\ud638\uc9c0": 2952,
    "\uc624\ubbfc": 2953,
    "\uc624\uace1": 2954,
    "\u2581\uce7c": 2955,
    "\u2581\ub9e5\uc8fc\ubcf4\ub9ac": 2956,
    "\u2581\uac71\uc815": 2957,
    "\u2581\uc810\uc2ec": 2958,
    "\u2581\ub4e4\uace0": 2959,
    "\u2581\ud53c\u110a\u119e\u11af": 2960,
    "\u2581\uc5c7\uc5b4\ub09c": 2961,
    "\u2581\u1107\u119e\u11af\ub9b4": 2962,
    "\u2581\ubd10\uc11c": 2963,
    "\u2581\uc54c\uc559": 2964,
    "\u2581\uc815\uc2dc": 2965,
    "\u2581\uada8\ub2f9": 2966,
    "\u2581\ubb38\uc5b4": 2967,
    "\u2581\uc800\ubca0\uae30": 2968,
    "\ud574\uc11c": 2969,
    "\u2581\u1109\u119e\u11b1\uc740": 2970,
    "\u2581\ud55c\ub3d9": 2971,
    "\u2581\ud2b8\uba4d\uc5d0": 2972,
    "\ud14c": 2973,
    "\ub354\ub77c\uace0": 2974,
    "\u2581\uc808\ub85c": 2975,
    "\u2581\uacbd\ud5e4\ub09c": 2976,
    "\u2581\uc774\ub514\ub3c4": 2977,
    "\u2581\uac8c\ubb38": 2978,
    "\u2581\ub355": 2979,
    "\u2581\ub0a8\uc790\uac00": 2980,
    "\u2581\ub9dd": 2981,
    "\u2581\uad6d\ubb3c": 2982,
    "\u2581\ub057\uc5b4": 2983,
    "\uc8fc\ub294": 2984,
    "\ub838": 2985,
    "\u2581\uc18c\uace0\uae30": 2986,
    "\u2581\ucc44\uc18c": 2987,
    "\u2581\uc77c\ubc18": 2988,
    "\u2581\ucef9": 2989,
    "\u2581\uc77c\ub984\uc774": 2990,
    "\u2581\ub3d9\ub124\uc11c": 2991,
    "\u2581\ub385\uae30\uace1": 2992,
    "\u2581\ud0c0\uace0": 2993,
    "\u2581\uc785\uc744": 2994,
    "\u2581\uc544\ub35c\uc774": 2995,
    "\u2581\uc790\uadc0": 2996,
    "\u2581\uc9c8\uc5b4": 2997,
    "\u2581\uad11\ubaa9\uc740": 2998,
    "\ud53c": 2999,
    "\u2581\uc7ac\uae30": 3000,
    "\u2581\uad6d\uc740": 3001,
    "\u2581\uc904\uc740": 3002,
    "\u2581\ub118\uc5b4\uac00": 3003,
    "\u2581\uc14d": 3004,
    "\u2581\uc5ec\uc790\ub35c": 3005,
    "\u2581\uacbd\ud5c8\uace1": 3006,
    "\u2581\uc190\uc5d0": 3007,
    "\u2581\uc0ac\ub984\uc73c\ub85c": 3008,
    "\u2581\ubd80\uc9c0": 3009,
    "\u2581\uc0b4\uc557\uc8fc": 3010,
    "\uc5c8": 3011,
    "\u2581\uad6c\uc6cc": 3012,
    "\u2581\uc885\ub958\uc5d0\ub294": 3013,
    "\u2581\uc544\ub2c8\uc608": 3014,
    "\u2581\uc5ec\uc800": 3015,
    "\uac9f\ub2e4": 3016,
    "\u2581\ud5e4\ub1a9": 3017,
    "\u2581\ubc25\ud5e4": 3018,
    "\u2581\uae01\uc5b4": 3019,
    "\uce69": 3020,
    "\u1101\u119e": 3021,
    "\u2581\ud0dd\uc77c": 3022,
    "\u2581\uc624\ub110": 3023,
    "\u2581\u1109\u119e\u11af\uc624\ub9ac": 3024,
    "\u2581\ubc18\uc9c0\uae30": 3025,
    "\u2581\uc774\ube68": 3026,
    "\u2581\ubc8c\ub808": 3027,
    "\u2581\ubaa8\uc885": 3028,
    "\u2581\uc6e8\uc815": 3029,
    "\uc11d": 3030,
    "\u2581\ud0c8": 3031,
    "\u2581\uccad\uc8fc": 3032,
    "\u2581\uba39\uc5c7\uc218\ub2e4": 3033,
    "\u2581\uc554": 3034,
    "\u2581\ub194\uc0ac": 3035,
    "\u2581\uc9f1": 3036,
    "\u2581\ud06c\ubbfc": 3037,
    "\u2581\ubcf4\ub9ac\ub85c": 3038,
    "\u2581\uac15\uc528": 3039,
    "\u2581\uba39\uc5b4\ubcf4": 3040,
    "\u2581\ubd05\uc11c": 3041,
    "\ud5f7\uc5b4": 3042,
    "\u2581\uc124\uc0ac": 3043,
    "\u2581\uc5ec\ub984\uc5d4": 3044,
    "\u2581\ub9c8\uc9c0\ub9c9": 3045,
    "\u2581\ud5f4": 3046,
    "\u2581\ube44\uc5c9": 3047,
    "\u2581\ud48d\uc2b5": 3048,
    "\u2581\ub2e8\uc624": 3049,
    "\u2581\uae38\uac8c": 3050,
    "\u2581\uac78\ub984\uc774": 3051,
    "\u2581\uc7a5\uc544\ucc0c": 3052,
    "\ub46c": 3053,
    "\u2581\u1108\u119e\u11af\uc544": 3054,
    "\u2581\uce5c\uc815": 3055,
    "\ub825": 3056,
    "\uad00": 3057,
    "\u2581\ub488\ub294\ub514": 3058,
    "\ubaa8": 3059,
    "\u2581\uc2dc\uc5b4\uba4d": 3060,
    "\ud600": 3061,
    "\u2581\uc5c7\uc9c0": 3062,
    "\ucfe0\ub2e4": 3063,
    "\u2581\uc81c\ub77c": 3064,
    "\u2581\ub188\uc774": 3065,
    "\u2581\ubc88\ub9cc": 3066,
    "\u2581\ub4b7": 3067,
    "\ub054": 3068,
    "\u2581\uac00\uc871": 3069,
    "\u2581\ubc45\ubc45": 3070,
    "\u2581\ubc84\ubb34\ub839": 3071,
    "\u2581\uac00\ubb38\uc794\uce58": 3072,
    "\u2581\ubab0\ub974\ud06c\ub77c": 3073,
    "\u2581\ud39c": 3074,
    "\u2581\uc704\ud5e4\uc11c": 3075,
    "\u2581\ubb18\uc81c": 3076,
    "\uc774\uc6b0\ub2e4": 3077,
    "\u2581\uc591\ucabd\uc73c\ub85c": 3078,
    "\u2581\ud0a4": 3079,
    "\u2581\uc5b4\uba4d\uc774": 3080,
    "\u2581\ud5c8\uc9c0\uc608": 3081,
    "\u2581\uc624\ub204\uc774": 3082,
    "\uba39": 3083,
    "\u2581\uc131\uc81c": 3084,
    "\u2581\uac20": 3085,
    "\u2581\ub180\ub808": 3086,
    "\u2581\uc62c\ub9ac\uace1": 3087,
    "\u2581\uc5ec\uc12f": 3088,
    "\u2581\uac70\ub9ac": 3089,
    "\u2581\ub0a8\u110c\u119e": 3090,
    "\u2581\uac81": 3091,
    "\uc624\ub984": 3092,
    "\u2581\uc7a1\uace1": 3093,
    "\ub140": 3094,
    "\u2581\uc0ac\uc2ed": 3095,
    "\u2581\uc62c\ub77c\uc640": 3096,
    "\u2581\ub48c\uc7a5\uc5d0": 3097,
    "\ud5c8\uc8fc": 3098,
    "\u2581\u1104\u119e\u11af\uc774": 3099,
    "\u2581\uc138\uc0c1\uc5d0": 3100,
    "\u2581\uac8c\ub09c\uc5d0": 3101,
    "\u2581\ub193\uc820": 3102,
    "\u2581\ud480\uc5b4": 3103,
    "\u2581\ub9d0\uc774\ub77c": 3104,
    "\u2581\uc885\uc9c0": 3105,
    "\uc900": 3106,
    "\u2581\ucabc\uadf8\ub9cc": 3107,
    "\u2581\ud574\uc57c": 3108,
    "\u2581\u1107\u119e\u11b2": 3109,
    "\u2581\uadf8\ub188": 3110,
    "\u2581\uc801\uc5d0\ub294": 3111,
    "\u2581\ud5c8\uc601\uc740\uc5d0": 3112,
    "\u2581\ubb34\uc2e0\uac70\ub77c": 3113,
    "\ucc29": 3114,
    "\uc2dd\uc73c\ub85c": 3115,
    "\u2581\uc5ec\ubb3c": 3116,
    "\u2581\uace0\uae09": 3117,
    "\ub514\ub2e4": 3118,
    "\u2581\uc774\uc6a9": 3119,
    "\uc5fc": 3120,
    "\u2581\u1103\u119e\u11b7": 3121,
    "\ud654": 3122,
    "\u2581\ubd80\ub9ac": 3123,
    "\u2581\uc5ed": 3124,
    "\uac78\ub85c": 3125,
    "\u2581\uc54a\uc544": 3126,
    "\u2581\uc740\uc808\ubbf8": 3127,
    "\u2581\ubaa9\ud654": 3128,
    "\u2581\u1106\u119e\uc791": 3129,
    "\uc813": 3130,
    "\uc250": 3131,
    "\u2581\uba39\uc5c7\uc5b4": 3132,
    "\u2581\uc548\ud0dd": 3133,
    "\u2581\ubbf8\ub155\uc740": 3134,
    "\u2581\uc0dd\ud65c": 3135,
    "\u2581\ub420": 3136,
    "\u2581\uae40\uc528": 3137,
    "\u2581\u1111\u119e\u11af\ub808": 3138,
    "\u2581\uc8fd\uc5c7": 3139,
    "\u2581\ubcf4\ud1b5\uc73c\ub85c": 3140,
    "\u2581\ubcf4\uae4c": 3141,
    "\u2581\u110c\u119e\u11ab\u110c\u119e\u11ab": 3142,
    "\ubcd1": 3143,
    "\uc624\uace0": 3144,
    "\u2581\ub0b4\ub824": 3145,
    "\ub9ac\uace0": 3146,
    "\uac70\ub77c": 3147,
    "\u2581\ub9db\uc88b": 3148,
    "\uc218\ub2e4\uac8c": 3149,
    "\u2581\ubd88\ub9ac": 3150,
    "\u2581\uadf8\ub2e4\uc74c\uc740": 3151,
    "\u2581\ud5c8\uac70\ub4e0": 3152,
    "\u2581\ud31f": 3153,
    "\u2581\ub3d9\ub124\uc5d0": 3154,
    "\u2581\uac80": 3155,
    "\u2581\ucbe4": 3156,
    "\u2581\uac00\uc8fc": 3157,
    "\uc2e0\uace0": 3158,
    "\u2581\uc369": 3159,
    "\u2581\ubd80\uc0b0": 3160,
    "\u2581\uac00\uc8fd": 3161,
    "\u2581\uc7a5\ub09c": 3162,
    "\u2581\ud558\uace1": 3163,
    "\ubc18": 3164,
    "\u2581\u1109\u119e\u11af\uc544": 3165,
    "\u2581\uc0ac\ub985": 3166,
    "\u2581\uaf2c\uc544": 3167,
    "\u2581\ubc88\uc740": 3168,
    "\u2581\uc881\u110a\u119e\u11af\ub85c": 3169,
    "\u2581\uc0ac\uc6a9": 3170,
    "\u2581\ubb3c\ub5a1": 3171,
    "\u2581\uc54c\uc8fc": 3172,
    "\u2581\u1100\u119e\uc2a4\ub77d": 3173,
    "\u2581\uc11c\uc6b8": 3174,
    "\u2581\ubc31\uc911": 3175,
    "\uc2e0\uac00\ub9c8\uc528": 3176,
    "\ub098\uc9c0": 3177,
    "\u2581\ud558\ub098\ub3c4": 3178,
    "\uc831": 3179,
    "\u2581\ub3d9\ub124\ub294": 3180,
    "\u2581\ud33d\uc774": 3181,
    "\u2581\uac70\uae30\ub294": 3182,
    "\u2581\ub9de\ub294": 3183,
    "\u2581\ubab8\uc5d0": 3184,
    "\u2581\ubc14\ub290\uc9c8": 3185,
    "\u2581\ubc99\ub385\uc774": 3186,
    "\u2581\ubaa8\ubbc8": 3187,
    "\u2581\uace0\ubb34\uc637": 3188,
    "\u2581\ud64d\uc138": 3189,
    "\u2581\uac08\uc911\uc758": 3190,
    "\u2581\uc0b0\ub4f8\ucc0d": 3191,
    "\u2581\uac00\uba54": 3192,
    "\u2581\ub3d9\uc804": 3193,
    "\u2581\uace0\uc18c\ub9ac": 3194,
    "\ud6fc": 3195,
    "\u2581\ud55c\ub9bc": 3196,
    "\u2581\ud5e4\ubcf4": 3197,
    "\u2581\ub9d0\uc774\uc8fc": 3198,
    "\u2581\uc606\uc73c\ub85c": 3199,
    "\uc190": 3200,
    "\uc774\ub124": 3201,
    "\u2581\uc5b4\uba38\ub2c8\ub124": 3202,
    "\u2581\ubca0\ud074": 3203,
    "\u2581\ud30c\ub2c8": 3204,
    "\u2581\uc0c9\uae54\uc774": 3205,
    "\u2581\ubaa8\ubb3c": 3206,
    "\u2581\ud560\uba38\ub2c8\ub124": 3207,
    "\ud0c0": 3208,
    "\u2581\uadf8\uac83\u1100\u119e\ub77c": 3209,
    "\ub4fc": 3210,
    "\u2581\ub4e4\uc5b8": 3211,
    "\u2581\uce90": 3212,
    "\u2581\uc3d8": 3213,
    "\ub178\ubbfc": 3214,
    "\u2581\ud5c8\ub290\ub0d0": 3215,
    "\u2581\ub54c\uace0": 3216,
    "\u2581\uac08\ub791": 3217,
    "\u2581\uc0c1\uac15": 3218,
    "\uba69": 3219,
    "\u2581\ud3ed\ub3c4": 3220,
    "\u2581\uac00\uc9c0\ub77c": 3221,
    "\u2581\uc124\uae30\ub5a1": 3222,
    "\u2581\uc787\uc73c\uba74": 3223,
    "\u2581\ub098\uc8fc\uac8c": 3224,
    "\u2581\ud06c\uba74": 3225,
    "\u2581\ubc14\ub2e4": 3226,
    "\uc548\ud14c": 3227,
    "\ub4dc": 3228,
    "\u2581\uc787\uc5b4\ub09c": 3229,
    "\uc8fc\ubbfc": 3230,
    "\u2581\ub3cc\uc544\uc624": 3231,
    "\u2581\uc2f8\ub294": 3232,
    "\uc5ed": 3233,
    "\ub974\ubbfc": 3234,
    "\u2581\uaf43": 3235,
    "\ub460\uc11c": 3236,
    "\u2581\ucabc\uaf3c": 3237,
    "\u2581\uc554\ucc3d\uac1c": 3238,
    "\u2581\uae08\uc2b9": 3239,
    "\u2581\uc0c8\ubbf8\ub5a1": 3240,
    "\u2581\ub300\ubd80\ubd84": 3241,
    "\u2581\uc774\ubb38\uac04": 3242,
    "\u2581\uc624\uba54\uae30\ub5a1": 3243,
    "\u2581\uac00\uadfc\uc5e5": 3244,
    "\u2581\u1109\u119e\ub808\uae30": 3245,
    "\u2581\uad00\ub488": 3246,
    "\u2581\uc2dc\ub8e8\ub5a1": 3247,
    "\u2581\ud76c": 3248,
    "\u2581\uc624\uc8fd": 3249,
    "\u2581\uc5b4\uc6b1": 3250,
    "\u2581\uba85\uce6d": 3251,
    "\u2581\uc798\uc0ac\ub294": 3252,
    "\u2581\uae08\uae30": 3253,
    "\u2581\ub4e4\uc5b4\uac08": 3254,
    "\u2581\ucd08\ub4f1\ud559\uad50": 3255,
    "\ub193\uace1": 3256,
    "\u2581\ub2ee": 3257,
    "\u2581\ub0a8\ubc29\uc5d0": 3258,
    "\u2581\uc0b4\uc820": 3259,
    "\uc2dc\ubbc4": 3260,
    "\u2581\uacbd\uc6b0\ub294": 3261,
    "\uac00\uba74\uc740": 3262,
    "\u2581\ubcd1": 3263,
    "\u2581\ub098\uae30": 3264,
    "\u2581\uace0\uc801": 3265,
    "\u2581\uba58\ub4e4\uace0": 3266,
    "\u2581\uba54\uae30": 3267,
    "\u2581\u1106\u119e\uc74c": 3268,
    "\u2581\ubb50\uc5ec": 3269,
    "\u2581\ud5e4\ubcf4\uace0": 3270,
    "\u2581\ub18d": 3271,
    "\u2581\uc9c0\uc5c7": 3272,
    "\u2581\ub0b4\ucc3d": 3273,
    "\ud5e4\uc0ac": 3274,
    "\u2581\ubaa8\ub974": 3275,
    "\uc0ac\uc8fc": 3276,
    "\u2581\uc624\ub298\uc740": 3277,
    "\u2581\ubaa8\uc695": 3278,
    "\u2581\ud5f7\uace0": 3279,
    "\u2581\uc5b4\uba38\ub2c8\ub294": 3280,
    "\u2581\uc8fc\uc778": 3281,
    "\u2581\ud558\ub974\ubc29\uc740": 3282,
    "\u2581\uc120\uc0dd": 3283,
    "\u2581\uac89\ubcf4\ub9ac": 3284,
    "\u2581\uc0ad\ub2e4\ub9ac": 3285,
    "\u2581\uadc0\ud074": 3286,
    "\u2581\uae30\uc640\uc9d1": 3287,
    "\u1100\u119e\ub8e8": 3288,
    "\u2581\uc9da\uc2e0": 3289,
    "\u2581\u110e\u119e\u11b7\uc9c0\ub984": 3290,
    "\u2581\uc77c\ub4f1": 3291,
    "\u2581\ub300\ud589": 3292,
    "\u2581\uc2e0\uc774": 3293,
    "\u2581\ub728": 3294,
    "\u2581\ubc29\uc5d0\uc5d0": 3295,
    "\u2581\ub099\uc9c0": 3296,
    "\u2581\ubc8c\ub7ec": 3297,
    "\ud2c0": 3298,
    "\u2581\u110d\u119e\u11af\ub974": 3299,
    "\u2581\uc18c\ub85c": 3300,
    "\u2581\uad6d\uc8fd": 3301,
    "\u2581\uc9c0\uc84d": 3302,
    "\u2581\ub0b4\ubd88\uc5b4": 3303,
    "\u2581\uc9d3\uc5c9": 3304,
    "\u2581\uae38\uc774": 3305,
    "\u2581\uacbd\ud5c8\ub2e8": 3306,
    "\u2581\ud14c\uc6b0\ub9ac": 3307,
    "\u2581\ubc8c\uc5b4": 3308,
    "\u2581\uad6d\ubbfc\ud559\uad50": 3309,
    "\u2581\ub178\ub9ac": 3310,
    "\u2581\uc0dd\uac01\ub098": 3311,
    "\u2581\u1106\u119e\u11af\uc559": 3312,
    "\u2581\uc5c7\uc778\ub514": 3313,
    "\u2581\uc270": 3314,
    "\u2581\ubc14\ub78c": 3315,
    "\u2581\ud5c8\ubb3c": 3316,
    "\u2581\ub194\ub450\uba74\uc740": 3317,
    "\u2581\uacfc": 3318,
    "\u2581\ub9c8\ub2f9\uc5d0\uc11c": 3319,
    "\u2581\ubc88\uc529": 3320,
    "\u2581\uc5b4\ub5b5\ud5c8\uc5ec": 3321,
    "\u2581\ub2f4\uc544\uadfc\uc5d0": 3322,
    "\u2581\ub098\uc624\uc9c0": 3323,
    "\ub0ab\uc9c0": 3324,
    "\u2581\uc0c9": 3325,
    "\u2581\uc557\ub2f9": 3326,
    "\ubd10": 3327,
    "\u2581\ubcf4\uae30": 3328,
    "\u2581\uc464": 3329,
    "\u2581\uc0ac\ub454": 3330,
    "\uc2ed": 3331,
    "\u2581\ucc0d\uc2e0": 3332,
    "\u2581\ud5e4\ubd88\ubbfc": 3333,
    "\ud5d8": 3334,
    "\u2581\ucc9c\ub9ac": 3335,
    "\u2581\uacbd\ud5c8\uba74": 3336,
    "\u2581\ubc27\ub514\uc11c": 3337,
    "\u2581\u1100\u119e\u11af\uc544\ub2f9": 3338,
    "\uc0dd": 3339,
    "\u2581\uc9c0\ub098": 3340,
    "\uce58\uae30": 3341,
    "\u2581\uc548\ud5d9\ub2c8\uae4c": 3342,
    "\u2581\uc0ac\ub2e8": 3343,
    "\u2581\u1106\u119e\uc26c": 3344,
    "\u2581\uc775\uc740": 3345,
    "\u2581\ub0ad\ub3c4": 3346,
    "\u2581\ub385\uae38": 3347,
    "\u2581\u110b\u119e\u110b\u119e": 3348,
    "\u2581\ubc14\uafb8": 3349,
    "\u1109\u119e": 3350,
    "\ubd14": 3351,
    "\u2581\ub098\ub985": 3352,
    "\uc774\uc57c": 3353,
    "\u2581\uc870\ub054": 3354,
    "\u2581\uad11": 3355,
    "\u2581\ub530\ub791": 3356,
    "\ud5c8\ub808": 3357,
    "\u2581\uba58\ub4e4\uc820": 3358,
    "\u2581\uc11c\uc774": 3359,
    "\u2581\uafc0": 3360,
    "\u2581\uac78\ub9ac": 3361,
    "\uc810": 3362,
    "\u2581\ucabc": 3363,
    "\u2581\u110a\u119e\u11af\ub3c4": 3364,
    "\ub3c8": 3365,
    "\ub824\uadfc\uc5d0": 3366,
    "\u2581\ub2e4\ub140": 3367,
    "\u2581\ub0ad\uc740": 3368,
    "\u2581\ucf69\uc73c\ub85c": 3369,
    "\ud5c8\ub294\ub514": 3370,
    "\u2581\ub0a8\uc544": 3371,
    "\ud5e4\uac00\uc9c0\uace0": 3372,
    "\u2581\ucc98\uc74c\uc5d0\ub294": 3373,
    "\u2581\ub098\uac8c": 3374,
    "\u2581\ub0b4\ubd88": 3375,
    "\u2581\uac15\uc815": 3376,
    "\u2581\uc81c\uc11c": 3377,
    "\ub78f": 3378,
    "\u2581\ub488\ub294\ub370": 3379,
    "\u2581\ubb34\uc2dc\uac70\uc5ec": 3380,
    "\u2581\ud558\ub974\ubc29\ub35c": 3381,
    "\u2581\ubd09": 3382,
    "\u2581\uc544\ubc29\uc774": 3383,
    "\ub2d8": 3384,
    "\u2581\uc5b4\ub978\ub35c\uc740": 3385,
    "\ud5c8\uae30": 3386,
    "\u2581\u1104\u119e\u11af\ub77c": 3387,
    "\u2581\uac00\ub8e8": 3388,
    "\u1103\u119e\u11af": 3389,
    "\u2581\ubc95": 3390,
    "\u2581\uc870\ub9ac": 3391,
    "\u2581\uba39\uc74c": 3392,
    "\u2581\ub3cc\uc744": 3393,
    "\ubcf4\ub09c": 3394,
    "\ubcf8": 3395,
    "\u2581\ubd80\ucc0c": 3396,
    "\u2581\ub299\uc740": 3397,
    "\u2581\ub499\ub2c8\uae4c": 3398,
    "\u2581\ubab8\ubeec": 3399,
    "\u2581\uad6c\ub974\ub9c8": 3400,
    "\u2581\uc2f1\uac85": 3401,
    "\u2581\ubc27\uac08\uc250": 3402,
    "\u2581\u110d\u119e\u11af\ub978": 3403,
    "\u2581\u1106\u119e\u11af\ub958\uc655": 3404,
    "\u2581\ubab0\ub974\ucf1c": 3405,
    "\u2581\uc0c1\ub4a4": 3406,
    "\u2581\ub300\ucda9": 3407,
    "\u2581\uc787\uc73c\ub2c8\uae4c": 3408,
    "\u2581\u1106\u119e\u11af\ub9ac": 3409,
    "\uc544\uadfc\uc5d0": 3410,
    "\u2581\uc870\ucc9c": 3411,
    "\u2581\uac01\uc2dc": 3412,
    "\u2581\uc694\ub9cc\ud5cc": 3413,
    "\u2581\ubcbd": 3414,
    "\u2581\uc2dc\ub9ac\uc5d0": 3415,
    "\u2581\uc7a5\uc774": 3416,
    "\ub178\ub2c8\uae4c": 3417,
    "\u2581\ubaa8\uc0b4": 3418,
    "\u2581\uc0ac\ub984\uc744": 3419,
    "\u2581\ub0b4\ub294": 3420,
    "\ud5e4\uc5ec\uadfc\uc5d0": 3421,
    "\u2581\ub54c\uc5d4": 3422,
    "\u2581\uba39\uc5c7\uc218\uacfc": 3423,
    "\ub458": 3424,
    "\u2581\ud30c\uc885": 3425,
    "\uc218\uaf48": 3426,
    "\u2581\uc544\ud321": 3427,
    "\u2581\uc90f\uc5b4": 3428,
    "\uc911": 3429,
    "\u2581\uc774\uc11c\uc774": 3430,
    "\u2581\uc5c5": 3431,
    "\uc368": 3432,
    "\u2581\ub9d0\uc774\uc57c": 3433,
    "\u2581\uc131\uc5d0": 3434,
    "\u2581\ub41c": 3435,
    "\u2581\ub3cc\uc774": 3436,
    "\u2581\ub098\uadfc\uc5d0": 3437,
    "\u2581\uce5c\uad6c": 3438,
    "\u2581\uc90d": 3439,
    "\u2581\uc694\ub808": 3440,
    "\u2581\uc870\ub984\uc5d0": 3441,
    "\u2581\ub9d0\ud5c8\ub294": 3442,
    "\u2581\uac00\ub2f9": 3443,
    "\u2581\ubc14\uc6b0": 3444,
    "\u2581\ud06c\uae30": 3445,
    "\u2581\ud558\ub8e8": 3446,
    "\u2581\uc7ac\ub8cc": 3447,
    "\ud5cc\ub374": 3448,
    "\u2581\ud5e4\ub2e4": 3449,
    "\u2581\uc8fc\ucda7\ub3cc": 3450,
    "\u2581\uadc0\uc2e0": 3451,
    "\u2581\uc131\ubcf5": 3452,
    "\u2581\uc934": 3453,
    "\u2581\uc0c1\uc2dd": 3454,
    "\u2581\uad6c\uacbd": 3455,
    "\u2581\uce5c\uc815\uc5d0": 3456,
    "\u2581\uc0ac\uc624": 3457,
    "\u2581\uc124\ub7ec": 3458,
    "\ub0a0\uc740": 3459,
    "\u2581\uac1c\ub85c": 3460,
    "\u2581\uadf8\ub4f8": 3461,
    "\u2581\uc694\ub9cc": 3462,
    "\ub88d": 3463,
    "\u2581\uc77c\uc5b4": 3464,
    "\u2581\uc787\ub2e4": 3465,
    "\u2581\uc5f0\uae30": 3466,
    "\u2581\uacbd\u1112\u119e\uace1": 3467,
    "\u2581\uc0dd\uae30": 3468,
    "\u2581\uace0\ub4f1\uc5b4": 3469,
    "\u2581\ubb36\uc5b4": 3470,
    "\u2581\ucf69\uc8fc\ub984": 3471,
    "\u2581\uc8fc\uc831\uc774": 3472,
    "\u2581\uc815\uc2ec": 3473,
    "\u2581\u1106\u119e\u11af\ucd1d": 3474,
    "\u2581\ub9db\uc88b\uc544": 3475,
    "\u2581\uc774\ub9ac": 3476,
    "\u2581\uac10\uc800\uafc0": 3477,
    "\u2581\ub290\ub124": 3478,
    "\u2581\uacfc\uc9c8": 3479,
    "\u2581\ub3c4\uaed8\uc9c8": 3480,
    "\u2581\ucc45": 3481,
    "\u2581\ub370\ud5e4\uc11c": 3482,
    "\u2581\ub3d7\ud1b5\uc5d0": 3483,
    "\u2581\u1109\u119e\u11b1\uc73c\ubbfc": 3484,
    "\u2581\uc11c\uaebc\uadfc\uc5d0": 3485,
    "\u2581\uac10\ubb3c": 3486,
    "\u2581\ud5e4\uc601\ucf00": 3487,
    "\u2581\uc7a5\ubb3c\uc5d0": 3488,
    "\uc554": 3489,
    "\u2581\uc138\ubd88": 3490,
    "\u2581\ucc3d\uace0": 3491,
    "\u2581\uc881\u110a\u119e\u11af\uc5d0": 3492,
    "\u2581\uc774\ub514\uc120": 3493,
    "\u2581\u1100\u119e\u11af\uc557": 3494,
    "\u2581\ubb3c\ud321": 3495,
    "\ud560\ub9dd": 3496,
    "\u2581\uc62c\ub77c\uac00\ub294": 3497,
    "\u2581\ub2e5\ub2e5": 3498,
    "\ubcf4\ubbfc": 3499,
    "\u2581\ub1a7": 3500,
    "\u2581\uc5c7\uc774\ub2c8\uae4c": 3501,
    "\uc918\uc57c": 3502,
    "\u2581\uadf8\ucc28": 3503,
    "\u2581\uc7a5\uc2dc": 3504,
    "\u2581\uc900": 3505,
    "\ub385": 3506,
    "\u2581\uac1c\ub098": 3507,
    "\ucd95": 3508,
    "\u2581\ud669": 3509,
    "\u2581\uac00\uc9c4": 3510,
    "\ub7f0": 3511,
    "\uc5c7\ub358": 3512,
    "\u2581\uc798\ud5c8\ub294": 3513,
    "\u2581\ud569": 3514,
    "\u2581\uc7a5\uc9c0": 3515,
    "\ub837": 3516,
    "\u2581\uc624\ub80c": 3517,
    "\ub044\ub294": 3518,
    "\u2581\uc790\ub77c": 3519,
    "\u2581\ud53c\ubc25": 3520,
    "\u2581\u110b\u11a2\u11af": 3521,
    "\u2581\ubca0\ud2c0": 3522,
    "\u2581\ubd80\uc815": 3523,
    "\u2581\uc090\uc5b4": 3524,
    "\u2581\uc7a1\uc544\uba39\ub294": 3525,
    "\u2581\ub0a8\uc790\ub35c": 3526,
    "\uc785": 3527,
    "\u2581\ubc18\ucc2c\uc774": 3528,
    "\u2581\uac00\uc0ac": 3529,
    "\u2581\uc0ac\ub984\uc774\ub098": 3530,
    "\uc5c7": 3531,
    "\u2581\ub179\ub514": 3532,
    "\u2581\ub9e4\ub294": 3533,
    "\u2581\uc5b4\ub5b5\ud5e4": 3534,
    "\u2581\ub9c8\uaed8": 3535,
    "\u2581\uc55e\uc758": 3536,
    "\u2581\ubaa8\u1106\u119e\u11af\u110f\u119e\ub8e8": 3537,
    "\u2581\uc554\uc250": 3538,
    "\u2581\ubd80\uca99": 3539,
    "\u2581\ub300\uc811": 3540,
    "\u2581\u1108\u119e\u11af\uc559": 3541,
    "\u2581\uc790\ub9ac\ud6fc": 3542,
    "\u2581\uc784\uc2dc": 3543,
    "\u2581\uace0\ub465": 3544,
    "\u2581\uc26c\uc6b4": 3545,
    "\u2581\ubb34\uc6b0": 3546,
    "\u2581\ub48c\uc7a5\uad6d": 3547,
    "\u2581\uc0bc\uc544": 3548,
    "\u2581\uc774\uc57c\uae30": 3549,
    "\u2581\uccc7": 3550,
    "\u2581\uc787\uc9c0\uc608": 3551,
    "\u2581\uc871\uc544": 3552,
    "\u2581\ub098\uba38\uc9c0": 3553,
    "\u2581\ubb34\uc2dc\uac83": 3554,
    "\uc2dc\ub0d0": 3555,
    "\u2581\uc9c0\uace0": 3556,
    "\u2581\u1106\u119e\u11af\ub974\ubbfc": 3557,
    "\ub0ab\uc218\uac00": 3558,
    "\u2581\ub54c\uae4c\uc9c0": 3559,
    "\u2581\ub193\uba4d": 3560,
    "\u2581\uaca8\ubbfc": 3561,
    "\u2581\uc74c\ub825\uc73c\ub85c": 3562,
    "\u2581\u1111\u119e\u11ba\uc8fd\uc740": 3563,
    "\uc0c9": 3564,
    "\u2581\u1100\u119e\u11ae\uace0": 3565,
    "\u2581\ucf00": 3566,
    "\ub098\ubb34": 3567,
    "\ub545": 3568,
    "\ub178": 3569,
    "\u2581\ub9d0\ud574\ubd05": 3570,
    "\u2581\ud06c\uace0": 3571,
    "\u2581\uc694\uc0c8\ub294": 3572,
    "\u2581\u1109\u119e\uc8fc": 3573,
    "\u2581\uc8fd\uc5c9": 3574,
    "\u2581\ubd80\ubaa8": 3575,
    "\u2581\uac70\ubbfc": 3576,
    "\u2581\ub538\ub824": 3577,
    "\u2581\ud070\ubc29": 3578,
    "\ub46c\uadfc\uc5d0": 3579,
    "\u2581\uba39\uc74d": 3580,
    "\u2581\ub450\ub4dc\ub9ac\ub294": 3581,
    "\uce58\ub8e9": 3582,
    "\u2581\uc81c\uc8fc\ub3c4\uc5d0": 3583,
    "\u2581\uc131\ubcf5\uc81c": 3584,
    "\u2581\ub4e4\uc5b4\uac00\uc9c0": 3585,
    "\u2581\uc7a5\uc0ac": 3586,
    "\u2581\uc138\ubbf8\ub5a1": 3587,
    "\u2581\u1110\u119e\ub098": 3588,
    "\u2581\u1111\u119e\u11ba\ubc25": 3589,
    "\u2581\ud640\ud0c0": 3590,
    "\u2581\uace4\uc370": 3591,
    "\ub385\uc774": 3592,
    "\u2581\uc7a5\uc740": 3593,
    "\uc9c0\uc8fc\uac8c": 3594,
    "\uc75c": 3595,
    "\u2581\uba39\ub2f9": 3596,
    "\u2581\ub05d\ub098": 3597,
    "\u2581\u1107\u119e\u11b2\uc544": 3598,
    "\u2581\ub458\ub7ec": 3599,
    "\u2581\ubd23\uc8fc": 3600,
    "\ubd88\uba74\uc740": 3601,
    "\u2581\uac00\uac00\uc9c0\uace0": 3602,
    "\u2581\u1104\u119e\u11af\uc740": 3603,
    "\u2581\ubaa8\uc2ac\ud3ec": 3604,
    "\u2581\uc54c\uace0": 3605,
    "\uc637": 3606,
    "\uc0e4": 3607,
    "\u2581\ubcc4\ub3c4\ub85c": 3608,
    "\u2581\uc123\u1103\u119e\u11af": 3609,
    "\u2581\uc2dc\uc5b4\uba38\ub2c8": 3610,
    "\u2581\ubf55\ub3cc": 3611,
    "\u2581\uae00\uaca1\uc774": 3612,
    "\u2581\ud1a0\uc885": 3613,
    "\u2581\uad6c\uc6e1": 3614,
    "\u2581\ube57\ucc3d": 3615,
    "\u2581\uc2e0\ub294": 3616,
    "\u2581\uc5b4\ub824\uc6b4": 3617,
    "\u2581\u1106\u119e\ub978": 3618,
    "\u2581\uc250\uac78\ub984": 3619,
    "\u2581\uc6c3\uc74c": 3620,
    "\u2581\ud264\uae30": 3621,
    "\u2581\uc870\ucc0d": 3622,
    "\ud2b8": 3623,
    "\ud5cc\ub2e4": 3624,
    "\u2581\u1112\u119e\uc5f0\uc5d0": 3625,
    "\u2581\uc0dd\uae34": 3626,
    "\ub54c": 3627,
    "\u2581\u1108\u119e\u11ba\uc544": 3628,
    "\u2581\ub9de\uc218\ub2e4\uac8c": 3629,
    "\u2581\uadf8\ub987\uc5d0": 3630,
    "\u2581\uac08\uc557": 3631,
    "\u2581\uacf1\uc544": 3632,
    "\u2581\ub5a1\uad6d": 3633,
    "\u2581\uc0b4\uace1": 3634,
    "\u2581\uc18c\uac1c": 3635,
    "\u2581\ubb3c\ud1b5": 3636,
    "\u2581\u1100\u119e\ub8f0": 3637,
    "\u2581\ub057\uc5c9": 3638,
    "\u2581\ub9d0\uc774\uc6b0\ub2e4": 3639,
    "\u2581\uac16\ub2e4": 3640,
    "\u2581\ub4e4\uc5b4\uac13": 3641,
    "\u2581\uc370\uc5b4\uadfc\uc5d0": 3642,
    "\u2581\ub4dc\ub9ac": 3643,
    "\u2581\ub54c\uc5d0\ub294": 3644,
    "\u1106\u119e\u11af": 3645,
    "\ub2e4\ub9ac": 3646,
    "\u2581\ub488\uac8c": 3647,
    "\u2581\u1102\u119e\u11b7\uc090\ub3c4": 3648,
    "\u2581\ubb35\uc740": 3649,
    "\u1109\u119e\u11af": 3650,
    "\u2581\uc606": 3651,
    "\u2581\uacf1\ub2e5\ud5c8": 3652,
    "\u2581\ub098\uc2dc": 3653,
    "\u2581\uc785\uc9c0": 3654,
    "\u2581\uc774\uc9dd": 3655,
    "\ub974\ub294": 3656,
    "\u2581\uc624\uc820": 3657,
    "\u2581\ubfcc\ub9ac\uace0": 3658,
    "\u2581\uc637\uc774": 3659,
    "\uac13": 3660,
    "\u2581\uc9c8\ub7ec": 3661,
    "\u2581\ub9d0\uc544": 3662,
    "\u2581\uc0ac\uc6d4": 3663,
    "\u2581\uc800\ucabd": 3664,
    "\uc5c7\uc8fc\uac8c": 3665,
    "\uc2ac": 3666,
    "\u2581\uc81c\uc219": 3667,
    "\u2581\uac00\uc774": 3668,
    "\u2581\uc77c\uac00": 3669,
    "\u2581\uac1c\ubbfc": 3670,
    "\u2581\ucc14\ub974": 3671,
    "\u2581\u1109\u119e\ucd98": 3672,
    "\ud55c\ud2f0": 3673,
    "\u2581\uc774\uc7a5": 3674,
    "\ubc88": 3675,
    "\ub7ed": 3676,
    "\u2581\u1112\u119e\u11a8": 3677,
    "\u2581\u110c\u119e\u11b7\uc9c8\uac8c": 3678,
    "\ub354": 3679,
    "\u2581\ub0b4\ub824\uac00": 3680,
    "\u2581\uac70\ubbc4": 3681,
    "\uc74d\ub2c8\ub2e4": 3682,
    "\u2581\uc194\ub808\uae30": 3683,
    "\u2581\uaf2d\uaf2d": 3684,
    "\u2581\ubca0\ub6f8\ub77d": 3685,
    "\u2581\ube44\ub2c8\ub8e8": 3686,
    "\u2581\uc313\uc544": 3687,
    "\u2581\ud48d\ucc44": 3688,
    "\u2581\uc218\ub20c\uc5c9": 3689,
    "\u2581\uc911\uada4": 3690,
    "\u2581\ubc14\uc9c0\uc800\uace0\ub9ac": 3691,
    "\u2581\u1109\u119e\uc0bc": 3692,
    "\u2581\uc0dd\uaca8": 3693,
    "\u2581\u1110\u119e\u11ae\uc559": 3694,
    "\u2581\uc911\uc694": 3695,
    "\u2581\uafe9\ucf54": 3696,
    "\u2581\uc92b": 3697,
    "\u2581\uc544\uba54\ub3c4": 3698,
    "\u2581\uac08\uc637": 3699,
    "\u2581\uc800\ub0d1": 3700,
    "\uaebc": 3701,
    "\u2581\uc0bc\ub144": 3702,
    "\u2581\uc138\uc6b0\ub9ac": 3703,
    "\u2581\ubd81": 3704,
    "\u2581\uc2dc\uc791\ud5c8": 3705,
    "\u2581\uc218\uc815": 3706,
    "\u2581\u1100\u119e\u11ab\uc7a5": 3707,
    "\u2581\uba39\uc73c\uba4d": 3708,
    "\u2581\uc384": 3709,
    "\u2581\ud5d9\ub514\uac00": 3710,
    "\uc2ed\uc8fc\uac8c": 3711,
    "\u2581\uba58\ub4e4\uace1": 3712,
    "\u2581\uadc0\uc5d0": 3713,
    "\u2581\ubc29\uc774": 3714,
    "\uc5c7\uc5b4": 3715,
    "\u2581\uc557\ub2e4": 3716,
    "\u2581\uc815\uc9c0\uc5d0": 3717,
    "\u2581\uc544\ub2c8\ub0d0": 3718,
    "\u2581\ub09c\ub2e4": 3719,
    "\u2581\ubc88\uc5d0": 3720,
    "\ub9cc\uc529": 3721,
    "\u2581\ub194\ub450\uace0": 3722,
    "\u2581\ubb34\uc2dc\uac70\ub77c": 3723,
    "\u2581\uc0ac\ub09c": 3724,
    "\u2581\ud1b3\ubc25": 3725,
    "\u2581\ubb3c\uc9d0\uce58": 3726,
    "\u2581\ubcf4\ub9ac\uc370": 3727,
    "\u2581\ub04c\ub9ac": 3728,
    "\u2581\uace4\u110a\u119e\u11af\ub85c": 3729,
    "\ub81d\uc774": 3730,
    "\ub2e4\uadfc\uc5e5": 3731,
    "\u2581\uac70\uace0\uc608": 3732,
    "\uc21c": 3733,
    "\u2581\uc5c7\uc5b4\ub3c4": 3734,
    "\u2581\uc77c\uc740": 3735,
    "\u2581\ub9e8\ub4e4": 3736,
    "\u2581\ub098\ubb34\uc5d0": 3737,
    "\u2581\uc870\ud569": 3738,
    "\u2581\uac81\uc8fc": 3739,
    "\u2581\ubcd1\uc6d0": 3740,
    "\u2581\uc720\ucc44": 3741,
    "\u2581\uc81c\ubb3c": 3742,
    "\u2581\uc9c0\uac8c": 3743,
    "\u2581\ub3c4\ub871\uc774": 3744,
    "\u2581\uacbd\u1112\u119e\u11ab\ub514": 3745,
    "\u2581\ubaa8\uc778\uc870": 3746,
    "\u2581\uc5f4\ud758": 3747,
    "\u2581\ub354\ud37c": 3748,
    "\u2581\ucc1d": 3749,
    "\u2581\uc787\uc218\uac00": 3750,
    "\u2581\uc22d": 3751,
    "\u2581\uadf8\uc804\uc5d0": 3752,
    "\u2581\uba39\uc73c\ub80c": 3753,
    "\u2581\uc2ef\uc5b4": 3754,
    "\u2581\uac00\ub294\ub514": 3755,
    "\u2581\uc2fc": 3756,
    "\u2581\ubd10\uc57c": 3757,
    "\u2581\ud5c8\uaebc": 3758,
    "\uc5c7\ub2e4": 3759,
    "\ud310": 3760,
    "\u2581\uc369\uc5b4": 3761,
    "\u2581\ubcf4\ub808": 3762,
    "\u2581\ud56d\uc544\ub9ac\uc5d0": 3763,
    "\u2581\ud06c\uc9c0": 3764,
    "\u2581\ubca0\uc637": 3765,
    "\u2581\uc5c7\uc5b4\ub0ab\uc5b4": 3766,
    "\ub514\uac00": 3767,
    "\u2581\ucc98\uc74c\uc5d4": 3768,
    "\ub4e4\ub3c4": 3769,
    "\u2581\uc800\uac83": 3770,
    "\ub450\uace0": 3771,
    "\u2581\uac00\uc9c0\uace0\uc11c\uc774": 3772,
    "\u2581\ubc31\ub85c": 3773,
    "\u2581\uc544\uc774\ub35c\uc740": 3774,
    "\u2581\ubd80\uc5b5": 3775,
    "\u2581\ubb34\uc5c7": 3776,
    "\u2581\u1108\u119e\u11af": 3777,
    "\u2581\uc0ac\ub984\ub4e4": 3778,
    "\ubc27\ub4f8": 3779,
    "\u2581\ud0d5\uadfc": 3780,
    "\u2581\uba4d": 3781,
    "\u2581\uc544\uba69": 3782,
    "\u2581\u1106\u119e\u11b7\uad6d": 3783,
    "\u2581\ud5e4\ub0ab\uc9c0": 3784,
    "\u2581\u1100\u119e\u11af\uc73c": 3785,
    "\u2581\uac83\ub4e4\uc740": 3786,
    "\u2581\ub123\uc5b4": 3787,
    "\u2581\u1100\u119e\u11af\uc548": 3788,
    "\u2581\uc2f8\uc6c0": 3789,
    "\ub0d0\uba74": 3790,
    "\u2581\uc560\uae30\uac00": 3791,
    "\u2581\uc0c8\uac00": 3792,
    "\u2581\u1103\u119e\u11af\uc544\uba54": 3793,
    "\u2581\u1102\u119e\u11af\uc544": 3794,
    "\u2581\uac00\uc815": 3795,
    "\u2581\ud5c8\ub358": 3796,
    "\uc557": 3797,
    "\ub9bd": 3798,
    "\u2581\ubc27\uc77c": 3799,
    "\u2581\ub9de\uc774": 3800,
    "\ub369": 3801,
    "\u2581\uc0ad\ub9dd": 3802,
    "\u2581\ubc8c\u1106\u119e\uc791": 3803,
    "\u2581\uc790\ub9ac\ubb3c\ud6fc": 3804,
    "\u2581\uadf8\ub807\uc8fc": 3805,
    "\u2581\uc548\uce60\uc131": 3806,
    "\u2581\uc804\ud654": 3807,
    "\u2581\uc9c0\uc9c0": 3808,
    "\u2581\uae08\ubc29": 3809,
    "\u2581\ucc3d\uc637": 3810,
    "\u2581\u1100\u119e\uc2ac": 3811,
    "\u2581\ub3d9\uc9c0\uc9d0\uce58": 3812,
    "\u2581\ub9dd\ub370\uae30": 3813,
    "\u2581\uacf1\uc740\uc790": 3814,
    "\u2581\uc2ed\uc624": 3815,
    "\u2581\uc785\uc73c\ubbfc": 3816,
    "\u2581\uc2f1": 3817,
    "\u2581\ub1a7\ub2e4\uadfc\uc5d0": 3818,
    "\u2581\ud574\ub2f9": 3819,
    "\u2581\uc785\uc9c0\uace1": 3820,
    "\u2581\ub194\uae30\ub124": 3821,
    "\u2581\uc0b4\uae30": 3822,
    "\u2581\uc138\ubc30": 3823,
    "\u2581\uaf49": 3824,
    "\u2581\ub9c8\uaed8\ub85c": 3825,
    "\u2581\uc5ec\uc790\ub4e4": 3826,
    "\u2581\ub189\ub2c8\uae4c": 3827,
    "\u2581\ud578": 3828,
    "\ub204": 3829,
    "\u2581\ub0ab\uc73c\ub85c": 3830,
    "\u2581\uc3d8\uacf1\uc5d0": 3831,
    "\u2581\ud2bf\uc5b4": 3832,
    "\uc220": 3833,
    "\u2581\uc5ec\uc790\ub294": 3834,
    "\u2581\uc544\uc774\ub35c\uc774": 3835,
    "\u2581\uc22b\uc790": 3836,
    "\u2581\u1112\u119e\ub098\ub9cc": 3837,
    "\u2581\uace0\uc0ac": 3838,
    "\u2581\uc138\ubbf8": 3839,
    "\u2581\ub2e4\ub2c8\ub294": 3840,
    "\u2581\uc090\uc5ec": 3841,
    "\u2581\ubb38\uc804\uc5d0": 3842,
    "\u2581\ud544\uc694\ud5cc": 3843,
    "\u2581\uce59": 3844,
    "\u2581\ubc29\ubc95\uc774": 3845,
    "\u2581\ud574\uc5d0": 3846,
    "\uc9dc\ub9ac": 3847,
    "\u2581\uc0bc\ubc29": 3848,
    "\ud558\ub098": 3849,
    "\u2581\ub193\uc8fc\uac8c": 3850,
    "\u2581\ud5c8\ub098": 3851,
    "\u2581\uc788\uc5b4": 3852,
    "\u2581\ub09c\uac04": 3853,
    "\u2581\uc2e0\uc744": 3854,
    "\uace4": 3855,
    "\u2581\ucf69\ubc27": 3856,
    "\u2581\u1100\u119e\u11af\uc544\uc918": 3857,
    "\ud39c": 3858,
    "\u2581\ub9de\uc73c": 3859,
    "\u2581\uac8c\uba74": 3860,
    "\u2581\uac00\uc8fd\uc2e0": 3861,
    "\u2581\u1109\u119e\u11b1\ub294": 3862,
    "\u2581\uac10\uc800\ubc25": 3863,
    "\uc9c0\uba74": 3864,
    "\u2581\ub530\ubb38": 3865,
    "\u2581\ud14c\uc640": 3866,
    "\u2581\uc8fd\uace0": 3867,
    "\u2581\uc18c\uae08\uc5d0": 3868,
    "\ub0ab\ub294\ub514": 3869,
    "\u2581\uc8fc\uc5b4": 3870,
    "\u2581\uc2f8\uace0": 3871,
    "\u2581\uc655\ub300": 3872,
    "\u2581\u1101\u119e\u11af\uc544": 3873,
    "\u2581\uc881": 3874,
    "\ud5f7\uc8fc": 3875,
    "\u2581\ub09a\uc2dc": 3876,
    "\u2581\u1103\u119e\u11af\uc544\ub9e4": 3877,
    "\u2581\ud615\uc81c": 3878,
    "\u2581\ub290\uc831\uc774": 3879,
    "\u2581\ub053\uc601": 3880,
    "\u2581\ubc11\uc73c\ub85c": 3881,
    "\ub304": 3882,
    "\u2581\ubc14\ub2f7\uace0\uae30": 3883,
    "\u2581\ubc14\ub18d\uc0c1\uc9c0": 3884,
    "\u2581\ubbf8\ub987": 3885,
    "\u2581\uc5b5\uc0c8": 3886,
    "\u2581\uc870\ucf54\uace0\ub9ac": 3887,
    "\u2581\u1111\u119e\ub808": 3888,
    "\u2581\uac83\uace0\ub77c": 3889,
    "\u2581\u1108\u119e\u11ba\uc559": 3890,
    "\ub355": 3891,
    "\u2581\ub118\uc73c\ubbfc": 3892,
    "\u2581\uc53b\uc5c9": 3893,
    "\u2581\uc7a5\uc791": 3894,
    "\u2581\uc124\ud0d5": 3895,
    "\u2581\ube75": 3896,
    "\u2581\ubaac": 3897,
    "\u2581\uc0bd": 3898,
    "\u2581\uc785\uc838": 3899,
    "\u2581\uc27d\uac8c": 3900,
    "\u2581\uc5b4\uba38\ub2cc": 3901,
    "\u2581\ud5c8\ub290\ub2c8": 3902,
    "\u2581\u1103\u119e\u11a8\uc8fd": 3903,
    "\u2581\ucd10\uc740": 3904,
    "\u2581\uc624\ub808": 3905,
    "\u2581\ub3cc\uc544\ub385\uae30": 3906,
    "\uc9d3": 3907,
    "\u2581\ud604": 3908,
    "\u2581\ub4e4\uc774\ub294": 3909,
    "\u2581\ubaa8\uc601": 3910,
    "\u2581\uc62c\ub9b0": 3911,
    "\u2581\ubd88\ub3c4": 3912,
    "\u2581\uc77c\uc81c": 3913,
    "\u2581\u1106\u119e\u11af\uc544": 3914,
    "\u2581\ucd08\ub2f4": 3915,
    "\u2581\ub450\uc5d0": 3916,
    "\u2581\uc0c1\uc5ec": 3917,
    "\uc9d0": 3918,
    "\u2581\ub0a0\ub77c": 3919,
    "\u2581\ud5e4\ub098\ub09c": 3920,
    "\u2581\ub098\uc655": 3921,
    "\u2581\u1103\u119e\ub294": 3922,
    "\ubca0\uae30": 3923,
    "\u2581\u1100\u119e\u11af\uc740": 3924,
    "\ubcf4\ub2e4\ub294": 3925,
    "\u2581\ud750\ub9b0\uc881\u110a\u119e\u11af": 3926,
    "\u2581\uc8fd\ub294": 3927,
    "\u2581\ub370\ub85c": 3928,
    "\ub4e4\uc5b4": 3929,
    "\u2581\ub9c8\ub9ac\uc5d0": 3930,
    "\u2581\ubcf4\ub9ac\ucc0d": 3931,
    "\u2581\uc5d0\uc5d0": 3932,
    "\u2581\u1112\u119e\ub2c8\uae4c": 3933,
    "\u2581\ubc29\uc0c1": 3934,
    "\ubcbc": 3935,
    "\u2581\uc5b8": 3936,
    "\u2581\ubd80\ub77d\uc5d0": 3937,
    "\u2581\uc81c\uc8fc\ub3c4\ub294": 3938,
    "\u2581\ud560\ub9dd\uc0c1": 3939,
    "\u2581\ud2b8\uba4d": 3940,
    "\u2581\ub4e4\uba74": 3941,
    "\uc838\uadfc\uc5d0": 3942,
    "\u2581\u1104\u119e": 3943,
    "\uc6b0\ubbfc": 3944,
    "\u2581\uc77c\ud3ec": 3945,
    "\u2581\uc790\uc5f0": 3946,
    "\u2581\uc544\ud558": 3947,
    "\u2581\uc5ec\uc790\ub35c\uc774": 3948,
    "\u2581\ud478": 3949,
    "\u2581\ubd80\ubaa8\ub2d8": 3950,
    "\u2581\uc2f1\uadf8\ub294": 3951,
    "\ub354\ub77c": 3952,
    "\u2581\ub9cc\ub4a4": 3953,
    "\u2581\ub3c4\uc138\uae30": 3954,
    "\u2581\ubb34\uc870\uac74": 3955,
    "\u2581\ubc14\ub451": 3956,
    "\u2581\ub9c9\ud39c\uc9c0": 3957,
    "\u2581\ube68\ub798": 3958,
    "\u2581\u110e\u119e\u11b7\uc6e8": 3959,
    "\u2581\uc7ac\ubc30": 3960,
    "\u2581\u1101\u119e\u11af\uc559": 3961,
    "\u2581\ub3c4\ub828": 3962,
    "\u2581\ub3c4\uc57c\uc9c0": 3963,
    "\u2581\ud574\ubcc0": 3964,
    "\u2581\uc9c8\uaca8": 3965,
    "\u2581\ubab0\ub780": 3966,
    "\u2581\uc870\uadf8\ub9cc": 3967,
    "\u2581\uae68\ub057": 3968,
    "\u2581\uc370\uc5b4\ub1a9": 3969,
    "\u2581\u110b\u11a2\ubb3c": 3970,
    "\u2581\uac00\ub2ec": 3971,
    "\u2581\u1107\u119e\ub514": 3972,
    "\u2581\uc774\uae30": 3973,
    "\u2581\ub370\uc655": 3974,
    "\u2581\uc464\ubbfc": 3975,
    "\u2581\uc0ac\uac74": 3976,
    "\u2581\ube44\uc11d": 3977,
    "\u2581\ud5d9\ub2c8\uaed8": 3978,
    "\uc720": 3979,
    "\u2581\ud638\ub839\ucc3d": 3980,
    "\u2581\u110c\u119e\u11b7\uc218": 3981,
    "\ube48": 3982,
    "\u2581\uc815\ub9d0": 3983,
    "\u2581\ub098\uc624\uace1": 3984,
    "\u2581\uc0bf": 3985,
    "\u2581\ubc1b\uace0": 3986,
    "\u2581\uacbd\uc6b0": 3987,
    "\ubabb": 3988,
    "\ub09c\ub514": 3989,
    "\u2581\uc870\uc655": 3990,
    "\u2581\uc0ac\ub808": 3991,
    "\u2581\uc870\uac1c": 3992,
    "\uc794": 3993,
    "\u2581\uf000": 3994,
    "\u2581\ub0b4\uc601": 3995,
    "\ub470": 3996,
    "\u2581\ud5e4\uc2e0\uace0": 3997,
    "\u2581\ub2f4\uc557": 3998,
    "\ud558\uace1": 3999,
    "\uc8fc\ub9c8\uc528": 4000,
    "\ucabd": 4001,
    "\u2581\u1100\u119e\u11ae\uc8fc": 4002,
    "\u2581\ub178\ub09c": 4003,
    "\u2581\ubc1f": 4004,
    "\u2581\ub385\uce68": 4005,
    "\u2581\ub193\uc740": 4006,
    "\u2581\ubab0\uc544": 4007,
    "\u2581\u110a\u119e\u11af\uc740": 4008,
    "\u2581\ud1a0\ub871": 4009,
    "\u2581\uac04\ub2e8": 4010,
    "\u2581\uc560\uae30\ub4e4": 4011,
    "\u2581\ub4a4\uc9d1\uc5b4": 4012,
    "\u2581\uc9d0\uce58\ub3c4": 4013,
    "\ucce5": 4014,
    "\u2581\ubb3c\uc7a5": 4015,
    "\u2581\ub4e4\uc5b4\uac00\uba74": 4016,
    "\u2581\ud5e4\ub098\ubbfc": 4017,
    "\u2581\uba55\uc5d0": 4018,
    "\u2581\uc88b\uc73c": 4019,
    "\u2581\ubd88\ub824": 4020,
    "\uc774\ub85c": 4021,
    "\u2581\uc5bc\uad74": 4022,
    "\u2581\uc624\uba54\uae30\uc220": 4023,
    "\u2581\uc608\uc7a5": 4024,
    "\u2581\ubaa8\ub2e4": 4025,
    "\uac00\uba4d": 4026,
    "\ub124\ub2e4": 4027,
    "\ud3c9": 4028,
    "\u2581\uba39\uc73c\ub09c": 4029,
    "\u2581\ud3b8": 4030,
    "\u2581\ub36e\uc5b4": 4031,
    "\ubd80\ub7f0": 4032,
    "\u2581\uc774\uac70\ub97c": 4033,
    "\ub193": 4034,
    "\u2581\uac70\ub839": 4035,
    "\u2581\uc544\ub2cc": 4036,
    "\ub834": 4037,
    "\u2581\ubc29\uc7a5\ub300": 4038,
    "\u2581\uc54a\uc740": 4039,
    "\u2581\ud750\ub9b0": 4040,
    "\u2581\ud2b9\ubcc4\ud558\uac8c": 4041,
    "\u2581\uc7a5\uac11": 4042,
    "\u2581\ubb3c\ub987": 4043,
    "\u2581\uaf2c\uc559": 4044,
    "\u2581\ud070\u1104\u119e\u11af": 4045,
    "\u2581\uac01\uc81c\uae30": 4046,
    "\u2581\ub18d\u1109\u119e": 4047,
    "\u2581\uc0b4\uc557\uc5b4": 4048,
    "\u2581\ub053\uc774": 4049,
    "\u2581\ubaa8\uc591\uc774\ub77c": 4050,
    "\u2581\uc694\ucd94\ub8e9": 4051,
    "\u2581\ub2e4\ub2d0": 4052,
    "\ub0e5\uc73c\ub85c": 4053,
    "\u2581\u1100\u119e\u11b7": 4054,
    "\u2581\uc2dd\uc740": 4055,
    "\u2581\uc0c1\uc81c\ub35c": 4056,
    "\u2581\uba39\uc5c7\uc9c0": 4057,
    "\u2581\ub144\ub300": 4058,
    "\u2581\uc0ac\ub2e4\uadfc\uc5d0": 4059,
    "\u2581\ud0dc": 4060,
    "\u2581\uc624\ub77c\uadfc\uc5d0": 4061,
    "\u2581\uacf3": 4062,
    "\u2581\ud138\uc5b4\uc9c0": 4063,
    "\u2581\ub4e4\uc5c7": 4064,
    "\u2581\u1103\u119e\ub9ac": 4065,
    "\uac01": 4066,
    "\u2581\uc5c7\uc5c7\uc8fc\uac8c": 4067,
    "\u2581\ub48c\ub374": 4068,
    "\u2581\uc5b4\ub835": 4069,
    "\u2581\ub2ee\uc740\ub514": 4070,
    "\u2581\uc640\uac00\uc9c0\uace0": 4071,
    "\u2581\ubaa8\ub974\ucfe0\ub2e4": 4072,
    "\u2581\ub1a7\ub2e4": 4073,
    "\u2581\ub2e4\ub4ec": 4074,
    "\u2581\ub3d9\uc0dd": 4075,
    "\u2581\ud5e4\uc918": 4076,
    "\u2581\uc77c\ub2e8": 4077,
    "\ub2f9\uc740\uc5d0": 4078,
    "\u2581\ub098\uac15": 4079,
    "\u2581\uac00\ubd80\ub09c": 4080,
    "\u2581\uce58\uba4d": 4081,
    "\uae61": 4082,
    "\u2581\uadfc": 4083,
    "\u2581\uc787\uc5c7\uc8fc\uac8c": 4084,
    "\uc52c": 4085,
    "\u2581\ub4b7\ub0a0\uc740": 4086,
    "\u2581\uac08\uc544\uc57c": 4087,
    "\u2581\ub3cc\ub824": 4088,
    "\u2581\uc0ac\ub78c\ub35c\uc774": 4089,
    "\u2581\uba85\uc774": 4090,
    "\u2581\uc5b4\ub978\ub35c\uc774": 4091,
    "\u2581\uc13c": 4092,
    "\u2581\uacbd\ud5f7\uc8fc": 4093,
    "\u2581\uc787\uc744": 4094,
    "\u2581\ub9db\uc787": 4095,
    "\u2581\ub044": 4096,
    "\u2581\ub9c8\uc744\uc774": 4097,
    "\u2581\ub611\uac19": 4098,
    "\u2581\ube44\uc5b4\ub2f9": 4099,
    "\u2581\uc5c6\uc9c0": 4100,
    "\u2581\uc250\ub098": 4101,
    "\u2581\uad6c\ub355\uc5d0": 4102,
    "\u2581\ubd80\uc12d": 4103,
    "\u2581\ud0c0\uc791": 4104,
    "\u2581\uc2dc\uaebc\uc624": 4105,
    "\u2581\ubaa8\uae30": 4106,
    "\u2581\ub194\ub450\uba74": 4107,
    "\u2581\ud600": 4108,
    "\u2581\ub3d9\uc138": 4109,
    "\ub824\uace0": 4110,
    "\u2581\ucf69\uc528": 4111,
    "\u2581\ubc0b": 4112,
    "\u2581\ud53c\ub294": 4113,
    "\uc73c\ub294": 4114,
    "\uc774\ub77c\ub4e0\uac00": 4115,
    "\u2581\uae40\ub155": 4116,
    "\u2581\uce5c\ucc99": 4117,
    "\u2581\uc720\ub9ac": 4118,
    "\u2581\uac01\ub2e8": 4119,
    "\u2581\u1106\u119e\u11af\ub9ac\uc640": 4120,
    "\u2581\u110e\u119e\u110e\u119e": 4121,
    "\u2581\ub3c4\uaf2c\ub9c8\ub9ac": 4122,
    "\u2581\ubb3b\ub294": 4123,
    "\u2581\uc88b\uc744": 4124,
    "\u2581\uc559\uaf2c": 4125,
    "\u2581\ubb3c\ud5c8\ubc85": 4126,
    "\u2581\uc601\uc601\uc601\uc601": 4127,
    "\u2581\ub463\ub0a0": 4128,
    "\u2581\uace0\ucd94\uc7a5": 4129,
    "\u2581\ub3cc\uc544\uac04": 4130,
    "\u2581\ud640": 4131,
    "\u2581\ub54c\ub77c": 4132,
    "\u2581\ub2f4\ubca0": 4133,
    "\u2581\uc2a4\ubb34\ub0a0": 4134,
    "\u2581\ud2c8": 4135,
    "\u2581\uc544\uc2dc\ub0a0": 4136,
    "\u2581\uc815\uc2e0": 4137,
    "\u2581\uba55\uc601": 4138,
    "\u2581\ub3d9\uc0c1": 4139,
    "\u2581\ub367": 4140,
    "\u2581\uc790\ub9ac\uc813\uc740": 4141,
    "\u2581\uac1c\uc5ed\uc740": 4142,
    "\u2581\ubb34\uba85": 4143,
    "\u2581\uc804\ub0a0": 4144,
    "\u2581\ud55c\uc904": 4145,
    "\u2581\uc0ac\ubc1c\uc5d0": 4146,
    "\u2581\ub098\uc624\uae30": 4147,
    "\u2581\ucc0d\uc5c9": 4148,
    "\u2581\ub4e4\uc5b4\uc11c": 4149,
    "\u2581\ud5e8\uac8c": 4150,
    "\u2581\ucda9": 4151,
    "\u2581\uac70\uc6b0\uaf48": 4152,
    "\u2581\ubc14\uc9dd": 4153,
    "\u2581\uaca8\uace0": 4154,
    "\u2581\ub1a7\ub2e4\uac00": 4155,
    "\u2581\ud130\uc9c0": 4156,
    "\u2581\uac11\ub2c8\ub2e4": 4157,
    "\u2581\uc3d8\uc544": 4158,
    "\u2581\ubabb\ud5e4\uc5ec": 4159,
    "\u2581\uc9dc\uadfc\uc5d0": 4160,
    "\ud5e8\uc5d0": 4161,
    "\u2581\uc5c7\ub294": 4162,
    "\uad70": 4163,
    "\u2581\ubd04\uc774": 4164,
    "\u2581\uc91c": 4165,
    "\ub2f4": 4166,
    "\u2581\ud1b5\uc9c0": 4167,
    "\u2581\ubd80\ub81d\uc774": 4168,
    "\u2581\ub3c4\uace0\ub9ac": 4169,
    "\ud5e8\ub9c8\uc528": 4170,
    "\uc2f1": 4171,
    "\u2581\ub178\uba74\uc740": 4172,
    "\u2581\uc18c\ub9ac\uac00": 4173,
    "\u1112\u119e\u11b8\ub2c8\uae4c": 4174,
    "\u2581\ub298": 4175,
    "\uc774\ub4e0": 4176,
    "\u2581\uc548\ud5f7\uc218\uacfc": 4177,
    "\uad6c\ub9ac": 4178,
    "\ud480": 4179,
    "\u2581\ucabd\uc73c\ub85c": 4180,
    "\u2581\uc5f0\uc7a5": 4181,
    "\u2581\uadf8\uac83\uc740": 4182,
    "\ubfd0": 4183,
    "\u2581\uc694\ub9cc\uc740": 4184,
    "\u2581\uc0ac\ub984\ub4e4\uc740": 4185,
    "\u2581\uc5f4\uc77c\uacf1": 4186,
    "\u2581\uc138\uc6b0\ub294": 4187,
    "\u2581\uc77c\uc5b4\ub098": 4188,
    "\ub9cc\ud788": 4189,
    "\u2581\uc544\uce68\uc5d0": 4190,
    "\uc73c\ub85c\ub9cc": 4191,
    "\u2581\ubd88\uace1": 4192,
    "\uc2e0\ub4f8": 4193,
    "\u2581\ud2c0\ub9b0": 4194,
    "\u2581\uc528\uc544": 4195,
    "\u2581\ucc3d\uacf0": 4196,
    "\u2581\uac77": 4197,
    "\u2581\uad6c\uc2ed": 4198,
    "\u2581\ube60\uc838": 4199,
    "\ub77c\uc57c": 4200,
    "\u2581\ub0a8\uc800\ub35c": 4201,
    "\u2581\uc62c\ub974": 4202,
    "\u2581\uc5b4\uc6cd": 4203,
    "\u2581\uc7a0\ub370": 4204,
    "\u2581\ubb38\uc740": 4205,
    "\u2581\ubabb\ud5f9": 4206,
    "\u2581\uacbd\ud5c8\uc5ec": 4207,
    "\u2581\uba54\ubbfc": 4208,
    "\u2581\uc591\uc11d": 4209,
    "\u2581\ubaa8\uad00": 4210,
    "\u2581\ubb34\ub048": 4211,
    "\u2581\uc774\uc81c\ub09c": 4212,
    "\u2581\uc774\ub9cc\uc740": 4213,
    "\u2581\ucabd\ud30c": 4214,
    "\u2581\uafe9\ub9c8\ub18d": 4215,
    "\u2581\ub300\uc18c\uc0c1": 4216,
    "\u2581\ubab8\uc774": 4217,
    "\u2581\uc0ad\uc0ad": 4218,
    "\u2581\ub3cc\uc544\uac00\uc167": 4219,
    "\u2581\ucc29\ucc29": 4220,
    "\u2581\uc19f\ub355": 4221,
    "\u2581\u1109\u119e\u11ba": 4222,
    "\ub0ab\ub294\ub370": 4223,
    "\u2581\ub3c4\ubcf5": 4224,
    "\u2581\ub538\ub839": 4225,
    "\u2581\uc73c\uc751": 4226,
    "\u2581\uc0a5\uc774\uce58\uae30": 4227,
    "\u2581\uc0dd\ubcf5": 4228,
    "\u2581\uc5f4\ubb34": 4229,
    "\u2581\uace0\ub4f1\ud559\uad50": 4230,
    "\u2581\uaf34": 4231,
    "\u2581\uba69\uae34": 4232,
    "\u2581\ub3c4\uae68\ub85c": 4233,
    "\u2581\ub9cc\ub4e4\uc5b4\uc11c": 4234,
    "\u2581\ub9e4\ub0a0": 4235,
    "\u2581\ub098\ub450\ubbfc": 4236,
    "\u2581\uc8fc\ub8e8": 4237,
    "\u2581\uba39\uc5b4\uc11c": 4238,
    "\u2581\uc138\uba58": 4239,
    "\u2581\ud5e4\uc2e0\uac00": 4240,
    "\ub178\ub80c": 4241,
    "\u2581\ub610\uc2dc": 4242,
    "\u2581\uc774\ubc14\uc9c0": 4243,
    "\u2581\uace0\uc640": 4244,
    "\u2581\uc7a5\ub0a8": 4245,
    "\u2581\uc2e4\ub85c": 4246,
    "\u2581\uac08\uae30": 4247,
    "\ub530": 4248,
    "\u2581\ud5c8\uace1\uac8c": 4249,
    "\uc6a9": 4250,
    "\u2581\uc88b\uc544\ub9c8\uc528": 4251,
    "\u2581\uc870\uc0ac": 4252,
    "\uc154": 4253,
    "\ubd14\ub9c8\uc528": 4254,
    "\u2581\ub54c\ub2c8\uae4c": 4255,
    "\u2581\uc774\uc81c\ub098": 4256,
    "\u2581\uc800\uc9c0": 4257,
    "\uc13c": 4258,
    "\ud3ec": 4259,
    "\u2581\uc2dc\uc808\uc5d0": 4260,
    "\u2581\u1108\u119e\u11ba": 4261,
    "\u2581\ud558\uc8fc": 4262,
    "\u2581\ud5e4\ubd10": 4263,
    "\u2581\ub9cc\ub4e4\uc5b4\uadfc\uc5d0": 4264,
    "\u2581\u1112\u119e\u11ab\ub2e4": 4265,
    "\u2581\uc544\ub140\uace1": 4266,
    "\ub2e4\uac8c": 4267,
    "\u2581\uc0bc\uc591": 4268,
    "\u2581\uce58\ubbfc": 4269,
    "\u2581\u110c\u119e\u11b7\uc9c8": 4270,
    "\u2581\ud5cc\uac70": 4271,
    "\u2581\uc0b0\ub4f8\ub294": 4272,
    "\u2581\ubaa8\uc154": 4273,
    "\ub8fd": 4274,
    "\u2581\uac00\uc9c0\uac00": 4275,
    "\u2581\uace0\ub7c9": 4276,
    "\u2581\ubd10\ub098": 4277,
    "\ud558\uae30": 4278,
    "\u2581\uc815\uc6d4\uc5d0": 4279,
    "\u2581\ubcb3\uae30": 4280,
    "\uc9c0\uc591": 4281,
    "\u2581\uc5d0\uc5fc": 4282,
    "\u2581\uba58\ub4e4\uc5b4": 4283,
    "\u2581\uc5b4\uc11c": 4284,
    "\u2581\uc5ec\u110c\u119e": 4285,
    "\u2581\ub54c\ub77c\ub3c4": 4286,
    "\u2581\u110e\u119e\u11b8\u110a\u119e\u11af": 4287,
    "\ud30c": 4288,
    "\u2581\ubd80\uc790": 4289,
    "\uae30\ub97c": 4290,
    "\u2581\uc81c\uc8fc\ub3c4\uc5d0\uc11c": 4291,
    "\u2581\uc0c1\ubc29": 4292,
    "\u2581\ubc84\ubb34\ub824": 4293,
    "\u2581\ube44\uc6b0": 4294,
    "\u2581\uacbd\uc6b0\uc5d0": 4295,
    "\u2581\ud558\uc580": 4296,
    "\u2581\ubb3b\uc744": 4297,
    "\u2581\uc120\uc778\uc7a5": 4298,
    "\u2581\u1110\u119e": 4299,
    "\u2581\uc694\uba58\uc369": 4300,
    "\u2581\ud310\ucc0d": 4301,
    "\u2581\u1100\u119e\ub530": 4302,
    "\u2581\uacbd\uc6b4\uae30": 4303,
    "\u2581\ub3c4\ub451\uc9c8": 4304,
    "\u2581\uc724\ub514": 4305,
    "\u2581\ud5c8\ud5c8\ud5c8": 4306,
    "\u2581\u1103\u119e\u11a8\uc0c8\uae30": 4307,
    "\u2581\uc870\ud31f\ub4f8": 4308,
    "\u2581\ub300\uc6b0\ub9ac": 4309,
    "\u2581\uce89": 4310,
    "\u2581\ud5f7\uc218\uad11": 4311,
    "\u2581\uc464\uc5c9": 4312,
    "\u2581\uc804\uae30": 4313,
    "\u2581\ub178\ub8e8": 4314,
    "\u2581\u1100\u119e\ud2b8\ubbfc": 4315,
    "\u2581\u1102\u119e\u11b7\uc774": 4316,
    "\u2581\uc2e4\ub7ec": 4317,
    "\u1112\u119e\ub09c": 4318,
    "\ubca0\ub080": 4319,
    "\u2581\uc9c0\ub0bc": 4320,
    "\u2581\uacbd\ud5c8\ub2f9": 4321,
    "\u2581\u1104\u119e\u11af\ub791": 4322,
    "\u2581\u1110\u119e\u11a8": 4323,
    "\ud5e4\ub9c8\uc528": 4324,
    "\u2581\uc8fc\uc778\uc774": 4325,
    "\u2581\ubb38\uc774": 4326,
    "\u2581\uca99": 4327,
    "\u2581\ud639": 4328,
    "\u2581\uc9c0\uc9c4": 4329,
    "\u2581\uaecd\uc9c8": 4330,
    "\u2581\ud488": 4331,
    "\uc624\ub294": 4332,
    "\u2581\ub3cc\uc544\uc640": 4333,
    "\u2581\uc8fc\ubcc0\uc5d0": 4334,
    "\u2581\uba5c\uc774": 4335,
    "\u2581\ub5a8\uc5b4\uc838": 4336,
    "\u2581\ub0b4\ub824\uc640": 4337,
    "\u2581\uc2e0\ub514": 4338,
    "\u2581\ud5cc\ub2e4\uac8c": 4339,
    "\ud5f7\uc8fc\uac8c": 4340,
    "\ud3b8": 4341,
    "\uc0ac\ub78c": 4342,
    "\u2581\uc785\uc740": 4343,
    "\uae4d": 4344,
    "\u2581\u1104\u119e\ub098": 4345,
    "\u2581\ud558\ub298": 4346,
    "\uc584": 4347,
    "\u2581\ubcf4\ub9ac\ubc25\uc5d0": 4348,
    "\uba38\ub9ac": 4349,
    "\u2581\uc2e0\uc740": 4350,
    "\u2581\ub3cc\uc544\uac00\uc2e0": 4351,
    "\u2581\uc624\uac8c": 4352,
    "\u2581\ubc14\ub2f9\uc774": 4353,
    "\u2581\u1109\u119e\u11b1\uc73c": 4354,
    "\uc2ed\ub514\ub2e4": 4355,
    "\u2581\ub300\ubc18": 4356,
    "\u2581\ub2e4\ub77c\uc5d0": 4357,
    "\u2581\ub193\uc8fc": 4358,
    "\u2581\ub144\ub3c4": 4359,
    "\u2581\uc548\uc6b0\uaf48": 4360,
    "\u2581\ucd10\ub3c4": 4361,
    "\u2581\uc8fc\uc7a5": 4362,
    "\u2581\uc694\uac70\ub294": 4363,
    "\u2581\uc544\ub808": 4364,
    "\u2581\ub2f4\uace0": 4365,
    "\u2581\uc808\uac04\uc5d0": 4366,
    "\u2581\u1112\u119e\ub098\uc5d0": 4367,
    "\u2581\uc5b4\uc2e0": 4368,
    "\uc774\ub2c8": 4369,
    "\uac00\uba74": 4370,
    "\u2581\uc808\ubcc0": 4371,
    "\ub51c\ub85c": 4372,
    "\u2581\ubc94\ubc85\uc740": 4373,
    "\u2581\uc12c\ube44": 4374,
    "\u2581\uc9d3\uc740": 4375,
    "\u2581\uc81c\ub300": 4376,
    "\u2581\uac10\uc800\uc904": 4377,
    "\u2581\uc62c\ub837": 4378,
    "\u2581\uc7a1\uc744": 4379,
    "\u2581\u1109\u119e\u11bc\ud0a4": 4380,
    "\u2581\uc0ac\ub984\ub4e4\uc774": 4381,
    "\ucee4\ub77c": 4382,
    "\u2581\ub0ad\uc5d0": 4383,
    "\ubca1": 4384,
    "\u2581\uc2dc\uc9d1\uac00": 4385,
    "\u2581\uba58\uc9dd": 4386,
    "\uc6c1": 4387,
    "\ud5f7\uc9c0": 4388,
    "\uc557\uc218\uacfc": 4389,
    "\u2581\ucd08\u1112\u119e\ub8e8": 4390,
    "\u2581\ubd93": 4391,
    "\u2581\ubb3b\uc5c9": 4392,
    "\u2581\ud6cd\uac8c": 4393,
    "\u2581\uc5fc\uc0c9": 4394,
    "\u2581\u110e\u119e\ub840": 4395,
    "\u2581\uc81c\uc9c0\ub0b4": 4396,
    "\u2581\uc2e4\ub728\uae30": 4397,
    "\u2581\ub355\uc11d": 4398,
    "\u2581\uc544\uba69\ud5e4\ub3c4": 4399,
    "\u2581\ubc14\uc2f9": 4400,
    "\u2581\uc0c1\u1106\u119e\ub8e8": 4401,
    "\u2581\ub20c\uc5c7\ub2f9": 4402,
    "\u2581\uc0ac\ub8cc": 4403,
    "\u2581\ud37c\ub801": 4404,
    "\u2581\ubb3c\ub8fb": 4405,
    "\u2581\ub300\ubaa9": 4406,
    "\u2581\ucc1d\uc2e0": 4407,
    "\ub354\ub80c": 4408,
    "\u2581\uc790\ub780": 4409,
    "\uc774\uba74\uc740": 4410,
    "\u2581\uc7a1\uc73c\ubbfc": 4411,
    "\ub77c\uac8c": 4412,
    "\u2581\ub369\uc5b4\ub9ac": 4413,
    "\u2581\uc9d3\uace0": 4414,
    "\u2581\uba55\uc774\ub808": 4415,
    "\u2581\ubaa8\uc591\uc73c\ub85c": 4416,
    "\u2581\uac00\uc8fd\uc73c\ub85c": 4417,
    "\u2581\u1109\u119e\u11b1": 4418,
    "\u2581\uc131\uc528\uac00": 4419,
    "\u2581\ub0b4\uc77c": 4420,
    "\u2581\uc2f6\uc740": 4421,
    "\ub51c": 4422,
    "\u2581\uc5b4\ub824": 4423,
    "\u2581\ud5f7\uac70\ub4e0": 4424,
    "\u2581\uba38\uc60c": 4425,
    "\u2581\ubb18": 4426,
    "\u2581\ucef7\ub2f9": 4427,
    "\u2581\uac78\ub839": 4428,
    "\u2581\uc774\ucabd\uc73c\ub85c": 4429,
    "\u2581\uba58\ub4e4\uc544\uadfc\uc5d0": 4430,
    "\u2581\ubd09\uac00": 4431,
    "\u2581\ub3c4\ub9dd\uac00": 4432,
    "\uc9d0\uce58": 4433,
    "\u2581\ub488\uc11c": 4434,
    "\u2581\uc544\uc774\uac00": 4435,
    "\u2581\ud53c\ud574": 4436,
    "\ub0ab\uad6c\ub098": 4437,
    "\u2581\ub137": 4438,
    "\u2581\uc640\ub3c4": 4439,
    "\uc2f9": 4440,
    "\uc6b0\ub2e4\uac8c": 4441,
    "\u2581\uc0ac\ub294\ub514": 4442,
    "\uc7ac": 4443,
    "\ubd23": 4444,
    "\ub290": 4445,
    "\u2581\uc0b0\uc81c": 4446,
    "\uc784": 4447,
    "\u2581\ubaa8\uc591\uc774": 4448,
    "\u2581\u1112\u119e\ub2e8": 4449,
    "\u2581\uc787\uc5c7\uace0": 4450,
    "\u2581\ub4e4\uba74\uc740": 4451,
    "\u2581\uc5b4\ub978\uc774": 4452,
    "\u2581\ub300\uac8c": 4453,
    "\ubd80\ub9ac": 4454,
    "\u2581\ub9ce\uc73c": 4455,
    "\u2581\uc5b4\uc81c": 4456,
    "\u2581\ub2f4\uace1": 4457,
    "\u2581\ubc14\ub2e5": 4458,
    "\u2581\uba70\ub290\ub9ac": 4459,
    "\u2581\ud574\ub140": 4460,
    "\u2581\uc5b4\uc6b8": 4461,
    "\u2581\uac70\ub09c\uac8c": 4462,
    "\u2581\uc124\uc5d0": 4463,
    "\u2581\uc2ec\ubc29\uc774": 4464,
    "\uac04\uc5d0": 4465,
    "\u2581\uc635": 4466,
    "\u2581\u110e\u119e\u11b7\ub300": 4467,
    "\u2581\uc591\ubc18": 4468,
    "\u2581\uac1c\ub9cc": 4469,
    "\uc30d": 4470,
    "\u2581\ubaa9\uc695": 4471,
    "\u2581\uc53b": 4472,
    "\u2581\uba69\uae00\uc544": 4473,
    "\u2581\uc774\uc11c\uc57c": 4474,
    "\u2581\ub9f7\ub3cc": 4475,
    "\u2581\uac10\uc800\ub3c4": 4476,
    "\u2581\u110a\u119e\u11af\uc744": 4477,
    "\u2581\uc815\uae30": 4478,
    "\u2581\ub208\uc5d0": 4479,
    "\ub1a7\ub2f9": 4480,
    "\u2581\uacbd\ud5e4\uc11c": 4481,
    "\u2581\u1112\u119e\ub8e8\uc5d0": 4482,
    "\u2581\uae30\uac00": 4483,
    "\u2581\u110c\u119e\u11a8\uc740": 4484,
    "\u2581\u1103\u119e\u11af\uace0": 4485,
    "\u2581\ubc14\uae5f": 4486,
    "\uc6c0": 4487,
    "\u2581\ubca0\uc5fc": 4488,
    "\u2581\ubc27\ub4f8\uc11c": 4489,
    "\u2581\uc0b6\uc544": 4490,
    "\u2581\uc81c\ud658\uc9c0": 4491,
    "\u2581\ucf65\ub300\uc0ac\ub2c8": 4492,
    "\u2581\ud2b9\ud788": 4493,
    "\u2581\uc624\ub9ac\ubaa9": 4494,
    "\u2581\uae00\uc384": 4495,
    "\u2581\u1106\u119e\u11b7\ucfe1": 4496,
    "\u2581\uc194\ubcc0": 4497,
    "\u2581\ud321\ud321": 4498,
    "\ubcb3\uae18": 4499,
    "\u2581\uc871\uc740\uc544\ub35c": 4500,
    "\u2581\uace0\uc14d": 4501,
    "\u2581\uba83": 4502,
    "\ub0ab\ub374": 4503,
    "\u2581\uc7a5\ucf69": 4504,
    "\u2581\ub9c9\ub385\uc774": 4505,
    "\u2581\ubca0\ub057\ub4f8": 4506,
    "\u2581\ub194\ub454": 4507,
    "\u2581\ub611\uac19\uc544": 4508,
    "\u2581\u1112\u119e\uc6b0\uaf48": 4509,
    "\uadfc\ub139\uc5d0": 4510,
    "\u2581\uac1c\uc6d4": 4511,
    "\u2581\uc464\uc5b4": 4512,
    "\u2581\uc694\ub9cc\uc778": 4513,
    "\u2581\uc18d\uc637": 4514,
    "\u2581\ub458\ub9ac": 4515,
    "\u2581\ub3d9\ub128": 4516,
    "\u2581\uc2e0\ucc3d": 4517,
    "\u2581\uc9d1\uc75c": 4518,
    "\u2581\ub193\uc73c\ubbfc": 4519,
    "\u2581\uba85\uc808": 4520,
    "\u2581\uc544\ubc84\uc9c0\ub124": 4521,
    "\u2581\uc787\uc77c": 4522,
    "\u2581\ud638\uc0c1": 4523,
    "\u2581\uacf6": 4524,
    "\uae00\ub77d": 4525,
    "\u2581\uc131\ub0e5": 4526,
    "\u2581\u1103\u119e\u11bc\uae30": 4527,
    "\u2581\uac1c\uc778\uc73c\ub85c": 4528,
    "\u2581\uc800\ub97c\uc5d0": 4529,
    "\u2581\uc26c\uc640": 4530,
    "\u2581\uc790\uae30\ub124": 4531,
    "\u2581\ub5c0": 4532,
    "\u2581\uc11c\ubc29": 4533,
    "\ubc84\ub9ac": 4534,
    "\u2581\uc77c\ub144": 4535,
    "\u2581\u1106\u119e\u11af\uc774\ub098": 4536,
    "\u2581\ube44\uc655": 4537,
    "\u2581\ub9d0\ub9cc": 4538,
    "\u2581\ubc29\uc0c1\uc5d0": 4539,
    "\u2581\uadf8\ub514\uac00": 4540,
    "\u2581\ud5f4\uc11c": 4541,
    "\u2581\ubaa8\uc800": 4542,
    "\u2581\uba39\uc774": 4543,
    "\u2581\u1111\u119e\u11af\uace1": 4544,
    "\u2581\uacb0\ud63c\uc740": 4545,
    "\u2581\ub9e4\uc5b4": 4546,
    "\u2581\uaca8\uc6b8\uc5d4": 4547,
    "\u2581\uc790\uc2dd\ub4e4": 4548,
    "\uc0ac\ub984": 4549,
    "\u2581\uc138\uc655": 4550,
    "\u2581\uc544\ub2c8\ub77c\uac8c": 4551,
    "\u2581\u110c\u119e\u11b7\uc218\ub35c": 4552,
    "\uc0ad": 4553,
    "\u2581\ud5e4\uc218\uacfc": 4554,
    "\u2581\uada4\uc5ec": 4555,
    "\u2581\uae30\uad00": 4556,
    "\u2581\ud751\uc774": 4557,
    "\uc787": 4558,
    "\uada4": 4559,
    "\u2581\ubcf4\ub09c\uc5d0": 4560,
    "\u2581\ubb3c\uc9c8\ud5c8": 4561,
    "\u2581\uac08\uc548": 4562,
    "\ucd98": 4563,
    "\u2581\uc5bc\ub808": 4564,
    "\uc12d": 4565,
    "\u2581\uc2e0\uad6c\uac04\uc5d0": 4566,
    "\u2581\ub098\ub300": 4567,
    "\u2581\uaf3d": 4568,
    "\u2581\ud654": 4569,
    "\ud5c8\uace0\uc608": 4570,
    "\u2581\ub300\ud5f9": 4571,
    "\u2581\u110c\u119e\u11bd": 4572,
    "\u2581\ud1b5\uc5d0": 4573,
    "\u2581\u110b\u119e\uc84d": 4574,
    "\u2581\uc2f8\ubbfc": 4575,
    "\uc774\uad6c": 4576,
    "\u2581\uacbd\ucc30": 4577,
    "\u2581\ub0b4\uc5b4": 4578,
    "\u2581\uadf8\ub514\ub3c4": 4579,
    "\u2581\uc219": 4580,
    "\uce58\ub294": 4581,
    "\u2581\ud1a8\ubc25": 4582,
    "\u2581\u110c\u119e\u11b8": 4583,
    "\u2581\ubd80\uc81c": 4584,
    "\u2581\uc784\uc81c": 4585,
    "\u2581\uc640\uc57c": 4586,
    "\u2581\uc788\uc9c0": 4587,
    "\uc774\ub0d0": 4588,
    "\u2581\uba39\uc5b4\ub0ab\uc8fc": 4589,
    "\u2581\ud68c": 4590,
    "\u2581\ud615\uc131": 4591,
    "\u2581\uc7a0\uae50": 4592,
    "\u2581\uc5c6\uc5c7": 4593,
    "\u2581\ubc2d": 4594,
    "\u2581\uc2ed\uc77c\uc6d4": 4595,
    "\ub47f\ub2f9": 4596,
    "\uc2dc\ub15c": 4597,
    "\u2581\ub9de\ub2e4": 4598,
    "\u2581\uc501\ub2c8": 4599,
    "\u2581\uc737\ub180\uc774": 4600,
    "\u2581\uc815\ubcb5\uc774": 4601,
    "\u2581\ubc30\ucd94\uc9d0\uce58": 4602,
    "\u2581\u1100\u119e\ub78f": 4603,
    "\u2581\ub204\ub2d8": 4604,
    "\u2581\uc794\uce6b\ub0a0": 4605,
    "\u2581\uc18c\uc911\uc758": 4606,
    "\u2581\ucd08\ubcf5": 4607,
    "\u2581\uc8fc\uc6cc": 4608,
    "\u2581\ud654\uc0c1": 4609,
    "\u2581\ubcf4\ub9bf\ub0ad": 4610,
    "\u2581\uc62c\ub77c\uac04": 4611,
    "\u2581\uc78a\uc5b4\ubd88\uc5b8": 4612,
    "\u2581\ubf51\uc559": 4613,
    "\u2581\ubcf4\ub9ac\ud074": 4614,
    "\uc5c7\uc218\uac00": 4615,
    "\u2581\ud587\uc218\uacfc": 4616,
    "\u2581\uc57d\uac04": 4617,
    "\u2581\uc77c\ub7ec": 4618,
    "\u2581\uc694\ub518": 4619,
    "\u2581\ud55c\ubcf5": 4620,
    "\u2581\uc0b4\ub2f9": 4621,
    "\u2581\uc250\ub9c9\uc5d0": 4622,
    "\u2581\uafe9\uc8fd": 4623,
    "\u2581\uc7a0\uae50\ub9cc": 4624,
    "\u2581\uc548\ud5e8": 4625,
    "\u2581\uc774\uc720\uac00": 4626,
    "\u2581\uac10\uc0b0\uc774": 4627,
    "\u2581\uc11c\uc2e4": 4628,
    "\u2581\uc950": 4629,
    "\u2581\uadf8\ub5bc": 4630,
    "\u2581\ubaa8\ub974\ub294": 4631,
    "\u2581\uccd0\uadfc\uc5d0": 4632,
    "\u2581\ubd80\uaebc": 4633,
    "\u2581\uac00\ubb38": 4634,
    "\uba39\uc5b4": 4635,
    "\u2581\uadf8\uae30": 4636,
    "\u2581\ud130\uc9c4": 4637,
    "\u2581\uc0b4\uc559": 4638,
    "\u2581\uac70\uce58": 4639,
    "\u2581\ucc2c": 4640,
    "\u2581\uc2dc\ucf1c": 4641,
    "\u2581\uc49c\ub85c": 4642,
    "\u2581\uadf8\ub188\uc758": 4643,
    "\u2581\ubcf4\uc5ec": 4644,
    "\u2581\u1109\u119e\u11b7\uace0": 4645,
    "\u2581\uc870\ub85c": 4646,
    "\u2581\uace0\ubb3c": 4647,
    "\ubcf4\uc9c0": 4648,
    "\u2581\u1100\u119e\ub77c": 4649,
    "\ucc0d": 4650,
    "\u2581\uacbd\ud5c8": 4651,
    "\u2581\u1112\u119e\ub2f9": 4652,
    "\u2581\uae08": 4653,
    "\u2581\u1106\u119e\u11ab\uc5ec": 4654,
    "\u2581\uba54\uc57c": 4655,
    "\u2581\ub098\uac08": 4656,
    "\u2581\ub4e4\uc5b4\uc624\uc9c0": 4657,
    "\uca4c": 4658,
    "\uc73c\ub808": 4659,
    "\u2581\uad74\uc774": 4660,
    "\ub871": 4661,
    "\ub20c": 4662,
    "\u2581\ub9cc\ub4e4\uace1": 4663,
    "\u2581\uc591\uc5d0": 4664,
    "\u2581\uc9c0\uacbd": 4665,
    "\u2581\uc624\ube60": 4666,
    "\uc800\uac83": 4667,
    "\ud5f4": 4668,
    "\u2581\uc787\uc8fc\ub9cc": 4669,
    "\u2581\ucd08\ud30c\uc77c": 4670,
    "\u2581\ud558\ub294\ub370": 4671,
    "\u2581\ub3d9\uae00\ub791\ud5c8\uac8c": 4672,
    "\u2581\uc7a5\uac8c": 4673,
    "\u2581\uc0dd\uc774": 4674,
    "\u2581\ubb47\uc774": 4675,
    "\u2581\ub0ab\uc8fc": 4676,
    "\u2581\uccad\ubb35\uc740": 4677,
    "\u2581\uc785\uc5c7\uc8fc": 4678,
    "\u2581\ucd0c": 4679,
    "\u2581\u1100\u119e\ub97c": 4680,
    "\u2581\ubcf4\ub77c": 4681,
    "\u2581\uc190\uc744": 4682,
    "\u2581\ub193\uc544": 4683,
    "\u2581\uc528\uc5b4\uba4d": 4684,
    "\u1112\u119e\uc8fc\uac8c": 4685,
    "\ub4e4\uc744": 4686,
    "\u2581\uc0ac\ub3c8": 4687,
    "\u2581\u1106\u119e\u11bd": 4688,
    "\u2581\uc815\u1100\u119e\ub808": 4689,
    "\u2581\ub18d\uc0ac\uc9d3": 4690,
    "\u2581\ubcc0": 4691,
    "\u2581\ubbf8\uc2f1": 4692,
    "\u2581\uac70\uc5d4": 4693,
    "\uc0bc": 4694,
    "\u2581\uc0dd\uac01\uc744": 4695,
    "\ud0a4\uc5ec": 4696,
    "\u2581\ud638\ub81d\uc774": 4697,
    "\u2581\u1103\u119e\u11ab": 4698,
    "\uc624\ub77c": 4699,
    "\u2581\uc78a\uc5b4": 4700,
    "\u2581\uc544\ub140\uac8c": 4701,
    "\u2581\ubc00\u1100\u119e\ub8e8": 4702,
    "\u2581\uac19\uc544": 4703,
    "\u2581\uac78\ub837": 4704,
    "\u2581\u1101\u119e\u11af": 4705,
    "\ubd88\uc9c0": 4706,
    "\uaca9": 4707,
    "\u2581\ub0a8\uc790\ub294": 4708,
    "\u2581\uc11c\ucabd": 4709,
    "\ub9cc\ud07c": 4710,
    "\u2581\uadf8\ub7ed\uc800\ub7ed": 4711,
    "\u2581\ub514\ub51c\ud321": 4712,
    "\u2581\ub9de\ucd39": 4713,
    "\u2581\ud655\uc2e4": 4714,
    "\u2581\ud70f\ubd88": 4715,
    "\u2581\uc878\uc5c5": 4716,
    "\u2581\uc77c\uc81c\uc2dc\ub300": 4717,
    "\u2581\uc528\uc544\uc9c0\ubc29": 4718,
    "\u2581\u1100\u119e\u11b8": 4719,
    "\u2581\uac13\uae40\uce58": 4720,
    "\u2581\ub9cc\ub4a4\ub5a1": 4721,
    "\u2581\uc624\uac00\ub9ac": 4722,
    "\u2581\uc2dc\uccd0": 4723,
    "\u2581\u1100\u119e\ub808\ucc29": 4724,
    "\u2581\uc0c8\ub07c\ud6fc": 4725,
    "\u2581\uc468": 4726,
    "\u2581\ub3c4\uae68\uc9c8": 4727,
    "\u2581\uc55a\uc84d": 4728,
    "\u2581\ubb3c\uace0\uae30": 4729,
    "\u2581\ubcf4\ub2ec": 4730,
    "\u2581\ub178\ub780": 4731,
    "\u2581\ubaa8\ub0e5\uc774\ub77c": 4732,
    "\u2581\uc885\uc77c": 4733,
    "\u2581\ud37c\ub370\uae30": 4734,
    "\u2581\ub9dd\uce58": 4735,
    "\u2581\uc0b4\ub9bc": 4736,
    "\u2581\ud798\ub4e0": 4737,
    "\u2581\ud5e4\ub0ab\uad6c\ub098": 4738,
    "\u2581\ub290\ub791": 4739,
    "\u2581\ube44\uaed8": 4740,
    "\u2581\uc5c7\uc778\uac00\ub9c8\uc528": 4741,
    "\u2581\u1111\u119e\u11af\uc559": 4742,
    "\u2581\uc7a5\uc18c": 4743,
    "\u2581\uadf8\ub09c": 4744,
    "\u2581\ub370\ub839": 4745,
    "\u2581\ubc11\uc5d0\ub294": 4746,
    "\u2581\uc788\ub294\ub370": 4747,
    "\u1112\u119e\uba4d": 4748,
    "\u2581\ud5c8\ub2c8": 4749,
    "\u2581\uac10\uc637": 4750,
    "\u2581\ub385\uacbb": 4751,
    "\u2581\ub098\ubbc4": 4752,
    "\u2581\ub3fc\uc9c0\uace0\uae30": 4753,
    "\ud5cc\ub514": 4754,
    "\u2581\uc0ac\ub77c": 4755,
    "\ud321": 4756,
    "\ub8ec": 4757,
    "\u2581\uc544\ub2cc\uac00": 4758,
    "\u2581\uc5ff\uc740": 4759,
    "\u2581\ub72c": 4760,
    "\u2581\uc544\ub2c8\uc6b0\ub2e4": 4761,
    "\u2581\uc548\ud5e4\ub3c4": 4762,
    "\u2581\uc787\uc774\ub09c": 4763,
    "\u2581\uc885\uc774\ub85c": 4764,
    "\u2581\ub358\uc9c0": 4765,
    "\u2581\uc870\uc218": 4766,
    "\ub81d": 4767,
    "\u2581\ud558\uc774\uace0": 4768,
    "\ub0ab\uc820": 4769,
    "\u2581\uba5c\uc740": 4770,
    "\u2581\uc6a9\ub3c4": 4771,
    "\u2581\uc787\ub2e4\uac00": 4772,
    "\ud06c": 4773,
    "\u2581\ud558\uc591": 4774,
    "\u2581\ud5c8\uc8fc\uae30": 4775,
    "\u2581\ud5e4\ub098\uc11c": 4776,
    "\u2581\ub0b4\uc6b0": 4777,
    "\u2581\ub04c\uc774": 4778,
    "\u2581\uba69\ud161\uc774\uc5d0": 4779,
    "\u2581\uc9c0\uac00": 4780,
    "\u2581\ubb3c\uc5b4\ubcf4": 4781,
    "\ub824\uba74": 4782,
    "\uaef4": 4783,
    "\uba39\uace0": 4784,
    "\u2581\uc900\ube44\ud5e4": 4785,
    "\u2581\uc548\uc74d\ub2c8\uae4c": 4786,
    "\u2581\uc5bb\uc5b4": 4787,
    "\u2581\uc787\uc5b4\uc11c": 4788,
    "\u2581\ub9d0\uce58": 4789,
    "\u2581\u110c\u119e\ubc30\uae30": 4790,
    "\u2581\uc18c\uae08\ubb3c": 4791,
    "\u2581\uc870\uc655\uc5d0": 4792,
    "\u1112\u119e\ub098": 4793,
    "\uc57c\uc8fc": 4794,
    "\u2581\ud5e4\ubca4": 4795,
    "\ub958": 4796,
    "\u2581\ub9cc\ub098": 4797,
    "\u2581\uac08\uba74\uc740": 4798,
    "\u2581\ub9e4\uae30": 4799,
    "\u2581\uc870\uc0c1": 4800,
    "\u2581\uc6b4": 4801,
    "\u2581\u1109\u119e\u11af\uc5d0": 4802,
    "\u2581\ub9ce\uc9c0": 4803,
    "\u2581\ub3d9\uad11": 4804,
    "\u2581\u1110\u119e\u11ae": 4805,
    "\u2581\u1100\u119e\u11af\uaca1\uc774": 4806,
    "\u2581\uc6a9": 4807,
    "\u2581\uc871\ubc14\uc9c0": 4808,
    "\uae4c\uc9c0\ub294": 4809,
    "\u2581\ub4e4\uc5b4\ubd14": 4810,
    "\u2581\ud638\ubc15\uc785": 4811,
    "\ud638": 4812,
    "\u2581\ubd09\ub355": 4813,
    "\u2581\uadf8\ub807\uad6c\ub098": 4814,
    "\u2581\ub192\uc774": 4815,
    "\u2581\uba39\ubcf4\ub9d0": 4816,
    "\u2581\ubb63\uace0": 4817,
    "\u2581\uc0b6\uc774": 4818,
    "\u2581\uc5b4\ucd0c\uacc4": 4819,
    "\u2581\uc8fc\uce6b\ub3cc": 4820,
    "\u2581\uae4d\ub450\uae30": 4821,
    "\u2581\ub3d4\ube44": 4822,
    "\u2581\uc7a5\ub3c5\ub300": 4823,
    "\u2581\ud0dc\uc791": 4824,
    "\u2581\ub450\ub8e8\ub9c9": 4825,
    "\u2581\uac00\ub9c8\uadc0": 4826,
    "\u2581\uace0\ubb34": 4827,
    "\u2581\uc77c\uc6d4": 4828,
    "\u2581\uc989": 4829,
    "\u2581\u1109\u119e\u11b7\uc559": 4830,
    "\u2581\ub3cc\ub2f4": 4831,
    "\u2581\ub4e4\uc5b4\ubcf8": 4832,
    "\u2581\ucc3d\uc2e0": 4833,
    "\u2581\ub0a8\uc6d0\ub9ac": 4834,
    "\u2581\u110c\u119e\u11b7\uc790": 4835,
    "\u2581\ub9c8\ub77c": 4836,
    "\u2581\uc785\ub3d9": 4837,
    "\u2581\u1102\u119e\u11b7\uc090\uad6d": 4838,
    "\u2581\u1100\u119e\ub9ac\uce58": 4839,
    "\u2581\uc790\uc8fc": 4840,
    "\u2581\uc5ec\uae30\uc11c\ub3c4": 4841,
    "\u2581\ud5e4\uc591": 4842,
    "\u2581\u1100\u119e\u11ae\uace1": 4843,
    "\u2581\u1103\u119e\u11af\uc5f0": 4844,
    "\u2581\uce74\uadfc\uc5d0": 4845,
    "\u2581\ube4c\uc5b4\uadfc\uc5d0": 4846,
    "\uce58\uace0": 4847,
    "\u2581\ud2f0": 4848,
    "\u2581\uc544\ub35c\uc740": 4849,
    "\uac00\uace1": 4850,
    "\uc9c0\ub2c8\uae4c": 4851,
    "\u2581\uc871\uc740\ubc29": 4852,
    "\u2581\uc554\ub9cc": 4853,
    "\u2581\uc544\ubb34\ub77c\ub3c4": 4854,
    "\u2581\ub48c\uc7a5\uc740": 4855,
    "\u2581\ub098\uc624\ub2c8\uae4c": 4856,
    "\u2581\uc18c\ub3c4": 4857,
    "\u2581\uc7a1\uc544\uba39": 4858,
    "\u2581\uc787\uc5b4\ub0ab\uc5b4": 4859,
    "\ud2f0": 4860,
    "\u2581\ubd80\ub374": 4861,
    "\u2581\uc9d1\ub9c8\ub2e4": 4862,
    "\u2581\uc544\ub140\ub09c": 4863,
    "\u2581\uac00\uc9c0\ub85c": 4864,
    "\u2581\ub354\ud504\ub294": 4865,
    "\u2581\uc190\uc7a1\uc774": 4866,
    "\ub514\ub2e4\uac8c": 4867,
    "\u2581\uba39\uc73c\uba74": 4868,
    "\u2581\uc2dc\uaebc\ub2f9": 4869,
    "\u2581\ubc15\ub294": 4870,
    "\u2581\uc885\uae30": 4871,
    "\u2581\uc6e8\ub0d0\uba74": 4872,
    "\ucbe4\uc5d0": 4873,
    "\uc5b4\uc11c": 4874,
    "\u2581\ub2e4\uc2dc\ub2e4": 4875,
    "\ud5e4\uadfc\uc5e5": 4876,
    "\u2581\ud0a4\uc6b0\uace0": 4877,
    "\u2581\uc870\uae30": 4878,
    "\u2581\ubc97\uc5b4": 4879,
    "\u2581\ud39c\uc548": 4880,
    "\ubd09": 4881,
    "\ub18d\uc0ac": 4882,
    "\u2581\uc628\ub2e4": 4883,
    "\u2581\uc5ec\uc790\ub35c\uc740": 4884,
    "\u2581\ubd23\uc5b4": 4885,
    "\u2581\ub098\uc0ac": 4886,
    "\u2581\ub098\uac00\uace0": 4887,
    "\u2581\ud558\ub974\ubc29\ub3c4": 4888,
    "\uc4f0": 4889,
    "\uc9c0\uac00": 4890,
    "\u2581\uc2ef\uc9c0": 4891,
    "\ub41c": 4892,
    "\u2581\uc9c0\uc838": 4893,
    "\ud2b8\ubbfc": 4894,
    "\u2581\uc5c7\uc5b4\uc608": 4895,
    "\u2581\uc6b4\ubc18": 4896,
    "\u2581\ud558\uad00": 4897,
    "\u2581\ubc88\uc774\ub098": 4898,
    "\ub1a7": 4899,
    "\u2581\uac8c\ub2e4": 4900,
    "\u2581\uc55a\uc9c0": 4901,
    "\u2581\uc77c\ubcf8\uc11c": 4902,
    "\u2581\ube44\ub204": 4903,
    "\u2581\ud30c\ub2f9": 4904,
    "\u2581\ud63c\uc790\ub9cc": 4905,
    "\u2581\ud718": 4906,
    "\u2581\ub73b": 4907,
    "\ub2e4\ub978": 4908,
    "\uc5ff\uc218\uacfc": 4909,
    "\ucfe0": 4910,
    "\u2581\ud754": 4911,
    "\u2581\uc0c1\uc6e8\ub5a1\uc740": 4912,
    "\ubd80\ub7ff": 4913,
    "\u2581\ubf01\uc774": 4914,
    "\u2581\uacfc\uc77c": 4915,
    "\u2581\ub098\ubb34\ub294": 4916,
    "\u2581\ubc14\ub2f7\uac00\uc5d0": 4917,
    "\u2581\uc544\ub140\ub294": 4918,
    "\u2581\uc300\uc774": 4919,
    "\u2581\ud558\uae30": 4920,
    "\u2581\uc2e0\uace0": 4921,
    "\u2581\ud558\uac8c": 4922,
    "\u2581\ub18d\uc0ac\uac00": 4923,
    "\u2581\ubc29\ud5a5": 4924,
    "\u2581\ubcf4\ub9ac\uc300": 4925,
    "\u2581\uc2ec\ub294": 4926,
    "\u2581\uc0c8\uc2a4\ubc29": 4927,
    "\u2581\ub9d0\uc5d0": 4928,
    "\u2581\uc787\uc774": 4929,
    "\u2581\ubaa8\ub974\uc9c0": 4930,
    "\u2581\u1100\u119e\u11af\uc544\uc11c": 4931,
    "\u2581\uce58\ub8cc": 4932,
    "\uc5e5": 4933,
    "\u2581\ub9de\ucdc5": 4934,
    "\u2581\ubb54\uc9c0": 4935,
    "\u2581\ube44\ucc28\ub77d": 4936,
    "\u2581\uc5b4\uca0b\ub4e0": 4937,
    "\u2581\uc5ec\ub35f": 4938,
    "\u2581\ucc9c\uc5f0\ub450": 4939,
    "\u2581\uac11\uc790\uae30": 4940,
    "\u2581\uc878\ubc14\ub85c": 4941,
    "\u2581\ub2e4\ub370\ub5a1": 4942,
    "\u2581\ub0b4\uc9c0": 4943,
    "\u2581\uc624\uaf3f": 4944,
    "\u2581\uc8fc\ub139\uc774": 4945,
    "\u2581\ud310\uad00": 4946,
    "\u2581\uc911\uc2ec": 4947,
    "\u2581\ubc30\uc124": 4948,
    "\u2581\uac10\uc800\ub294": 4949,
    "\u2581\uba69\uadf8": 4950,
    "\u2581\uc810\ubcf5": 4951,
    "\u2581\uc131\uac8c\uad6d": 4952,
    "\u2581\ubca0\ucd94": 4953,
    "\u2581\ucf69\ucc0d": 4954,
    "\u2581\ub4e4\uc5b4\uc653": 4955,
    "\u2581\ubb3c\uad6c\ub355": 4956,
    "\u2581\u1102\u119e\ubb3c\uad6d": 4957,
    "\u2581\uba39\uad6c\uc815": 4958,
    "\ubb3c\uc774": 4959,
    "\u2581\uc548\ud2b8\ub808": 4960,
    "\u2581\uace0\uc6b4": 4961,
    "\u2581\ub69c\uaed1": 4962,
    "\u2581\uc18c\uc8fc": 4963,
    "\u2581\ub9c8\ub18d\uc9c0\uc2dc": 4964,
    "\u2581\uc218\uc138": 4965,
    "\u2581\uc787\uc5c7\uc218\uacfc": 4966,
    "\u2581\ub178\ub9b0": 4967,
    "\u2581\ube44\uc2b7\ud5cc": 4968,
    "\u2581\ud5d8\ubc85\uc73c\ub85c": 4969,
    "\u2581\uac78\ub85c\ub9cc": 4970,
    "\u2581\uccab": 4971,
    "\u2581\uc0c8\uc653": 4972,
    "\u2581\ub4e4\uc5b4\uc655": 4973,
    "\u2581\uacbd\ud5e4\uc5ec": 4974,
    "\u2581\u1106\u119e\u11af\ub978": 4975,
    "\u2581\u1102\u119e\ub9ac": 4976,
    "\u2581\ud5c8\ubb38": 4977,
    "\u2581\uc785\uad00": 4978,
    "\u2581\u1103\u119e\u11b7\uc544": 4979,
    "\u2581\uc8fc\ub09c": 4980,
    "\u2581\uc808\ubca4\uc740": 4981,
    "\u2581\ud55c\uad6d": 4982,
    "\u2581\uc0b4\uc9c0": 4983,
    "\u2581\u110e\u119e\u11af\ub9ac\ub294": 4984,
    "\u2581\u1103\u119e\u11ba": 4985,
    "\u2581\ub488\uac00\ubbfc": 4986,
    "\u2581\uc653\ub2e4": 4987,
    "\u2581\u110b\u11a2\u11af\uc544": 4988,
    "\u2581\uac08\uc9c0": 4989,
    "\u2581\uc8fc\uba4d": 4990,
    "\ud5f7\uc218\ub2e4": 4991,
    "\u2581\ub193\uc73c\uba74": 4992,
    "\u2581\u1103\u119e\u11af\uc544\ub098": 4993,
    "\u2581\uce58\uc640": 4994,
    "\u2581\uc0c1\uc5b4": 4995,
    "\u2581\u1107\u119e\u11af\ub9ac\uace0": 4996,
    "\u2581\uac00\ub9ac": 4997,
    "\u2581\ubc97\uc5b4\uc9c0": 4998,
    "\u2581\uc6b0\uc218": 4999,
    "\u2581\uacbd\ud5e4\uc57c": 5000,
    "\u2581\ud30c\uadfc\uc5d0": 5001,
    "\u2581\ub098\uc624\uc8fc": 5002,
    "\u2581\ud5f7\uc820": 5003,
    "\u2581\uc804\uc5d4": 5004,
    "\u2581\ucc28\ub871": 5005,
    "\u2581\ud398\uc640": 5006,
    "\ud587": 5007,
    "\ud559": 5008,
    "\ucd1d": 5009,
    "\u2581\u1100\u119e\ub728": 5010,
    "\u2581\uc778\uce59": 5011,
    "\u2581\uc0b4\uc544\ub3c4": 5012,
    "\ub198": 5013,
    "\uba5c": 5014,
    "\u2581\ubcbc": 5015,
    "\u2581\ud558\ub098\uc5d0": 5016,
    "\u2581\uc5b4\ub5b5\ud5cc": 5017,
    "\u2581\ub0a8\uc790\ub4e4": 5018,
    "\u2581\ubc14\uce58": 5019,
    "\u2581\uc5bb\uc5b4\uba39": 5020,
    "\u2581\u110c\u119e\ubb3c": 5021,
    "\u2581\uc0ac\uadfc\uc5d0": 5022,
    "\u2581\ub9db\ub3c4": 5023,
    "\u2581\uc548\ud5e4\uc11c": 5024,
    "\uc81c\ub098": 5025,
    "\u2581\uc787\uc5c7\uc8fc": 5026,
    "\uc2b5": 5027,
    "\u2581\ub204\ub294": 5028,
    "\u2581\ub118\uc73c\uba74": 5029,
    "\u2581\uc0b4\uc544\uc11c": 5030,
    "\ub188": 5031,
    "\u2581\ub3d9\uc9d3\u1103\u119e\u11af": 5032,
    "\u2581\ub370\uac00": 5033,
    "\ubd10\uc11c": 5034,
    "\u2581\uc5c7\uc5b4\uc11c": 5035,
    "\ud558\uc9c0": 5036,
    "\ub985\ub2c8\uae4c": 5037,
    "\u2581\ub04c\uc5ec": 5038,
    "\u2581\uc0ac\ub984\ub9cc": 5039,
    "\u2581\uae4c\uae4c": 5040,
    "\ub9ac\uc5d0": 5041,
    "\u2581\ubaa8\u1106\u119e\u11af\u110a\u119e\u11af": 5042,
    "\u2581\uc131\uc74d": 5043,
    "\u2581\u1100\u119e\ub8e8\ub97c": 5044,
    "\u2581\uc2dc\ud0a4": 5045,
    "\u2581\uc800\uc7a5": 5046,
    "\u2581\ub124\ubaa8": 5047,
    "\u2581\ub098\uc644": 5048,
    "\u2581\u1100\u119e\u11af\uc554": 5049,
    "\u2581\ubc1c\uc5d0": 5050,
    "\u110c\u119e": 5051,
    "\ub8f0": 5052,
    "\uc5c7\uc218\ub2e4": 5053,
    "\u2581\uacf5\ub3d9\ubb18\uc9c0": 5054,
    "\u2581\uad82\uc5b4": 5055,
    "\u2581\uc0c8\uc2dc\ubc29": 5056,
    "\u2581\uc11e\uc5b4": 5057,
    "\u2581\uc5ec\ub4dc\ub984": 5058,
    "\u2581\uc624\ud1a0\ubbf8": 5059,
    "\u2581\uc808\ub87c\uc9c0": 5060,
    "\u2581\ud558\ub2ac\u1107\u119e\ub984": 5061,
    "\u2581\u1102\u119e\ub78c\uc950": 5062,
    "\u2581\uc250\uc9c8\uba54": 5063,
    "\u2581\ud30d\ud30d": 5064,
    "\u2581\ud638\ub871\uc774": 5065,
    "\u2581\uad6c\uc88c": 5066,
    "\u2581\uc560\uc6d4": 5067,
    "\u2581\uad74\uc911\uc758": 5068,
    "\u2581\ud654\uc21c": 5069,
    "\u2581\uc5c7\uc73c\ub09c": 5070,
    "\u2581\ubaac\ub531": 5071,
    "\u2581\ub4e4\uc774\ucce5": 5072,
    "\u2581\u1112\u119e\uc370": 5073,
    "\u2581\ucc98\ub140": 5074,
    "\u2581\uc5ec\ub0a8\uc740": 5075,
    "\u2581\ube68\uac04": 5076,
    "\u2581\uc218\ub450\ub9ac": 5077,
    "\u2581\uc5f0\uc560": 5078,
    "\uc918\uc0ac": 5079,
    "\u2581\uc870\uc655\uc81c": 5080,
    "\u2581\uc5ec\uc720": 5081,
    "\u2581\uc62c\ub77c\uac15": 5082,
    "\u2581\ubc18\ucc29": 5083,
    "\u2581\uc751\uc751": 5084,
    "\u2581\uc62c\ucf00": 5085,
    "\u2581\ub194\ub460\uc11c": 5086,
    "\u2581\u1103\u119e\u11af\uc544\uba54\uc601": 5087,
    "\u2581\uc871\uc601": 5088,
    "\u2581\ub048\uc5c9": 5089,
    "\u2581\uc2e0\uacbd": 5090,
    "\u2581\uaf5d": 5091,
    "\u2581\uba65": 5092,
    "\u2581\uac24": 5093,
    "\u2581\uc787\uac70\ub4e0": 5094,
    "\u2581\ub4b7\ubb38": 5095,
    "\u2581\u1100\u119e\u11af\uaca1\uc774\ub85c": 5096,
    "\u2581\ub098\uc653": 5097,
    "\u2581\uc815\uc758": 5098,
    "\u2581\uccad\uc218\ub9ac": 5099,
    "\u2581\uc900\ube44\ud5e4\uc57c": 5100,
    "\u2581\ub9d0\uc544\uc57c": 5101,
    "\u2581\uc7a1\uc548": 5102,
    "\ubca2\uc774": 5103,
    "\u2581\uc544\ub2c8\uacfc": 5104,
    "\u2581\ubaa8\u110c\u119e": 5105,
    "\u2581\uc775\uc73c\uba74\uc740": 5106,
    "\u2581\uc774\uc2dc\ub2c8\uae4c": 5107,
    "\u2581\uac78\ub7ec": 5108,
    "\u2581\uc9c8\uc5b4\ub2f9": 5109,
    "\u2581\uac00\uc6b4": 5110,
    "\u2581\ud0c0\ub808": 5111,
    "\u2581\uac12": 5112,
    "\u2581\uc787\ub374": 5113,
    "\u2581\uc644\uc5d0": 5114,
    "\u2581\uc218\uc758": 5115,
    "\u2581\ud53c\uc5b4": 5116,
    "\u2581\ub2e4\ub9c8": 5117,
    "\u2581\ub4e4\uc5b4\ubd23": 5118,
    "\u2581\uc370": 5119,
    "\u2581\ucc0d\uc740": 5120,
    "\ubc27\ub514": 5121,
    "\u2581\uc591\uc528": 5122,
    "\u2581\ubc0b\uc5d0": 5123,
    "\uce68": 5124,
    "\u2581\ub2ee\ub2e4": 5125,
    "\u2581\u1100\u119e\ub974\uce58": 5126,
    "\u2581\uc5b4\ub978\ub4e4": 5127,
    "\u11ab": 5128,
    "\u2581\uac70\u1100\u119e\ub77c": 5129,
    "\u2581\ubfcc": 5130,
    "\u2581\ub9cc\ub4e4\uc557": 5131,
    "\u2581\uc601\ud5cc": 5132,
    "\u2581\uc8fc\uc2dc": 5133,
    "\u2581\uc2dd\uc774": 5134,
    "\ub989": 5135,
    "\uc74d": 5136,
    "\uc635": 5137,
    "\uc57d": 5138,
    "\uc300": 5139,
    "\uc544\uc84d": 5140,
    "\uc871": 5141,
    "\ub9b0\ub374": 5142,
    "\u2581\uc798\ub77c": 5143,
    "\u2581\ub450\uaed8": 5144,
    "\u2581\uc904\ub85c": 5145,
    "\uc530": 5146,
    "\ub85c\uad6c\ub098": 5147,
    "\u2581\ud5e4\uba39": 5148,
    "\ubb47": 5149,
    "\u2581\uc544\ub2c8\ubbc4": 5150,
    "\u2581\ud53c\uac00": 5151,
    "\uc5b4\uac00\uc9c0\uace0": 5152,
    "\u2581\ud558\uba74\uc11c": 5153,
    "\u2581\ub300\uac00": 5154,
    "\u2581\uc7a0": 5155,
    "\u2581\uc7a1\uc544\ub2f9": 5156,
    "\u2581\ubabb\ud5cc": 5157,
    "\u2581\u1112\u119e\u11ab\ubd88": 5158,
    "\ub79c": 5159,
    "\uac83\uc774": 5160,
    "\ub2cc": 5161,
    "\u2581\ub098\uc624\ub77c": 5162,
    "\uc9d1\ub2c8\ub2e4": 5163,
    "\uc60c\ub3c4": 5164,
    "\u2581\ud5c8\ub77c": 5165,
    "\u2581\uc9c0\uace1": 5166,
    "\ubc29\uc5d0": 5167,
    "\u2581\uc801\ub3c4": 5168,
    "\uc18c\ub9ac": 5169,
    "\u2581\ubd88\uc5c9": 5170,
    "\u2581\uc870\ud31d\uc740": 5171,
    "\u2581\ubd80\ub2c8\uae4c": 5172,
    "\u2581\uac74\uc84d": 5173,
    "\u2581\uc5ec\uae30\uc5d0\uc11c": 5174,
    "\u2581\uc6b4\ub3d9": 5175,
    "\u2581\ucc30": 5176,
    "\u2581\uc591\ub825": 5177,
    "\u2581\uc8fd\uc73c": 5178,
    "\u2581\ubb34\ub364": 5179,
    "\u2581\uc55e\ub354\ub808": 5180,
    "\uaf09": 5181,
    "\u2581\ucf69\uaf2c\uc9c8": 5182,
    "\u2581\ud504\ub85c": 5183,
    "\u2581\ubb18\uc885": 5184,
    "\u2581\uc120\uc0dd\ub2d8": 5185,
    "\u2581\ub450\ub9d0\ub5bc\uae30": 5186,
    "\u2581\u1100\u119e\ud0c0": 5187,
    "\u2581\u1102\u119e\u11b7\uc090\uc9d0\uce58": 5188,
    "\u2581\ub9d0\uca68": 5189,
    "\u2581\u110e\u119e\u11bd\uc559": 5190,
    "\u2581\ucf69\uc9da": 5191,
    "\u2581\uc5f0\uc220": 5192,
    "\u2581\ube44\ub4ec": 5193,
    "\u2581\uada4\uba85": 5194,
    "\u2581\uae30\uc900": 5195,
    "\u2581\uc820\uc820\ud5cc": 5196,
    "\u2581\uad9d": 5197,
    "\u2581\ubc1b\uc548": 5198,
    "\u2581\ub0a8\ub385\uc774": 5199,
    "\u2581\ube4c\ub808": 5200,
    "\u2581\ub098\ub044\ub808": 5201,
    "\u2581\uc18c\ub2d8": 5202,
    "\u2581\ub0b4\uccd0": 5203,
    "\u2581\uc801\uac08": 5204,
    "\u2581\uc624\ub77c\ubc29": 5205,
    "\uc5c7\uc800": 5206,
    "\u2581\uaff0\uc655": 5207,
    "\u2581\uc0bc\ubca0": 5208,
    "\u2581\uc77c\ubd80\ub7ec": 5209,
    "\u2581\ub180\uc544": 5210,
    "\u2581\ud5e4\ubcc0": 5211,
    "\u2581\uc838\ub2f9": 5212,
    "\u2581\ud5e4\ubd23\uc5b4": 5213,
    "\u2581\uc1a1\uc560\uae30": 5214,
    "\u2581\u1112\u119e\uc5ec\ub3c4": 5215,
    "\u2581\uc81c\uc0ac\ub97c": 5216,
    "\u2581\uc787\uc5c9": 5217,
    "\u2581\ube44\uc5ec\uadfc\uc5d0": 5218,
    "\u2581\ubcf4\ub9b0": 5219,
    "\u2581\ubabd": 5220,
    "\u2581\ubaa8\uc544": 5221,
    "\u2581\ud06c\ub294": 5222,
    "\u2581\uc9c0\uc815": 5223,
    "\u2581\u110b\u11a2\ub984\uc5d0": 5224,
    "\u2581\ubcf4\ub9ac\ubc25\uc740": 5225,
    "\u2581\uc37b\uc8fc": 5226,
    "\u2581\ubfcc\ub824\uadfc\uc5d0": 5227,
    "\u2581\ub354\uc6b4": 5228,
    "\u2581\uc548\ud5cc": 5229,
    "\u2581\ud30d": 5230,
    "\ub193\ub09c": 5231,
    "\u2581\ud55c\ubb38": 5232,
    "\u2581\ub2e4\ub2d8": 5233,
    "\u2581\ucd08\uac00": 5234,
    "\u2581\ub458\ub9ac\uac00": 5235,
    "\u2581\ub9d0\uba4d": 5236,
    "\u2581\uaff0\ub294": 5237,
    "\u2581\ub4e4\uc73c": 5238,
    "\u2581\ucd1d\uc73c\ub85c": 5239,
    "\u2581\ud544\uc694\ud5e4": 5240,
    "\ub4f1": 5241,
    "\uc7a5\uc744": 5242,
    "\u2581\ub2f4\uadf8": 5243,
    "\ub0ab\uc800\uac8c": 5244,
    "\u119e\u11af": 5245,
    "\u2581\uc5b4\uc6b8\ub9ac": 5246,
    "\ub09c\uac8c": 5247,
    "\u2581\uc788\uc796\uc544": 5248,
    "\u2581\uc5c7\uc5c7\uace0": 5249,
    "\u2581\u1112\u119e\uba74": 5250,
    "\u2581\ub54c\ub824": 5251,
    "\u2581\uac70\uc8fd": 5252,
    "\u2581\uc785\uc73c\ub85c": 5253,
    "\u2581\uc5ec\uc790\ub4e4\uc740": 5254,
    "\ubcf4\ub2e4\ub3c4": 5255,
    "\u2581\ubfcc\ub9bd": 5256,
    "\u2581\uc704\ub85c": 5257,
    "\uc9c0\ub09c": 5258,
    "\u2581\ud5e4\ub2e8": 5259,
    "\u2581\ub488\ubbc4": 5260,
    "\u2581\ubc30\ub85c": 5261,
    "\ud588": 5262,
    "\ubcc0": 5263,
    "\u2581\uc18c\uacf1": 5264,
    "\ud06c\ub77c": 5265,
    "\u2581\ubc14\ub974": 5266,
    "\u2581\uc881\uc300\ub85c": 5267,
    "\u2581\uc785\uc5c7": 5268,
    "\u2581\uc9c0\uc5ed": 5269,
    "\u2581\u1106\u119e\u11af\ub791": 5270,
    "\u2581\uc801\ub2e4": 5271,
    "\u2581\ud589\uc0ac": 5272,
    "\u2581\uc54c\uc544\uc9c0": 5273,
    "\ud0c1": 5274,
    "\u2581\ub108\uc774": 5275,
    "\ucbe4\uc740": 5276,
    "\u2581\uc7ac\uc218": 5277,
    "\u2581\ub9cc\ub4e4\uc8fc": 5278,
    "\u2581\ub0a0\ub808": 5279,
    "\ud48d": 5280,
    "\u2581\ud14c\uc8fc": 5281,
    "\u2581\ub4e4\uc5b4\uac00\uc57c": 5282,
    "\ud5e4\ub0ab\uc218\uacfc": 5283,
    "\u2581\ub9cc\ub4e4\uc9c0": 5284,
    "\u2581\uc5b4\uc2dc": 5285,
    "\u2581\ubb3b\uc73c": 5286,
    "\u2581\uc0bc\ucd98\ub124\ub294": 5287,
    "\uac00\uc9c0": 5288,
    "\u2581\uc9c0\ud321": 5289,
    "\u2581\uc790\uc2dd": 5290,
    "\u2581\uacbd\ud5e4\ub0ab\uc8fc": 5291,
    "\u2581\uac00\uc838\uc624": 5292,
    "\u2581\ucef7": 5293,
    "\u2581\uc0ac\ub2c8\uae4c": 5294,
    "\u2581\ub354\ud504": 5295,
    "\uc0ac\uc8fc\uac8c": 5296,
    "\u2581\ub193\ub09c": 5297,
    "\u2581\ub9d0\ud558\ub294": 5298,
    "\u2581\ubc1c\ud6a8": 5299,
    "\u2581\uc624\uc8fc\uac8c": 5300,
    "\u2581\uad6c\ubd84": 5301,
    "\u2581\uc544\ud310": 5302,
    "\u2581\uac13\ub2e4\uac00": 5303,
    "\ub0a9\ub514": 5304,
    "\u2581\uc721\uc9c0\ub294": 5305,
    "\u2581\uce60\uc11d": 5306,
    "\u2581\u1106\u119e\u1106\u119e\u11af": 5307,
    "\u2581\uc2ec\uc73c": 5308,
    "\u2581\ucd94\uc6cc": 5309,
    "\u2581\uc62c\ub808\uc5d0": 5310,
    "\uc5c7\ub294\ub370": 5311,
    "\u2581\u1106\u119e\u11ba\uc544": 5312,
    "\u2581\ucc28\uac00": 5313,
    "\u2581\ub179\ub450": 5314,
    "\u2581\uc774\ucabd\uc5d0": 5315,
    "\u2581\ube59\ube59": 5316,
    "\u119e": 5317,
    "\u2581\uace0\uae43\ubc30": 5318,
    "\u2581\ub123\ub294": 5319,
    "\u2581\ubb3b\uc5c7": 5320,
    "\u2581\uc808\uac04\uace0\uad6c\ub9c8": 5321,
    "\u2581\uc870\ud48d\ub385\uc774": 5322,
    "\u2581\uc904\ub118\uae30": 5323,
    "\u2581\ud0ef\uc904": 5324,
    "\u2581\ubc99\uac83": 5325,
    "\u2581\uc54c\uac1c\ubbf8\uc813": 5326,
    "\u2581\ucc3d\uafc8": 5327,
    "\u2581\ud314\ud314": 5328,
    "\ube44\uc5b8": 5329,
    "\u2581\ud5c8\ub9ac\ub760": 5330,
    "\u2581\ubc14\ube60": 5331,
    "\u2581\ub178\ub057": 5332,
    "\u2581\uc2f9\uc2f9": 5333,
    "\u2581\ub4e4\uc774\uccd0": 5334,
    "\u2581\ud0a4\uc6b8": 5335,
    "\u2581\u1104\u119e\ub8e8": 5336,
    "\u2581\u1111\u119e\u11ba\uc26c": 5337,
    "\u2581\ud5e8\uac8c\ub9c8\ub294": 5338,
    "\u2581\ub2e4\ub77d": 5339,
    "\u2581\uba54\uc5ed\ub3c4": 5340,
    "\u2581\uc787\uc218\uac8c": 5341,
    "\u2581\ub3cc\ucc98\uadc0": 5342,
    "\u2581\uac00\uc2e0": 5343,
    "\u2581\u110c\u119e\u11af\ub77c": 5344,
    "\u2581\ucd08\ud30c\uc77c\ub0a0": 5345,
    "\u2581\uc0dd\uba69\uc9c0": 5346,
    "\u2581\ub450\ub4dc\ub808\uae30": 5347,
    "\u2581\ub9c8\ub2f9\uc9c8": 5348,
    "\u2581\uc7ac\ubbf8\ub09c": 5349,
    "\u2581\ud5cc\ub2e4\uace0": 5350,
    "\u2581\ub20c\uad7d": 5351,
    "\u2581\uc2dd\ub2f9\uc5d0": 5352,
    "\u2581\ubc27\uac00\ub294": 5353,
    "\u2581\uc591\ub9d0": 5354,
    "\u2581\ub193\uc559": 5355,
    "\ub098\ub9c8\ub098": 5356,
    "\ubd23\uc5b4": 5357,
    "\u2581\uc6a9\uc2dc": 5358,
    "\u2581\u110b\u11a2\ub2f5": 5359,
    "\u2581\uc6b0\uc601\uc5d0": 5360,
    "\u2581\ub098\uc624\uba74": 5361,
    "\u2581\ubd88\ub801": 5362,
    "\u2581\uac70\ub9ac\ub294": 5363,
    "\u2581\uc7a5\ub09c\uc73c\ub85c": 5364,
    "\u2581\uc544\ub0d0": 5365,
    "\u2581\uc774\uc2ed\uc624": 5366,
    "\u2581\uad6c\ub4e4\uc5d0": 5367,
    "\u2581\ud64d": 5368,
    "\u2581\uc694\uac15": 5369,
    "\u2581\uc9c0\ubbf8": 5370,
    "\u2581\ub194\ub481": 5371,
    "\u2581\uc5b4\ub5b5\ud5f7\uc218\uacfc": 5372,
    "\u2581\ubf44": 5373,
    "\uc838\ub2f9": 5374,
    "\u2581\uac78\ub984\uc73c\ub85c": 5375,
    "\u2581\uc788\uc73c\uba74": 5376,
    "\ubd88\uc5ec": 5377,
    "\u2581\ubc27\uac08": 5378,
    "\u2581\ubb34\uc2dc\uac70\ub2c8": 5379,
    "\u2581\uc544\uc7a5": 5380,
    "\u2581\u1112\u119e\u11ab\ucc29": 5381,
    "\u2581\ud750\ud750\ud750": 5382,
    "\u2581\ud5f4\uc218\uacfc": 5383,
    "\u2581\ubc14\ub2e4\uc5d0\uc11c": 5384,
    "\u2581\uadf8\ub298": 5385,
    "\u2581\uc881\u110a\u119e\u11af\uc740": 5386,
    "\u2581\uc815\ud5e4": 5387,
    "\u2581\u110c\u119e\u11b8\uc740": 5388,
    "\u2581\uc464\uace0": 5389,
    "\u2581\uc624\ub9cc": 5390,
    "\u2581\ub3d9\uc0b0": 5391,
    "\u2581\uace0\ub204": 5392,
    "\u2581\ub098\uc624\uba74\uc740": 5393,
    "\u2581\uba39\uc5b4\ub098": 5394,
    "\u2581\u1100\u119e\u11ba\ub514": 5395,
    "\u2581\uae68\ub057\uc774": 5396,
    "\u2581\uc77c\ub9cc": 5397,
    "\u2581\uad6d\uc218": 5398,
    "\u2581\uc911\uc5d0\uc11c": 5399,
    "\u2581\u1102\u119e\ub824": 5400,
    "\uc5b8\ub9c8\uc528": 5401,
    "\ud31f": 5402,
    "\u2581\ubaa8\ub974\ucfe0": 5403,
    "\uace0\ub77c": 5404,
    "\u2581\ub2e8\uc9c0\uc5d0": 5405,
    "\u2581\ubc84\ub824": 5406,
    "\ud5d9\ub2c8\ub2e4": 5407,
    "\u2581\uc7a1\uc544\uadfc\uc5d0": 5408,
    "\u2581\ubb38\uc9dd": 5409,
    "\u2581\ubb3c\uac74": 5410,
    "\u2581\ubaa8\ub978": 5411,
    "\ud130\ub808": 5412,
    "\uc2f8": 5413,
    "\u2581\uc870\uc8fd": 5414,
    "\u2581\u1100\u119e\u11af\ubbfc": 5415,
    "\u2581\ubd84\uc774": 5416,
    "\u2581\ub204\ub8e9\uc740": 5417,
    "\u2581\uc804\uc774\ub294": 5418,
    "\ucfe0\uacfc": 5419,
    "\u2581\uc544\ub2c8\uc5ec": 5420,
    "\u2581\ub110\ub974": 5421,
    "\u2581\ubaa8\ub450": 5422,
    "\u2581\ub0a8\u110c\u119e\ub35c": 5423,
    "\u2581\ucf69\uad6d\uc740": 5424,
    "\uba54\uae30": 5425,
    "\u2581\uc5b8\uc81c\ucbe4": 5426,
    "\u2581\ub9c8\ucc2c\uac00\uc9c0\ub85c": 5427,
    "\ub9e8": 5428,
    "\u2581\ud5e4\ubd23": 5429,
    "\u2581\uc557": 5430,
    "\u2581\uc9c0\ubbfc": 5431,
    "\u2581\ub51c\ub85c": 5432,
    "\uc815\ub3c4": 5433,
    "\u2581\ud53c\uc6b0": 5434,
    "\u2581\ud14c\uc6b0\ub294": 5435,
    "\u2581\uc55a\uc838": 5436,
    "\u2581\ubc1c\ub808": 5437,
    "\u2581\uc0bc\ucd0c\uc740": 5438,
    "\u2581\ub450\ubd80\ub3c4": 5439,
    "\u2581\ub0ab\uc744": 5440,
    "\u2581\ubb3c\ub4e4\uc774": 5441,
    "\u2581\ubd80\ub77d\uc774": 5442,
    "\u2581\uc124\uce6b": 5443,
    "\u2581\u1100\u119e\u11af\uccb4": 5444,
    "\u2581\ubc14\uaf48": 5445,
    "\u1112\u119e\uc5f0": 5446,
    "\u2581\ub098\uc628\ub2e4": 5447,
    "\u2581\ube68": 5448,
    "\u2581\uc5f0\uc2f8\uc6c0": 5449,
    "\u2581\uc591\uc2dd": 5450,
    "\u2581\ub300\ud1b1": 5451,
    "\u2581\ucca0\uc774": 5452,
    "\u2581\uac10\ucd94": 5453,
    "\u2581\ub4e4\uc5b4\ub09c": 5454,
    "\ub77c\ubd80\ub09c": 5455,
    "\u2581\ud751\uc73c\ub85c": 5456,
    "\u2581\ubc8c\uc774": 5457,
    "\u2581\uc5bc\uba69\uc774": 5458,
    "\u2581\uad74\ubb35\uc5d0": 5459,
    "\u2581\ube44\uc624": 5460,
    "\u2581\ubd80\uce58": 5461,
    "\u2581\ub488\uae30": 5462,
    "\u2581\ub3cc\uc5d0": 5463,
    "\u2581\uacf5\ubb34\uc6d0": 5464,
    "\u2581\uce7c\uad6d": 5465,
    "\u2581\ub300\ub4e4\ud3ec": 5466,
    "\u2581\uc2b5\uaca9": 5467,
    "\u2581\uc2e0\ud63c\uc0b4\ub9bc": 5468,
    "\u2581\ud070\uba54\ub204\ub9ac": 5469,
    "\u2581\ub9dd\uc0ac\ub9ac": 5470,
    "\u2581\ub2f7\uc0c8\ubbf8\ub155": 5471,
    "\u2581\uc721\uc774\uc624": 5472,
    "\u2581\uc5c4\uccad\ub098\uac8c": 5473,
    "\u2581\ud6c8\ub828": 5474,
    "\u2581\uac01\uba54\uae30": 5475,
    "\u2581\uccc7\ub9dd": 5476,
    "\u2581\ud0d5\uc26c": 5477,
    "\u2581\ud640\ud2b8": 5478,
    "\u2581\uc14d\uc120": 5479,
    "\u2581\uc77c\ud3ec\uc81c": 5480,
    "\u2581\uc54c\uc544\uc9c0\ud06c\ub77c": 5481,
    "\u2581\ud2d4\uc655": 5482,
    "\uc9d1\ub2c8\uae4c": 5483,
    "\u2581\u110e\u119e\u11b7\u1102\u119e\ubb3c": 5484,
    "\u2581\uc813\uc73c\uba4d": 5485,
    "\u2581\uae30\uce68": 5486,
    "\u2581\uc18c\uc124": 5487,
    "\u2581\ub300\uc379": 5488,
    "\u2581\ubc18\u1103\u119e\u11af": 5489,
    "\u2581\uace4\u110a\u119e\u11af\uc774": 5490,
    "\u2581\uac77\uc5c9": 5491,
    "\u2581\uc6c3\ub4dc\ub9ac": 5492,
    "\u2581\ubd80\ubaa8\ub124": 5493,
    "\u2581\uac00\ubd88": 5494,
    "\u2581\u1103\u119e\u11bc\uaca8": 5495,
    "\u2581\uc8fc\ub984": 5496,
    "\u2581\ub3c4\ub808\uae30": 5497,
    "\u2581\ubaa8\ub798": 5498,
    "\u2581\ubc1b\uc557": 5499,
    "\u2581\uc548\ud5e4\uc5ec": 5500,
    "\u2581\uc694\ub9cc\ud55c": 5501,
    "\u2581\ub0b4\ub9ac": 5502,
    "\u2581\ubc14\ub839": 5503,
    "\ubd84\ub374": 5504,
    "\u2581\ud640\ud14c": 5505,
    "\u2581\ubd80\uc5cc\uc5d0": 5506,
    "\u2581\ub0b4\ubd80\ub294": 5507,
    "\u2581\uc591\ub825\uc73c\ub85c": 5508,
    "\u2581\ubca0\uac1c": 5509,
    "\u2581\ub9e4\ud574": 5510,
    "\u2581\uc2ef\uc800": 5511,
    "\u2581\ubc84\uc998": 5512,
    "\u2581\uae4d\uc2e0": 5513,
    "\u2581\uadf8\ub7f4": 5514,
    "\u2581\ud5c8\uc5ff": 5515,
    "\u2581\ube44\uace0": 5516,
    "\u2581\uc0c8\ud574": 5517,
    "\uc5c7\ub2f9": 5518,
    "\u2581\ub5a8\uc5b4\uc9c4": 5519,
    "\u2581\ubb3c\uc5b4\ubcfc\uac8c": 5520,
    "\u2581\uac00\uc800": 5521,
    "\u2581\ub118\uc5b4\uac00\ubbfc": 5522,
    "\u2581\uc0bc\uc73c\ub85c": 5523,
    "\u2581\uc811\uac8c": 5524,
    "\u2581\uc90f\uc5b4\ub2f9": 5525,
    "\u2581\ud310\uc774": 5526,
    "\u2581\ubc95\uc774": 5527,
    "\u2581\u1111\u119e\u11af\uc820": 5528,
    "\u2581\u1112\u119e\uaf3c\uc369": 5529,
    "\u2581\uc0ac\uc774": 5530,
    "\u2581\uc0bc\uc218": 5531,
    "\u2581\uc801\ub2f9": 5532,
    "\u2581\uc6e8\ub85c": 5533,
    "\u2581\uc190\uc9c8": 5534,
    "\u2581\ud5f7\uc8fc\ub9c8\ub294": 5535,
    "\u2581\ud5c8\ubc85\uc73c\ub85c": 5536,
    "\u2581\ubc1f\uc544": 5537,
    "\u2581\ub9d0\uace1": 5538,
    "\u2581\uc9c0\ub808": 5539,
    "\u2581\ubabb\ud5c8\ub09c": 5540,
    "\ub465": 5541,
    "\u2581\ube44\uc5ec\ub2f9": 5542,
    "\u2581\uc9d1\ub4e4\uc774": 5543,
    "\u2581\uccad\uba85": 5544,
    "\u2581\uac00\ub839": 5545,
    "\u2581\uac70\ub791": 5546,
    "\u2581\uc601\ud5c8\uc601": 5547,
    "\u2581\ud5f7\ub2e4": 5548,
    "\u2581\ub4e4\uac8c": 5549,
    "\u2581\u1109\u119e\u11b7\uc73c": 5550,
    "\u2581\u110e\u119e\u11bd": 5551,
    "\u2581\ubcd1\uc6d0\uc5d0": 5552,
    "\u2581\uc774\uc218": 5553,
    "\u2581\ud1b5\uc2dc\uc5d0": 5554,
    "\u2581\ubaa8\ub974\uac8c": 5555,
    "\uc379": 5556,
    "\uc774\uc0ac": 5557,
    "\u2581\ub0b8": 5558,
    "\u2581\u1102\u119e\ub824\uac00": 5559,
    "\u2581\uc2dc\uc544\ubc29": 5560,
    "\u2581\ubcf5\uc0ad": 5561,
    "\ub9ac\uc9c0": 5562,
    "\ub193\ub2c8\uae4c": 5563,
    "\u2581\ub0a0\uc5d0": 5564,
    "\u2581\uc18c\ub098": 5565,
    "\ub4e4\ub77d": 5566,
    "\u2581\ub9cc\ud07c": 5567,
    "\ud5c8\uc5ec\uadfc\uc5d0": 5568,
    "\u2581\ub531\uc9c0": 5569,
    "\u2581\ub0b4\ub824\uc624": 5570,
    "\u2581\ud574\uadf8\ub124": 5571,
    "\u2581\ud574\ub09c": 5572,
    "\u2581\ucf69\uc8fd\uc740": 5573,
    "\ud56d": 5574,
    "\u2581\ubd88\uc9c0": 5575,
    "\ubca4": 5576,
    "\u2581\ud55c\ub77c\uc0b0": 5577,
    "\u2581\ubc30\uc5d0": 5578,
    "\u2581\ub54c\ubbfc": 5579,
    "\ub728": 5580,
    "\u2581\ud1a1\ud5c8\uac8c": 5581,
    "\uc18d": 5582,
    "\u2581\uac13\uc8fc\uac8c": 5583,
    "\u2581\ubca0\uac00": 5584,
    "\u2581\uba69\uc9c8\uc5d0": 5585,
    "\u2581\uc774\uc11c\ub0ab": 5586,
    "\u2581\ucc9c\uc9c0": 5587,
    "\u2581\uc911\ub9e4\uacb0\ud63c": 5588,
    "\ubd25": 5589,
    "\u2581\uc785\uc8fc": 5590,
    "\u2581\u1106\u119e\u11ba": 5591,
    "\u2581\ubca0\uc5b4": 5592,
    "\u2581\ud1a0\uc2e0\uc81c\ub294": 5593,
    "\u2581\uc194\uc78e": 5594,
    "\u2581\uc0bc\ud5cc": 5595,
    "\u2581\uc624\ub984\uc740": 5596,
    "\ub77c\ub178\ub09c": 5597,
    "\ub358\ub370": 5598,
    "\u2581\uc220\uc740": 5599,
    "\u2581\u1100\u119e\u11af\uace0": 5600,
    "\u2581\ud2d4": 5601,
    "\u2581\u1103\u119e\u11ae": 5602,
    "\u2581\uace0\uce58\uc7a5": 5603,
    "\u2581\ub4e4\uc5b4\uac00\uac8c": 5604,
    "\uc774\uad6c\ub098": 5605,
    "\u2581\uc904\uae30": 5606,
    "\u2581\ub9cc\ub4e4\uae30": 5607,
    "\uc57c\uc8fc\uac8c": 5608,
    "\u2581\ubcf5\uce58\uba54": 5609,
    "\u2581\ub488\uc57c": 5610,
    "\u2581\ud314\uc6d4\uc5d0": 5611,
    "\u2581\ud638\ubc15\uc785\uad6d": 5612,
    "\u2581\uc190\ub2d8": 5613,
    "\u2581\uc720\uc6d4\uc5d0": 5614,
    "\u2581\ud5f4\uc2dc": 5615,
    "\u2581\uba39\uc73c": 5616,
    "\ub9cc\ud55c": 5617,
    "\u2581\uc218\uace0": 5618,
    "\ubc27\uc774": 5619,
    "\u2581\uc1a1": 5620,
    "\u2581\ub300\uccb4": 5621,
    "\u2581\uace8\uace0": 5622,
    "\u2581\ub179\uc544": 5623,
    "\u2581\ub3d7\uac00\ub808": 5624,
    "\u2581\uc65c\uc815": 5625,
    "\u2581\ub3d9\uc9d3\ub0a0": 5626,
    "\u2581\ub9de\uc9c0": 5627,
    "\u2581\uc6b0\ubb47\uac00\uc0ac\ub9ac": 5628,
    "\u2581\uc934\uae30\ub5a1": 5629,
    "\u2581\uc9e4\ub791": 5630,
    "\u2581\ucc22\uc5b4": 5631,
    "\u2581\ud6c4\ub8e8\uba54": 5632,
    "\uca6c": 5633,
    "\u2581\uac00\ub9b0\uc11d": 5634,
    "\u2581\ub3d7\uad6d\ubb3c": 5635,
    "\u2581\ubcf4\ubaa9\ub9ac": 5636,
    "\u2581\uc733\ub180\uc774": 5637,
    "\u2581\uac2f\ub2f4": 5638,
    "\u2581\ubc16\uac70\ub9ac": 5639,
    "\u2581\uc5f4\uad7f\ub5a1": 5640,
    "\u2581\u1109\u119e\ubbd3": 5641,
    "\u2581\ub098\ub8e9\ucc0d": 5642,
    "\u2581\ubd80\uc9c0\ub7f0": 5643,
    "\u2581\uc9c4\uc124": 5644,
    "\u2581\uba69\uc9c0\uc530": 5645,
    "\u2581\uc0dd\ubaa9": 5646,
    "\u2581\uc0c1\u1106\u119e\ub974": 5647,
    "\u2581\ud070\uc544\ub4e4": 5648,
    "\u2581\uac08\uc0b0\ub4f8": 5649,
    "\u2581\uc218\uc6e8": 5650,
    "\u2581\ubc31\uc911\uc81c": 5651,
    "\u2581\u110d\u119e\u11af\ub791": 5652,
    "\u2581\uc785\ucd94": 5653,
    "\u2581\ub204\ub801": 5654,
    "\u2581\uc9c8\ub88d": 5655,
    "\u2581\ubc84\uc120": 5656,
    "\u2581\uc0c1\uac15\uc77c": 5657,
    "\u2581\u110e\u119e\u11ab\ubb3c": 5658,
    "\u2581\uac00\uc2dc\ub9ac\uad6d": 5659,
    "\u2581\uc0b0\ud14c": 5660,
    "\u2581\uac00\uba69\uc774": 5661,
    "\ubc84\ub9ac\ub2c8\uae4c": 5662,
    "\u2581\uc77c\uc820": 5663,
    "\u2581\uc624\uadf8\ub77c\uc9c4": 5664,
    "\u2581\uc694\uc13c": 5665,
    "\u2581\uc18c\uc0b4": 5666,
    "\u2581\ubd80\uccd0": 5667,
    "\u2581\u1103\u119e\u11af\uc5d0": 5668,
    "\u2581\uc0c8\uc6b0\ub9ac": 5669,
    "\u2581\ubab0\ub791": 5670,
    "\u2581\uacbd\ud5c8\uc8fc": 5671,
    "\u2581\uc9c8\ubb38": 5672,
    "\u2581\u110c\u119e\u11af\ub77c\uba54": 5673,
    "\u2581\u1106\u119e\u11af\ud0c0\uae30": 5674,
    "\u2581\uacf5\uc7a5\uc5d0": 5675,
    "\u2581\u1107\u119e\u11af\ub9ac\uc820": 5676,
    "\u2581\u1106\u119e\u11af\u1100\u119e\ub808\uc5d0": 5677,
    "\u2581\uba69\uc2ec": 5678,
    "\u2581\ub189\ub2c8\ub2e4": 5679,
    "\u2581\ud5f7\ub2e4\uadfc\uc5d0": 5680,
    "\u2581\u110b\u11a2\ub365": 5681,
    "\u2581\ub300\uac15": 5682,
    "\u2581\uc6b0\ub9ac\ub9d0\ub85c": 5683,
    "\u2581\uc5b4\uba4d\ub124": 5684,
    "\u2581\u1111\u119e": 5685,
    "\u2581\ub0a9\ub2c8\ub2e4": 5686,
    "\u2581\ub465": 5687,
    "\u2581\uc911\ubc29": 5688,
    "\uac74\ub514": 5689,
    "\u2581\uc774\ub530": 5690,
    "\u2581\ub450\uac1c": 5691,
    "\u2581\uac78\ub9ac\ubbfc": 5692,
    "\u2581\ub07c\uc6b0": 5693,
    "\u2581\ucc98\uc11c": 5694,
    "\u2581\ubc84\uce58": 5695,
    "\u2581\ub0b4\ub0ad": 5696,
    "\u2581\uc601\ud5c8\ub294": 5697,
    "\u2581\ud5e4\uc2e0\uac00\ub9c8\uc528": 5698,
    "\u2581\uc624\uc77c": 5699,
    "\ubd80\ub09c\uc5d0": 5700,
    "\u2581\uc591\ud39c": 5701,
    "\u2581\uc637\uc5d0": 5702,
    "\u2581\ubc18\uce58\uc9c0": 5703,
    "\u2581\uc5ff\ub3c4": 5704,
    "\u2581\uc194\ubca4\uc740": 5705,
    "\u2581\uc5b4\uc131": 5706,
    "\u2581\uc7c1\uae30\ub85c": 5707,
    "\u2581\ub0ab\uc8fc\uac8c": 5708,
    "\u2581\ub2e5": 5709,
    "\u2581\ub2e4\uae4c": 5710,
    "\u2581\uce5c\uc871": 5711,
    "\u2581\ubb34\ub044\uace0": 5712,
    "\uc9c4\ub2e4": 5713,
    "\u2581\ub098\uc624\ub09c": 5714,
    "\u2581\ud5e4\uc57c\uc9c0": 5715,
    "\uc790\ub9ac": 5716,
    "\u2581\uc800\ud39c": 5717,
    "\u2581\ud1a0\uc9c0": 5718,
    "\ub77c\uc608": 5719,
    "\u2581\ud48d": 5720,
    "\u2581\uada4\uae30\ub3c4": 5721,
    "\u2581\uba39\uc5b4\ub0ab\uc800": 5722,
    "\u2581\uc808\uc5d0": 5723,
    "\u2581\uc694\uc998\ub3c4": 5724,
    "\u2581\ucd10\uc653": 5725,
    "\uc2dc\ucf1c": 5726,
    "\u2581\u1100\u119e\ub808\ub85c": 5727,
    "\u2581\uc774\uc5b4": 5728,
    "\u2581\ucd08\uc0c1": 5729,
    "\u2581\uc548\ubc18": 5730,
    "\uac11": 5731,
    "\u2581\uc787\uc5b4\ub0ab": 5732,
    "\u2581\u1100\u119e\ud2b8": 5733,
    "\u2581\ud654\ub9ac": 5734,
    "\u2581\u1103\u119e\u11bc": 5735,
    "\uae09": 5736,
    "\ud569": 5737,
    "\u2581\uba39\uc5c4\uc8fc": 5738,
    "\u2581\ud758": 5739,
    "\ub2e4\ub9cc\uc740": 5740,
    "\u2581\ubcf4\ub9bf": 5741,
    "\u2581\uc8fd\uc5b8": 5742,
    "\uad81": 5743,
    "\ud5c8\ub2e4": 5744,
    "\u2581\uad50": 5745,
    "\u2581\ub9c8\ucc2c\uac00\uc9c0\ub77c": 5746,
    "\ub0c9": 5747,
    "\uc653\uc5b4": 5748,
    "\ub137": 5749,
    "\uc600": 5750,
    "\uc19f": 5751,
    "\ucce3": 5752,
    "\ubcfc": 5753,
    "\ubca8": 5754,
    "\u2581\ub0a8\uad70": 5755,
    "\u2581\uace0\uace0\ub9ac\uac00": 5756,
    "\u2581\uac1c\ub77c": 5757,
    "\u2581\uc250\uc655": 5758,
    "\u2581\ub9c8\uc74c": 5759,
    "\u2581\ubd80\ucc0c\ub294": 5760,
    "\u2581\uc624\ub798\uc9c0": 5761,
    "\u2581\ub385\uacbb\uc8fc": 5762,
    "\uc90d\uc11c": 5763,
    "\u2581\uc5c6\uc774": 5764,
    "\u2581\ub9de\ucdb0": 5765,
    "\u2581\uc22d\ub144": 5766,
    "\u2581\ud640\ud2b8\ub294": 5767,
    "\u2581\uc7a1\uc557": 5768,
    "\u2581\uc591\ucabd": 5769,
    "\ubd88\uc8fc\uac8c": 5770,
    "\u2581\ub0b4\uc911": 5771,
    "\u2581\uc18c\uae4c\uc774": 5772,
    "\u2581\ub18d\uc0ac\uc5d0": 5773,
    "\u2581\ubd80\ud130": 5774,
    "\uc120\uac8c": 5775,
    "\u2581\ubcf8\ud5a5\uc5d0": 5776,
    "\u2581\ub499\ub2c8\ub2e4": 5777,
    "\u2581\ubfd0": 5778,
    "\u2581\ud328\ubc25": 5779,
    "\u2581\ubed4": 5780,
    "\u2581\uc0b0\ub4f8\u110a\u119e\u11af": 5781,
    "\uac9f": 5782,
    "\u2581\ucf69\ub300": 5783,
    "\u2581\u110d\u119e": 5784,
    "\u2581\uc5b4\ub9b0\uc544\uc774": 5785,
    "\u2581\uc138\uc5ec": 5786,
    "\u2581\ub3d9\ucabd": 5787,
    "\u2581\uba4d\uccad": 5788,
    "\u2581\ud5c8\ubc85\uc5d0": 5789,
    "\u2581\ud5c8\ub294\uac70": 5790,
    "\uafbc": 5791,
    "\u2581\uc9d0\uc791": 5792,
    "\u2581\uac19\uc73c": 5793,
    "\u2581\ub178\ub2c8\uae4c": 5794,
    "\u2581\ub18d\ucd0c": 5795,
    "\ud22c": 5796,
    "\uc5d8": 5797,
    "\u2581\uc0ac\uae30": 5798,
    "\u2581\uac2f\u1102\u119e\ubb3c": 5799,
    "\u2581\ud750\ud750": 5800,
    "\u2581\ub05d\uc5d0": 5801,
    "\u2581\ub9de\uace0": 5802,
    "\u2581\ub9de\uc559": 5803,
    "\u2581\uba70\uce60": 5804,
    "\u2581\uc22d\ub289": 5805,
    "\u2581\uc2dc\ucee4\uba4d": 5806,
    "\u2581\uc885\ub274": 5807,
    "\u2581\uc88b\ub098": 5808,
    "\u2581\ubabb\ube7c\uae30": 5809,
    "\u2581\uc131\uc8fc\ud480\uc774": 5810,
    "\u2581\uae08\ub2a5": 5811,
    "\u2581\uc9c0\ub458\ub88d": 5812,
    "\u2581\ubc14\uc058": 5813,
    "\u2581\uc30d\ub465\uc774": 5814,
    "\u2581\u110d\u119e\ub978": 5815,
    "\u2581\uac00\ub77c\u1106\u119e\u11af": 5816,
    "\u2581\ud45c\uc900\uc5b4": 5817,
    "\u2581\u1100\u119e\ub4dd": 5818,
    "\u2581\uc8fc\uc2ed\uc11c": 5819,
    "\u2581\ubd80\ucc10": 5820,
    "\u2581\u1109\u119e\u11af\ubcf4\ub9ac": 5821,
    "\u2581\uac83\ubcf4\ub9ac": 5822,
    "\u2581\ubf55\ub0ad": 5823,
    "\u2581\ubaa8\uba40\u110a\u119e\u11af": 5824,
    "\u2581\ubfcc\ub9b4": 5825,
    "\u2581\uc9c0\ud0a4": 5826,
    "\u2581\uafe9\uc5ff": 5827,
    "\u2581\u1107\u119e\u11af\ub839": 5828,
    "\u2581\ub450\ub450\ub9ac": 5829,
    "\u2581\ub2ec\ub798": 5830,
    "\u2581\ubab0\ub978": 5831,
    "\u2581\uc250\ubfd4": 5832,
    "\u2581\ud384": 5833,
    "\u2581\uc388": 5834,
    "\u2581\uc5c6\uc5c7\uc5b4": 5835,
    "\u2581\ucabc\ub054\uc529": 5836,
    "\u2581\ub057\ub3d9": 5837,
    "\u2581\ub450\uaed1": 5838,
    "\u2581\ub9c8\uc81c": 5839,
    "\u2581\ud718\uc591": 5840,
    "\u2581\ud479": 5841,
    "\u2581\uc934\uc601": 5842,
    "\u2581\uc801\uc84d": 5843,
    "\u2581\uc5f0\ub77d": 5844,
    "\u2581\uc870\ubc18": 5845,
    "\u2581\uac78\uccd0": 5846,
    "\u2581\uc548\ud5c8\ub0d0": 5847,
    "\u2581\uace0\ub9ac": 5848,
    "\u2581\uacbd\ud5f7\uad6c\ub098": 5849,
    "\u2581\uc138\uc6cc": 5850,
    "\u2581\ub9c9\ub465\uc774": 5851,
    "\u2581\uc774\ub9cc\uc778": 5852,
    "\uc557\ub2f9": 5853,
    "\u2581\ucf54\uc9c0": 5854,
    "\u2581\uc548\uc5d0\uc11c": 5855,
    "\u2581\ube4c\uc5b8": 5856,
    "\u2581\ud574\ubc29\ub488": 5857,
    "\u2581\uc154\ub0ab\uc800": 5858,
    "\u2581\u1112\u119e\u11b7": 5859,
    "\ub974\uace0": 5860,
    "\u2581\uac00\ucf04": 5861,
    "\u2581\uc804\uc7c1": 5862,
    "\u2581\uc804\uccb4": 5863,
    "\u2581\ub2ee\uc9c0": 5864,
    "\u2581\uc544\ubb34\uac70\ub098": 5865,
    "\u2581\u1100\u119e\u11af\uc73c\ubbfc": 5866,
    "\u2581\uc787\uc778\ub514": 5867,
    "\u2581\uc601\ud5e4\uc601": 5868,
    "\u2581\uc774\uc2dc": 5869,
    "\u2581\uba85\uc8fc": 5870,
    "\u2581\uc5ff\ub0a0\ub3c4": 5871,
    "\u2581\uac00\ub974": 5872,
    "\u2581\uba54\uc8fc\ub294": 5873,
    "\u2581\u110e\u119e\u11af\ub9b0": 5874,
    "\u2581\ub358\uc838": 5875,
    "\u2581\ub20c\uace0": 5876,
    "\u2581\uc54c\uc544\uc9c0\ub294": 5877,
    "\u2581\uba4d\uc11d\uc5d0": 5878,
    "\u2581\ub5bc\uc5b4": 5879,
    "\u2581\ud5c8\ub2c8\uae50": 5880,
    "\u2581\uc9c0\ubd95\uc5d0": 5881,
    "\u2581\uace0\uace0\ub9ac\ub97c": 5882,
    "\u2581\u1100\u119e\ub9cc": 5883,
    "\u2581\ucc28\uae30": 5884,
    "\u2581\uc0ac\ub78c\uc73c\ub85c": 5885,
    "\u2581\ubd10\uadfc\uc5d0": 5886,
    "\uc653\ub4f8": 5887,
    "\u2581\uc5c6\uc5b4\uc838": 5888,
    "\u2581\u1100\u119e\u11af\uc544\ub3c4": 5889,
    "\ubc84": 5890,
    "\u2581\uc774\ub7ec": 5891,
    "\u2581\uc548\ud600": 5892,
    "\u2581\uc12f": 5893,
    "\u2581\ub9d0\uc820": 5894,
    "\uc7c1\uc774": 5895,
    "\u2581\uc870\ubc27": 5896,
    "\u2581\uc9c0\uc740": 5897,
    "\u2581\ub178\uc778": 5898,
    "\u2581\ub385": 5899,
    "\u2581\uac78\ub9b0": 5900,
    "\u2581\uad6d\uc774": 5901,
    "\u2581\uc0dd\uc120\uad6d": 5902,
    "\u2581\ub098\uc8fc": 5903,
    "\ucd0c": 5904,
    "\u2581\ud45c\uc120": 5905,
    "\ud5f7\ub2e4": 5906,
    "\ucf69": 5907,
    "\u2581\ubc14\ub2e5\uc5d0": 5908,
    "\u2581\uc787\ub098": 5909,
    "\u1112\u119e\uc820": 5910,
    "\u2581\ub5a8\uc5b4": 5911,
    "\u2581\ubc1b\uc740": 5912,
    "\u2581\ud5e4\uc9c0\ubbfc": 5913,
    "\ub290\ub2c8": 5914,
    "\u2581\uace8\ub77c": 5915,
    "\ud074": 5916,
    "\u2581\uc544\ubb34\ub3c4": 5917,
    "\ub18d": 5918,
    "\ubc00": 5919,
    "\u2581\uae68\ub057\ud5c8\uac8c": 5920,
    "\u2581\uc2e0\ub791\uc774": 5921,
    "\u2581\u1106\u119e\u11af\ubc29": 5922,
    "\ud398": 5923,
    "\ubc1b": 5924,
    "\u2581\uc2dc\uc808": 5925,
    "\u2581\ub098\ub46c": 5926,
    "\u2581\uc544\ub4e4\uc774": 5927,
    "\u2581\ub9c8\ub8e8\uc5d0": 5928,
    "\u2581\ub193\ub2c8\uae4c": 5929,
    "\u2581\ub488\uac00\uc9c0\uace0": 5930,
    "\ucabd\uc73c\ub85c": 5931,
    "\u2581\ucd0c\uc5d0": 5932,
    "\ube44\uc5b4": 5933,
    "\u2581\ubcf4\ub984\uc5d0": 5934,
    "\u2581\ubb3c\ub4e4": 5935,
    "\u2581\uace0\ud321\uc740": 5936,
    "\ud504": 5937,
    "\u2581\uc7a1\uc2dd": 5938,
    "\u2581\ub9dd\uac74": 5939,
    "\u2581\uc548\ud5c8": 5940,
    "\u2581\ub205": 5941,
    "\u2581\uadc0\uc2e0\uc774": 5942,
    "\u2581\uad74\ubb35\uc740": 5943,
    "\uac00\ubbc4": 5944,
    "\u2581\uad00\uc5d0": 5945,
    "\u2581\u1100\u119e\u11af\uac31\uc774": 5946,
    "\u2581\uc791\uc0b4": 5947,
    "\u2581\ud558\uc820": 5948,
    "\ub9bf": 5949,
    "\ubc84\ub9ac\uba74": 5950,
    "\u2581\u1106\u119e\ubb3c\u110f\u119e\ub8e8": 5951,
    "\u2581\ud683\ubd88": 5952,
    "\uac19\uc774": 5953,
    "\u2581\ub3cc\uc544\uac00\uc154": 5954,
    "\u2581\uc218\uae4c\ub77d": 5955,
    "\uacbb": 5956,
    "\u2581\ud751\uc9c8\ud5c8": 5957,
    "\uc557\uc5b4": 5958,
    "\u2581\uc624\uc9d5\uc5b4": 5959,
    "\u2581\ub18b\uadf8\ub987": 5960,
    "\u2581\ubc14\uae00\ubc14\uae00": 5961,
    "\u2581\ubd99\uc5b4": 5962,
    "\u2581\uc11c\uae4c\ub798": 5963,
    "\u2581\uc54a\uc548": 5964,
    "\u2581\uc815\uc6d4\uba69\uc9c8": 5965,
    "\u2581\ud655\ud655": 5966,
    "\u2581\uacfc\uc990": 5967,
    "\u2581\uc0c1\uc65c\ub5a1": 5968,
    "\u2581\ubd80\ub8fd\uc774": 5969,
    "\u2581\ud63c\uc218\ud488": 5970,
    "\u2581\ucabc\ub04c\ub77d": 5971,
    "\u2581\uc5bc\ub8e9\uc250": 5972,
    "\u2581\u1106\u119e\uc791\ub2e8\ucd94": 5973,
    "\u2581\u1106\u119e\ubbc8\u110f\u119e\ub8e8": 5974,
    "\u2581\uc5f4\ubb34\uae40\uce58": 5975,
    "\u2581\uc2dc\uc9d1\uc0b4\uc774": 5976,
    "\u2581\ubaa8\ub974\ud06c\ub77c": 5977,
    "\u2581\ub2e4\ub9c8\uce58\uae30": 5978,
    "\u2581\ube64\uc2a4": 5979,
    "\u2581\uc194\ud39c": 5980,
    "\u2581\uac00\uc624\ub9ac\uc5f0": 5981,
    "\u2581\ubab0\ub974\ucfe0\ub2e4": 5982,
    "\u2581\u1106\u119e\ub140": 5983,
    "\u2581\uce5c\ubaa9": 5984,
    "\u2581\uae08\ub144": 5985,
    "\u2581\u1106\u119e\ubb3c\u110a\u119e\u11af": 5986,
    "\u2581\ud770\u110a\u119e\u11af": 5987,
    "\u2581\ub3d9\uc9d0\uce58": 5988,
    "\u2581\uaebc\ub0b4": 5989,
    "\u2581\uc624\ubc31": 5990,
    "\u2581\uc601\uc7a5\ubc27\ub4f8": 5991,
    "\u2581\u1109\u119e\uc2ed": 5992,
    "\u2581\ub2f9\ucd94": 5993,
    "\u2581\uc544\ub150\ub2c8\uae4c": 5994,
    "\u2581\ud0a4\uc655": 5995,
    "\u2581\uc787\ub3cc": 5996,
    "\u2581\uc18c\ub625": 5997,
    "\u2581\uadfc\ubc29": 5998,
    "\u2581\uae30\ubcf8": 5999,
    "\u2581\ud574\uc0bc": 6000,
    "\u2581\ubcb3\uacbd": 6001,
    "\u2581\ube64": 6002,
    "\u2581\ubb3c\uc801\uc0bc": 6003,
    "\u2581\uba55\uc77c": 6004,
    "\u2581\ub098\uc2e0\ub514": 6005,
    "\u2581\uc12c\ube44\uc9c8": 6006,
    "\u2581\uc5b4\uba38\ub2d8": 6007,
    "\u2581\ubf55": 6008,
    "\u2581\uacf5\uc815": 6009,
    "\u2581\ubb3c\uae40\uce58": 6010,
    "\u2581\uc774\ubc31": 6011,
    "\u2581\uc9c0\uae08\uc774\uc57c": 6012,
    "\u2581\ubcf4\ub044": 6013,
    "\u2581\ud0d3": 6014,
    "\u2581\ud6c5": 6015,
    "\u2581\u1106\u119e\u11af\ud14c": 6016,
    "\u2581\ud558\ucc9c": 6017,
    "\u2581\uc250\uc190": 6018,
    "\u2581\ub315\uae30": 6019,
    "\u2581\ubaa8\ub0e5": 6020,
    "\u2581\ud45c\uc120\ub9ac": 6021,
    "\u2581\ud5e4\uc90d\uc11c": 6022,
    "\u2581\ub300\uac00\ub9ac": 6023,
    "\u2581\uc790\uc138": 6024,
    "\u2581\ub530\ube44": 6025,
    "\u2581\uc790\uccb4": 6026,
    "\u2581\ub4e4\uc73c\ubbfc": 6027,
    "\u2581\ub4e3\uace0": 6028,
    "\u2581\uacc4\uc808\uc5d0": 6029,
    "\u2581\uaebc\uba4d": 6030,
    "\u2581\ub450\ub4dc\ub824\uadfc\uc5d0": 6031,
    "\u2581\uc900\ube44\ud5c8\ub294": 6032,
    "\u1112\u119e\uc9c0": 6033,
    "\u2581\ub370\uc2f8": 6034,
    "\u2581\uba39\uc5b4\ub0ab\uc5b4": 6035,
    "\ubd88\uc5c7\uc8fc": 6036,
    "\u2581\uc9c0\uae08\uc774\ub791": 6037,
    "\u2581\ub300\ubc18\uc774": 6038,
    "\u2581\ub9d0\uc81c": 6039,
    "\u2581\uc9c8\uae34": 6040,
    "\u2581\ucee8": 6041,
    "\u2581\ube68\uac15": 6042,
    "\u2581\ub3c4\uce58": 6043,
    "\u2581\uc9c8\uc5c9": 6044,
    "\u2581\uc800\uc2ac\uc5d0": 6045,
    "\u2581\uc88b\uc557": 6046,
    "\u2581\uc62c\ub77c\uc624\ubbfc": 6047,
    "\ub9ac\uace1": 6048,
    "\ubd88\uc5c9": 6049,
    "\u2581\uc544\ud50c": 6050,
    "\u2581\ub488\uc57c\uc9c0": 6051,
    "\u2581\ubc30\uce58": 6052,
    "\u2581\uac04\uc2dd": 6053,
    "\u2581\uaf3d\uc544": 6054,
    "\u2581\uc480\uadfc\uc5d0": 6055,
    "\u2581\uc8fd\uc5b4\ubd80\ub09c": 6056,
    "\u2581\ub9f7\ub3cc\uc5d0": 6057,
    "\u2581\ub300\ub098\ubb34\ub85c": 6058,
    "\u2581\ucca0\uc5d0": 6059,
    "\u2581\ud574\ub098": 6060,
    "\u2581\uc9d1\uc548\uc5d0\uc11c": 6061,
    "\u2581\uc5b4\ub978\ub4e4\uc740": 6062,
    "\u2581\uc300\ub85c": 6063,
    "\u2581\uc787\uac8c": 6064,
    "\u2581\uc790\ub9ac\ub3c4": 6065,
    "\ud5c8\ub2e8": 6066,
    "\u2581\uac70\ub80c": 6067,
    "\u2581\uadf8\ub54c\ubd80\ud130": 6068,
    "\u2581\uac83\ub35c\uc740": 6069,
    "\u2581\uc61b\ub0a0\uc5d0\uc0ac": 6070,
    "\u2581\uac00\ubd88\uace0": 6071,
    "\u2581\uc8fc\uc704\uc5d0": 6072,
    "\u2581\ub09c\ub9ac": 6073,
    "\u2581\uc5bc\uad74\uc5d0": 6074,
    "\u2581\ub358": 6075,
    "\u2581\uc2f1\uac83": 6076,
    "\u2581\u1100\u119e\u11af\uc544\uc8fc": 6077,
    "\u2581\uc0ac\ubc1c\ub85c": 6078,
    "\u2581\uadf8\ub188\uc73c": 6079,
    "\u2581\uad6c\uc2e0": 6080,
    "\u2581\uc624\ub78f": 6081,
    "\u2581\ud5e4\uc601\ud5cc": 6082,
    "\u2581\ubca0\uc640": 6083,
    "\uc14d\uc774": 6084,
    "\u2581\ub0a9\uc791": 6085,
    "\u2581\uc544\uc838\uac00": 6086,
    "\u2581\uc624\uc774": 6087,
    "\u2581\ubd88\uce58\ub97c": 6088,
    "\u2581\ud558\ub974\ubc84\uc9c0\uac00": 6089,
    "\u2581\ud5c8\uc9c0\ub9cc": 6090,
    "\u2581\ud5cc\uac74": 6091,
    "\u2581\uc900\ub2e4": 6092,
    "\u2581\uc8fc\uba74": 6093,
    "\u2581\uc0c1\uc744": 6094,
    "\u2581\uc5ec\uccad": 6095,
    "\u2581\uac10\uce58": 6096,
    "\u2581\ubc18\uc9c0": 6097,
    "\u2581\uadf8\ubd84": 6098,
    "\u2581\uc544\uce68\uc774": 6099,
    "\u2581\u1111\u119e\u11af\uc9c0": 6100,
    "\u2581\ubab0\ub974\uac8c": 6101,
    "\u2581\ub9db\uc5c7": 6102,
    "\u2581\uac04\ub374": 6103,
    "\u2581\ud5e4\uc8fc\ub294": 6104,
    "\uc90c": 6105,
    "\u2581\ub465\uae00": 6106,
    "\u2581\uc4f8\uc5b4": 6107,
    "\u2581\ub3c4\ub9dd": 6108,
    "\uc811": 6109,
    "\u2581\ud5c8\ub2e8\uc5d0": 6110,
    "\ucf5c": 6111,
    "\uc26c": 6112,
    "\ub610": 6113,
    "\ud478": 6114,
    "\u2581\uc0c8\uc5d0": 6115,
    "\u2581\ud5cc\ub370": 6116,
    "\u2581\uaebc\ub044": 6117,
    "\ud5e4\uae30\ub124": 6118,
    "\u2581\ub18d\ud611": 6119,
    "\u2581\uc55a\uc774": 6120,
    "\u2581\uc9c0\uad00": 6121,
    "\u2581\uc6b0\uc7a3": 6122,
    "\u2581\uc548\ud5c8\ub09c": 6123,
    "\u2581\uc9d0\uc774": 6124,
    "\u2581\uad7d\ub294": 6125,
    "\u2581\ub5a1\uc5d0": 6126,
    "\u2581\ubcf4\ub9ac\ud5c8\uace0": 6127,
    "\u2581\ub0b4\uae30": 6128,
    "\u2581\uae5d": 6129,
    "\u2581\uc1a1\ud3b8\uc740": 6130,
    "\u2581\uc8fd\uc9c0": 6131,
    "\u2581\ucabd\uc774": 6132,
    "\u2581\uc9c8\uae30": 6133,
    "\u2581\uac83\uc774\uace0": 6134,
    "\uc624\ub791": 6135,
    "\u2581\ubb50\uc60c": 6136,
    "\ub4ec": 6137,
    "\uae30\ub9cc": 6138,
    "\u2581\uc774\uc81c\uc57c": 6139,
    "\u2581\ud5e4\uba39\uc5b4": 6140,
    "\u2581\uac74\uac15": 6141,
    "\u2581\uacf5\ub3d9": 6142,
    "\ub4dd": 6143,
    "\u2581\uac1c\ubc1c\uc2dc\ub9ac": 6144,
    "\u2581\uc18d\uc774": 6145,
    "\uc6e1": 6146,
    "\u2581\u1104\u119e\u11b7": 6147,
    "\uc2a8": 6148,
    "\u2581\ub299\uc5b4": 6149,
    "\u2581\uc2ed\uc774\uc6d4": 6150,
    "\u2581\uac00\ub9c9\ucc3d\uc2e0": 6151,
    "\u2581\uadb9\uc7a5": 6152,
    "\u2581\ub119\ud328": 6153,
    "\u2581\ub9e5\uc8fc\ub9e5": 6154,
    "\u2581\ubb38\uac04\ucc44": 6155,
    "\u2581\ubb3b\uc740": 6156,
    "\u2581\uc88b\ub294": 6157,
    "\u2581\ud560\ubb34\ub2c8": 6158,
    "\u2581\ud0c1\ubc30\uae30": 6159,
    "\u2581\uc6b0\uc9c0\uc2dc": 6160,
    "\u2581\uae40\ub9e4\uae30": 6161,
[...]
